{
  "version": "1.0",
  "truncation": null,
  "padding": null,
  "added_tokens": [
    {
      "id": 0,
      "content": "<unk>",
      "single_word": false,
      "lstrip": false,
      "rstrip": false,
      "normalized": false,
      "special": true
    }
  ],
  "normalizer": {
    "type": "BertNormalizer",
    "clean_text": true,
    "handle_chinese_chars": true,
    "strip_accents": null,
    "lowercase": false
  },
  "pre_tokenizer": {
    "type": "BertPreTokenizer"
  },
  "post_processor": null,
  "decoder": {
    "type": "BPEDecoder",
    "suffix": "</w>"
  },
  "model": {
    "type": "BPE",
    "dropout": null,
    "unk_token": "<unk>",
    "continuing_subword_prefix": null,
    "end_of_word_suffix": "</w>",
    "fuse_unk": false,
    "byte_fallback": false,
    "vocab": {
      "<unk>": 0,
      "!": 1,
      "\"": 2,
      "#": 3,
      "$": 4,
      "%": 5,
      "&": 6,
      "'": 7,
      "(": 8,
      ")": 9,
      "*": 10,
      "+": 11,
      ",": 12,
      "-": 13,
      ".": 14,
      "/": 15,
      "0": 16,
      "1": 17,
      "2": 18,
      "3": 19,
      "4": 20,
      "5": 21,
      "6": 22,
      "7": 23,
      "8": 24,
      "9": 25,
      ":": 26,
      ";": 27,
      "<": 28,
      "=": 29,
      ">": 30,
      "?": 31,
      "@": 32,
      "A": 33,
      "B": 34,
      "C": 35,
      "D": 36,
      "E": 37,
      "F": 38,
      "G": 39,
      "H": 40,
      "I": 41,
      "J": 42,
      "K": 43,
      "L": 44,
      "M": 45,
      "N": 46,
      "O": 47,
      "P": 48,
      "Q": 49,
      "R": 50,
      "S": 51,
      "T": 52,
      "U": 53,
      "V": 54,
      "W": 55,
      "X": 56,
      "Y": 57,
      "Z": 58,
      "[": 59,
      "\\": 60,
      "]": 61,
      "^": 62,
      "_": 63,
      "`": 64,
      "a": 65,
      "b": 66,
      "c": 67,
      "d": 68,
      "e": 69,
      "f": 70,
      "g": 71,
      "h": 72,
      "i": 73,
      "j": 74,
      "k": 75,
      "l": 76,
      "m": 77,
      "n": 78,
      "o": 79,
      "p": 80,
      "q": 81,
      "r": 82,
      "s": 83,
      "t": 84,
      "u": 85,
      "v": 86,
      "w": 87,
      "x": 88,
      "y": 89,
      "z": 90,
      "{": 91,
      "|": 92,
      "}": 93,
      "~": 94,
      "¢": 95,
      "£": 96,
      "¥": 97,
      "°": 98,
      "±": 99,
      "²": 100,
      "³": 101,
      "µ": 102,
      "·": 103,
      "¹": 104,
      "º": 105,
      "½": 106,
      "¾": 107,
      "Á": 108,
      "É": 109,
      "Ó": 110,
      "Ö": 111,
      "×": 112,
      "Ø": 113,
      "Ü": 114,
      "Þ": 115,
      "ß": 116,
      "à": 117,
      "á": 118,
      "â": 119,
      "ã": 120,
      "ä": 121,
      "å": 122,
      "æ": 123,
      "ç": 124,
      "è": 125,
      "é": 126,
      "ê": 127,
      "ë": 128,
      "ì": 129,
      "í": 130,
      "î": 131,
      "ï": 132,
      "ð": 133,
      "ñ": 134,
      "ò": 135,
      "ó": 136,
      "ô": 137,
      "õ": 138,
      "ö": 139,
      "÷": 140,
      "ø": 141,
      "ù": 142,
      "ú": 143,
      "ü": 144,
      "ý": 145,
      "þ": 146,
      "ā": 147,
      "ă": 148,
      "ą": 149,
      "Ć": 150,
      "ć": 151,
      "Č": 152,
      "č": 153,
      "Đ": 154,
      "đ": 155,
      "ē": 156,
      "ė": 157,
      "ę": 158,
      "ě": 159,
      "ğ": 160,
      "ī": 161,
      "ı": 162,
      "ł": 163,
      "ń": 164,
      "ň": 165,
      "ŋ": 166,
      "ō": 167,
      "ŏ": 168,
      "ő": 169,
      "œ": 170,
      "ř": 171,
      "Ś": 172,
      "ś": 173,
      "ş": 174,
      "Š": 175,
      "š": 176,
      "ţ": 177,
      "ũ": 178,
      "ū": 179,
      "ů": 180,
      "ų": 181,
      "ź": 182,
      "ż": 183,
      "ž": 184,
      "ǎ": 185,
      "ǐ": 186,
      "ǔ": 187,
      "ǣ": 188,
      "ș": 189,
      "ȟ": 190,
      "ɐ": 191,
      "ɑ": 192,
      "ɔ": 193,
      "ɕ": 194,
      "ə": 195,
      "ɛ": 196,
      "ɜ": 197,
      "ɡ": 198,
      "ɣ": 199,
      "ɦ": 200,
      "ɨ": 201,
      "ɪ": 202,
      "ɯ": 203,
      "ɵ": 204,
      "ɸ": 205,
      "ɽ": 206,
      "ɾ": 207,
      "ʁ": 208,
      "ʂ": 209,
      "ʃ": 210,
      "ʉ": 211,
      "ʊ": 212,
      "ʌ": 213,
      "ʒ": 214,
      "ʔ": 215,
      "ʕ": 216,
      "ʰ": 217,
      "ʲ": 218,
      "ʷ": 219,
      "ʻ": 220,
      "ʼ": 221,
      "ʽ": 222,
      "ˈ": 223,
      "ː": 224,
      "˚": 225,
      "˥": 226,
      "˩": 227,
      "̀": 228,
      "́": 229,
      "̃": 230,
      "̍": 231,
      "̞": 232,
      "̥": 233,
      "̯": 234,
      "͡": 235,
      "Α": 236,
      "Δ": 237,
      "Ε": 238,
      "Θ": 239,
      "Κ": 240,
      "Π": 241,
      "Σ": 242,
      "Φ": 243,
      "Ψ": 244,
      "Ω": 245,
      "έ": 246,
      "α": 247,
      "β": 248,
      "δ": 249,
      "ε": 250,
      "η": 251,
      "θ": 252,
      "λ": 253,
      "μ": 254,
      "ν": 255,
      "π": 256,
      "ς": 257,
      "σ": 258,
      "τ": 259,
      "υ": 260,
      "χ": 261,
      "ω": 262,
      "ϝ": 263,
      "А": 264,
      "Б": 265,
      "В": 266,
      "Г": 267,
      "Д": 268,
      "К": 269,
      "Л": 270,
      "М": 271,
      "Н": 272,
      "О": 273,
      "П": 274,
      "Р": 275,
      "С": 276,
      "Ф": 277,
      "Х": 278,
      "Ц": 279,
      "а": 280,
      "б": 281,
      "в": 282,
      "г": 283,
      "д": 284,
      "е": 285,
      "ж": 286,
      "з": 287,
      "и": 288,
      "й": 289,
      "к": 290,
      "л": 291,
      "м": 292,
      "н": 293,
      "о": 294,
      "п": 295,
      "р": 296,
      "с": 297,
      "т": 298,
      "у": 299,
      "х": 300,
      "ц": 301,
      "ч": 302,
      "ш": 303,
      "ъ": 304,
      "ы": 305,
      "ь": 306,
      "э": 307,
      "ю": 308,
      "я": 309,
      "і": 310,
      "ј": 311,
      "њ": 312,
      "ћ": 313,
      "џ": 314,
      "Ҕ": 315,
      "ҕ": 316,
      "Ҭ": 317,
      "ҭ": 318,
      "Ҷ": 319,
      "ҷ": 320,
      "Ҿ": 321,
      "ҿ": 322,
      "ә": 323,
      "Վ": 324,
      "ա": 325,
      "ե": 326,
      "թ": 327,
      "կ": 328,
      "յ": 329,
      "ն": 330,
      "ո": 331,
      "տ": 332,
      "ր": 333,
      "ւ": 334,
      "ք": 335,
      "ְ": 336,
      "ִ": 337,
      "ָ": 338,
      "ֹ": 339,
      "א": 340,
      "ב": 341,
      "ג": 342,
      "ה": 343,
      "ו": 344,
      "ט": 345,
      "י": 346,
      "ך": 347,
      "ם": 348,
      "ע": 349,
      "ר": 350,
      "ש": 351,
      "ת": 352,
      "ا": 353,
      "ب": 354,
      "ة": 355,
      "ت": 356,
      "ث": 357,
      "ح": 358,
      "د": 359,
      "ر": 360,
      "س": 361,
      "ش": 362,
      "ـ": 363,
      "ك": 364,
      "ل": 365,
      "م": 366,
      "ن": 367,
      "ه": 368,
      "و": 369,
      "ي": 370,
      "پ": 371,
      "ھ": 372,
      "ی": 373,
      "ە": 374,
      "ܓ": 375,
      "ܘ": 376,
      "ܝ": 377,
      "ܢ": 378,
      "ँ": 379,
      "ं": 380,
      "क": 381,
      "ग": 382,
      "छ": 383,
      "ढ": 384,
      "त": 385,
      "ध": 386,
      "म": 387,
      "र": 388,
      "ल": 389,
      "ळ": 390,
      "व": 391,
      "ष": 392,
      "स": 393,
      "ा": 394,
      "ि": 395,
      "ु": 396,
      "ृ": 397,
      "े": 398,
      "ो": 399,
      "्": 400,
      "ই": 401,
      "ত": 402,
      "ন": 403,
      "প": 404,
      "ব": 405,
      "ম": 406,
      "য": 407,
      "র": 408,
      "ল": 409,
      "শ": 410,
      "স": 411,
      "়": 412,
      "া": 413,
      "ি": 414,
      "ু": 415,
      "ে": 416,
      "ো": 417,
      "্": 418,
      "அ": 419,
      "இ": 420,
      "க": 421,
      "ச": 422,
      "ஞ": 423,
      "ட": 424,
      "ண": 425,
      "த": 426,
      "ந": 427,
      "ன": 428,
      "ப": 429,
      "ம": 430,
      "ய": 431,
      "ர": 432,
      "ற": 433,
      "ள": 434,
      "ழ": 435,
      "வ": 436,
      "ா": 437,
      "ி": 438,
      "ு": 439,
      "ூ": 440,
      "ே": 441,
      "ை": 442,
      "ோ": 443,
      "்": 444,
      "గ": 445,
      "త": 446,
      "ల": 447,
      "ు": 448,
      "ె": 449,
      "ಉ": 450,
      "ಕ": 451,
      "ಡ": 452,
      "ತ": 453,
      "ನ": 454,
      "ರ": 455,
      "ವ": 456,
      "ಸ": 457,
      "ಾ": 458,
      "ಿ": 459,
      "ು": 460,
      "್": 461,
      "ം": 462,
      "ക": 463,
      "ങ": 464,
      "ച": 465,
      "ഥ": 466,
      "ന": 467,
      "ഭ": 468,
      "മ": 469,
      "യ": 470,
      "ല": 471,
      "ള": 472,
      "ഴ": 473,
      "വ": 474,
      "ാ": 475,
      "ി": 476,
      "ു": 477,
      "െ": 478,
      "്": 479,
      "ද": 480,
      "ර": 481,
      "ස": 482,
      "ා": 483,
      "ු": 484,
      "ෙ": 485,
      "ก": 486,
      "ค": 487,
      "น": 488,
      "บ": 489,
      "ป": 490,
      "ผ": 491,
      "พ": 492,
      "ภ": 493,
      "ม": 494,
      "ย": 495,
      "ร": 496,
      "ฤ": 497,
      "ล": 498,
      "ว": 499,
      "ษ": 500,
      "ห": 501,
      "ั": 502,
      "า": 503,
      "ิ": 504,
      "ี": 505,
      "่": 506,
      "་": 507,
      "།": 508,
      "ག": 509,
      "ན": 510,
      "མ": 511,
      "ཟ": 512,
      "འ": 513,
      "ས": 514,
      "ེ": 515,
      "ྤ": 516,
      "ဂ": 517,
      "င": 518,
      "တ": 519,
      "န": 520,
      "သ": 521,
      "အ": 522,
      "ါ": 523,
      "ာ": 524,
      "ေ": 525,
      "ဲ": 526,
      "္": 527,
      "်": 528,
      "ွ": 529,
      "ၚ": 530,
      "ა": 531,
      "ბ": 532,
      "გ": 533,
      "დ": 534,
      "ე": 535,
      "ვ": 536,
      "ზ": 537,
      "თ": 538,
      "ი": 539,
      "კ": 540,
      "ლ": 541,
      "მ": 542,
      "ნ": 543,
      "ო": 544,
      "პ": 545,
      "რ": 546,
      "ს": 547,
      "ტ": 548,
      "უ": 549,
      "ყ": 550,
      "ც": 551,
      "წ": 552,
      "ხ": 553,
      "ሙ": 554,
      "ስ": 555,
      "ត": 556,
      "ថ": 557,
      "ទ": 558,
      "ម": 559,
      "រ": 560,
      "ស": 561,
      "ា": 562,
      "ិ": 563,
      "ី": 564,
      "ៃ": 565,
      "្": 566,
      "០": 567,
      "១": 568,
      "ᠡ": 569,
      "ᠦ": 570,
      "ᠨ": 571,
      "ᠳ": 572,
      "ᠷ": 573,
      "ḍ": 574,
      "ḥ": 575,
      "ṃ": 576,
      "ṅ": 577,
      "ṛ": 578,
      "ṣ": 579,
      "ṭ": 580,
      "ẽ": 581,
      "–": 582,
      "—": 583,
      "‘": 584,
      "’": 585,
      "“": 586,
      "”": 587,
      "†": 588,
      "‡": 589,
      "•": 590,
      "…": 591,
      "‰": 592,
      "′": 593,
      "″": 594,
      "›": 595,
      "⁄": 596,
      "₩": 597,
      "€": 598,
      "№": 599,
      "←": 600,
      "↑": 601,
      "→": 602,
      "↓": 603,
      "−": 604,
      "∗": 605,
      "√": 606,
      "∞": 607,
      "≅": 608,
      "≥": 609,
      "⊕": 610,
      "●": 611,
      "☉": 612,
      "☪": 613,
      "♂": 614,
      "♠": 615,
      "✓": 616,
      "ⴋ": 617,
      "ⴒ": 618,
      "ⴙ": 619,
      "ⴥ": 620,
      "、": 621,
      "〜": 622,
      "あ": 623,
      "い": 624,
      "う": 625,
      "お": 626,
      "き": 627,
      "く": 628,
      "さ": 629,
      "せ": 630,
      "そ": 631,
      "た": 632,
      "ち": 633,
      "で": 634,
      "と": 635,
      "ど": 636,
      "な": 637,
      "に": 638,
      "の": 639,
      "ひ": 640,
      "ほ": 641,
      "ゅ": 642,
      "よ": 643,
      "ら": 644,
      "り": 645,
      "ん": 646,
      "ア": 647,
      "イ": 648,
      "カ": 649,
      "ギ": 650,
      "ク": 651,
      "サ": 652,
      "ス": 653,
      "ズ": 654,
      "タ": 655,
      "ダ": 656,
      "チ": 657,
      "ッ": 658,
      "テ": 659,
      "デ": 660,
      "ト": 661,
      "ド": 662,
      "バ": 663,
      "ヒ": 664,
      "ブ": 665,
      "プ": 666,
      "ホ": 667,
      "ポ": 668,
      "マ": 669,
      "ム": 670,
      "メ": 671,
      "リ": 672,
      "ル": 673,
      "ロ": 674,
      "ン": 675,
      "・": 676,
      "ー": 677,
      "ㄲ": 678,
      "ㄷ": 679,
      "ㅎ": 680,
      "ㆁ": 681,
      "ㆅ": 682,
      "一": 683,
      "三": 684,
      "上": 685,
      "下": 686,
      "不": 687,
      "世": 688,
      "丙": 689,
      "中": 690,
      "丽": 691,
      "乃": 692,
      "之": 693,
      "乡": 694,
      "乳": 695,
      "人": 696,
      "今": 697,
      "伊": 698,
      "会": 699,
      "伝": 700,
      "位": 701,
      "作": 702,
      "你": 703,
      "依": 704,
      "係": 705,
      "俊": 706,
      "信": 707,
      "偉": 708,
      "傅": 709,
      "傳": 710,
      "僕": 711,
      "儿": 712,
      "兒": 713,
      "全": 714,
      "八": 715,
      "兰": 716,
      "关": 717,
      "凤": 718,
      "别": 719,
      "制": 720,
      "力": 721,
      "区": 722,
      "區": 723,
      "千": 724,
      "升": 725,
      "卓": 726,
      "南": 727,
      "卫": 728,
      "厦": 729,
      "县": 730,
      "叉": 731,
      "友": 732,
      "反": 733,
      "古": 734,
      "台": 735,
      "叶": 736,
      "吸": 737,
      "告": 738,
      "哀": 739,
      "問": 740,
      "喆": 741,
      "国": 742,
      "土": 743,
      "在": 744,
      "地": 745,
      "圳": 746,
      "城": 747,
      "基": 748,
      "士": 749,
      "多": 750,
      "夜": 751,
      "大": 752,
      "天": 753,
      "太": 754,
      "奕": 755,
      "女": 756,
      "奶": 757,
      "如": 758,
      "威": 759,
      "婆": 760,
      "嫁": 761,
      "嬰": 762,
      "子": 763,
      "学": 764,
      "孫": 765,
      "宁": 766,
      "室": 767,
      "密": 768,
      "實": 769,
      "寬": 770,
      "尾": 771,
      "屏": 772,
      "山": 773,
      "岡": 774,
      "崇": 775,
      "州": 776,
      "市": 777,
      "師": 778,
      "幼": 779,
      "庆": 780,
      "店": 781,
      "康": 782,
      "廣": 783,
      "延": 784,
      "弟": 785,
      "弦": 786,
      "当": 787,
      "心": 788,
      "忠": 789,
      "思": 790,
      "性": 791,
      "恋": 792,
      "情": 793,
      "惠": 794,
      "意": 795,
      "愛": 796,
      "感": 797,
      "慈": 798,
      "戀": 799,
      "戈": 800,
      "我": 801,
      "戦": 802,
      "戰": 803,
      "手": 804,
      "换": 805,
      "探": 806,
      "提": 807,
      "揚": 808,
      "摩": 809,
      "摸": 810,
      "敗": 811,
      "教": 812,
      "文": 813,
      "新": 814,
      "方": 815,
      "族": 816,
      "日": 817,
      "昆": 818,
      "昌": 819,
      "明": 820,
      "星": 821,
      "春": 822,
      "是": 823,
      "曉": 824,
      "曙": 825,
      "曜": 826,
      "月": 827,
      "有": 828,
      "朋": 829,
      "期": 830,
      "木": 831,
      "未": 832,
      "杰": 833,
      "林": 834,
      "栗": 835,
      "格": 836,
      "梁": 837,
      "椒": 838,
      "極": 839,
      "槍": 840,
      "機": 841,
      "次": 842,
      "欧": 843,
      "歌": 844,
      "殇": 845,
      "殤": 846,
      "段": 847,
      "氏": 848,
      "永": 849,
      "沒": 850,
      "沙": 851,
      "没": 852,
      "海": 853,
      "淇": 854,
      "淞": 855,
      "深": 856,
      "湖": 857,
      "滑": 858,
      "漫": 859,
      "潛": 860,
      "潮": 861,
      "無": 862,
      "焼": 863,
      "爆": 864,
      "爱": 865,
      "爸": 866,
      "版": 867,
      "牌": 868,
      "犬": 869,
      "狀": 870,
      "狼": 871,
      "猨": 872,
      "猿": 873,
      "王": 874,
      "玲": 875,
      "珺": 876,
      "瓦": 877,
      "甜": 878,
      "生": 879,
      "申": 880,
      "电": 881,
      "男": 882,
      "界": 883,
      "百": 884,
      "的": 885,
      "盧": 886,
      "相": 887,
      "省": 888,
      "看": 889,
      "磊": 890,
      "福": 891,
      "立": 892,
      "章": 893,
      "笔": 894,
      "等": 895,
      "粉": 896,
      "糸": 897,
      "縣": 898,
      "给": 899,
      "羅": 900,
      "美": 901,
      "羽": 902,
      "老": 903,
      "者": 904,
      "自": 905,
      "與": 906,
      "舞": 907,
      "舺": 908,
      "良": 909,
      "色": 910,
      "艺": 911,
      "芯": 912,
      "花": 913,
      "茶": 914,
      "菊": 915,
      "菩": 916,
      "萬": 917,
      "萱": 918,
      "蓬": 919,
      "蔡": 920,
      "藏": 921,
      "蘇": 922,
      "蟲": 923,
      "蠻": 924,
      "装": 925,
      "西": 926,
      "要": 927,
      "视": 928,
      "訪": 929,
      "訴": 930,
      "説": 931,
      "警": 932,
      "護": 933,
      "诗": 934,
      "谁": 935,
      "賴": 936,
      "躍": 937,
      "边": 938,
      "通": 939,
      "造": 940,
      "道": 941,
      "郢": 942,
      "配": 943,
      "酷": 944,
      "重": 945,
      "野": 946,
      "金": 947,
      "銘": 948,
      "铅": 949,
      "镇": 950,
      "门": 951,
      "陀": 952,
      "雄": 953,
      "霧": 954,
      "靈": 955,
      "青": 956,
      "音": 957,
      "須": 958,
      "频": 959,
      "飛": 960,
      "馬": 961,
      "马": 962,
      "鬼": 963,
      "魔": 964,
      "魚": 965,
      "鳳": 966,
      "鴨": 967,
      "黎": 968,
      "鼎": 969,
      "ꜜ": 970,
      "ꡙ": 971,
      "경": 972,
      "도": 973,
      "리": 974,
      "면": 975,
      "베": 976,
      "봐": 977,
      "상": 978,
      "송": 979,
      "수": 980,
      "애": 981,
      "양": 982,
      "왕": 983,
      "은": 984,
      "자": 985,
      "잘": 986,
      "장": 987,
      "주": 988,
      "준": 989,
      "차": 990,
      "판": 991,
      "함": 992,
      "해": 993,
      "홍": 994,
      "화": 995,
      "（": 996,
      "）": 997,
      "２": 998,
      "～": 999,
      "￥": 1000,
      "h</w>": 1001,
      "n</w>": 1002,
      "e</w>": 1003,
      "0</w>": 1004,
      "t</w>": 1005,
      "2</w>": 1006,
      "O</w>": 1007,
      "y</w>": 1008,
      "r</w>": 1009,
      "s</w>": 1010,
      "l</w>": 1011,
      "6</w>": 1012,
      "v</w>": 1013,
      "o</w>": 1014,
      "S</w>": 1015,
      "d</w>": 1016,
      "u</w>": 1017,
      "a</w>": 1018,
      "G</w>": 1019,
      "k</w>": 1020,
      "4</w>": 1021,
      "C</w>": 1022,
      "g</w>": 1023,
      "º</w>": 1024,
      "ស</w>": 1025,
      "i</w>": 1026,
      "3</w>": 1027,
      "8</w>": 1028,
      "W</w>": 1029,
      "m</w>": 1030,
      "7</w>": 1031,
      "x</w>": 1032,
      "ß</w>": 1033,
      "c</w>": 1034,
      "A</w>": 1035,
      "1</w>": 1036,
      "z</w>": 1037,
      "f</w>": 1038,
      "и</w>": 1039,
      "å</w>": 1040,
      "ć</w>": 1041,
      "5</w>": 1042,
      "b</w>": 1043,
      "L</w>": 1044,
      "&</w>": 1045,
      "ȟ</w>": 1046,
      "Z</w>": 1047,
      "ч</w>": 1048,
      "T</w>": 1049,
      "9</w>": 1050,
      "ū</w>": 1051,
      "ʊ</w>": 1052,
      "ا</w>": 1053,
      "p</w>": 1054,
      "w</w>": 1055,
      "B</w>": 1056,
      "藏</w>": 1057,
      "R</w>": 1058,
      "菩</w>": 1059,
      "ー</w>": 1060,
      "q</w>": 1061,
      "F</w>": 1062,
      "威</w>": 1063,
      "ц</w>": 1064,
      "I</w>": 1065,
      "ი</w>": 1066,
      "ب</w>": 1067,
      "N</w>": 1068,
      "j</w>": 1069,
      "日</w>": 1070,
      "ဲ</w>": 1071,
      "០</w>": 1072,
      "á</w>": 1073,
      "ə</w>": 1074,
      "ം</w>": 1075,
      "X</w>": 1076,
      "̥</w>": 1077,
      "ⴙ</w>": 1078,
      "́</w>": 1079,
      "M</w>": 1080,
      "ō</w>": 1081,
      "月</w>": 1082,
      "V</w>": 1083,
      "×</w>": 1084,
      "ı</w>": 1085,
      "í</w>": 1086,
      "é</w>": 1087,
      "哀</w>": 1088,
      "う</w>": 1089,
      "谁</w>": 1090,
      "#</w>": 1091,
      "¥</w>": 1092,
      "P</w>": 1093,
      "D</w>": 1094,
      "ر</w>": 1095,
      "č</w>": 1096,
      "о</w>": 1097,
      "Y</w>": 1098,
      "£</w>": 1099,
      "卓</w>": 1100,
      "K</w>": 1101,
      "ा</w>": 1102,
      "ு</w>": 1103,
      "子</w>": 1104,
      "飛</w>": 1105,
      "}</w>": 1106,
      "ⴒ</w>": 1107,
      "J</w>": 1108,
      "￥</w>": 1109,
      "ն</w>": 1110,
      "ி</w>": 1111,
      "~</w>": 1112,
      "송</w>": 1113,
      "ズ</w>": 1114,
      "è</w>": 1115,
      "E</w>": 1116,
      "ь</w>": 1117,
      "ә</w>": 1118,
      "U</w>": 1119,
      "а</w>": 1120,
      "е</w>": 1121,
      "ა</w>": 1122,
      "萱</w>": 1123,
      "区</w>": 1124,
      "H</w>": 1125,
      "廣</w>": 1126,
      "电</w>": 1127,
      "边</w>": 1128,
      "春</w>": 1129,
      "³</w>": 1130,
      "°</w>": 1131,
      "ク</w>": 1132,
      "ن</w>": 1133,
      "ǎ</w>": 1134,
      "生</w>": 1135,
      "ھ</w>": 1136,
      "自</w>": 1137,
      "ė</w>": 1138,
      "一</w>": 1139,
      "ћ</w>": 1140,
      "\\</w>": 1141,
      "區</w>": 1142,
      "ł</w>": 1143,
      "น</w>": 1144,
      "판</w>": 1145,
      "β</w>": 1146,
      "狼</w>": 1147,
      "焼</w>": 1148,
      "丙</w>": 1149,
      "ш</w>": 1150,
      "南</w>": 1151,
      "></w>": 1152,
      "ś</w>": 1153,
      "ם</w>": 1154,
      "Ҿ</w>": 1155,
      "●</w>": 1156,
      "'</w>": 1157,
      "½</w>": 1158,
      "土</w>": 1159,
      "ī</w>": 1160,
      "்</w>": 1161,
      "弟</w>": 1162,
      "/</w>": 1163,
      "±</w>": 1164,
      "未</w>": 1165,
      "ω</w>": 1166,
      "鳳</w>": 1167,
      "É</w>": 1168,
      "教</w>": 1169,
      "ä</w>": 1170,
      "ี</w>": 1171,
      "면</w>": 1172,
      "²</w>": 1173,
      "я</w>": 1174,
      "ค</w>": 1175,
      "{</w>": 1176,
      "र</w>": 1177,
      "問</w>": 1178,
      "¢</w>": 1179,
      "装</w>": 1180,
      "圳</w>": 1181,
      "是</w>": 1182,
      "س</w>": 1183,
      "д</w>": 1184,
      "关</w>": 1185,
      "ː</w>": 1186,
      "м</w>": 1187,
      "栗</w>": 1188,
      "偉</w>": 1189,
      "幼</w>": 1190,
      "¹</w>": 1191,
      "忠</w>": 1192,
      "杰</w>": 1193,
      "躍</w>": 1194,
      "太</w>": 1195,
      "乃</w>": 1196,
      "ས</w>": 1197,
      "チ</w>": 1198,
      "朋</w>": 1199,
      "男</w>": 1200,
      "殇</w>": 1201,
      "н</w>": 1202,
      "া</w>": 1203,
      "ʻ</w>": 1204,
      "수</w>": 1205,
      "›</w>": 1206,
      "舞</w>": 1207,
      "良</w>": 1208,
      "ই</w>": 1209,
      "ɸ</w>": 1210,
      "ಾ</w>": 1211,
      "道</w>": 1212,
      "ɪ</w>": 1213,
      "犬</w>": 1214,
      "配</w>": 1215,
      ":</w>": 1216,
      "ʼ</w>": 1217,
      "嬰</w>": 1218,
      "屏</w>": 1219,
      "↑</w>": 1220,
      "蘇</w>": 1221,
      "ʲ</w>": 1222,
      "茶</w>": 1223,
      "?</w>": 1224,
      "æ</w>": 1225,
      ".</w>": 1226,
      "文</w>": 1227,
      "ە</w>": 1228,
      "ב</w>": 1229,
      "ô</w>": 1230,
      "ل</w>": 1231,
      "ㆅ</w>": 1232,
      "ò</w>": 1233,
      "š</w>": 1234,
      "✓</w>": 1235,
      "傳</w>": 1236,
      "揚</w>": 1237,
      "猨</w>": 1238,
      "ು</w>": 1239,
      "海</w>": 1240,
      "国</w>": 1241,
      "室</w>": 1242,
      "ε</w>": 1243,
      "Π</w>": 1244,
      "σ</w>": 1245,
      "作</w>": 1246,
      "π</w>": 1247,
      "−</w>": 1248,
      "τ</w>": 1249,
      "☪</w>": 1250,
      "ë</w>": 1251,
      "ú</w>": 1252,
      "で</w>": 1253,
      "[</w>": 1254,
      "士</w>": 1255,
      "奶</w>": 1256,
      "р</w>": 1257,
      "ḥ</w>": 1258,
      "音</w>": 1259,
      "我</w>": 1260,
      "铅</w>": 1261,
      "·</w>": 1262,
      "ム</w>": 1263,
      "舺</w>": 1264,
      "þ</w>": 1265,
      "=</w>": 1266,
      "à</w>": 1267,
      "Q</w>": 1268,
      "พ</w>": 1269,
      "兰</w>": 1270,
      "今</w>": 1271,
      "沒</w>": 1272,
      "兒</w>": 1273,
      "意</w>": 1274,
      "с</w>": 1275,
      "י</w>": 1276,
      "!</w>": 1277,
      "玲</w>": 1278,
      "ţ</w>": 1279,
      "α</w>": 1280,
      "Ø</w>": 1281,
      "永</w>": 1282,
      "曉</w>": 1283,
      "ó</w>": 1284,
      "爸</w>": 1285,
      "봐</w>": 1286,
      "告</w>": 1287,
      "要</w>": 1288,
      "ে</w>": 1289,
      "不</w>": 1290,
      "思</w>": 1291,
      "་</w>": 1292,
      "湖</w>": 1293,
      "爆</w>": 1294,
      "ʷ</w>": 1295,
      "欧</w>": 1296,
      "†</w>": 1297,
      "འ</w>": 1298,
      "ㆁ</w>": 1299,
      "銘</w>": 1300,
      "ܢ</w>": 1301,
      "—</w>": 1302,
      "ち</w>": 1303,
      "ན</w>": 1304,
      "磊</w>": 1305,
      "ා</w>": 1306,
      "ɡ</w>": 1307,
      "ž</w>": 1308,
      "ǐ</w>": 1309,
      "й</w>": 1310,
      "孫</w>": 1311,
      "马</w>": 1312,
      "昌</w>": 1313,
      "ã</w>": 1314,
      "潛</w>": 1315,
      "叶</w>": 1316,
      "章</w>": 1317,
      "ý</w>": 1318,
      "リ</w>": 1319,
      "金</w>": 1320,
      "ì</w>": 1321,
      "人</w>": 1322,
      "도</w>": 1323,
      "ø</w>": 1324,
      "_</w>": 1325,
      "庆</w>": 1326,
      "्</w>": 1327,
      "≥</w>": 1328,
      "喆</w>": 1329,
      "ו</w>": 1330,
      "蟲</w>": 1331,
      "ą</w>": 1332,
      "中</w>": 1333,
      "縣</w>": 1334,
      "蠻</w>": 1335,
      "ʰ</w>": 1336,
      "鼎</w>": 1337,
      "<</w>": 1338,
      "ю</w>": 1339,
      "你</w>": 1340,
      "Φ</w>": 1341,
      "ě</w>": 1342,
      "友</w>": 1343,
      "(</w>": 1344,
      "西</w>": 1345,
      "视</w>": 1346,
      "信</w>": 1347,
      "重</w>": 1348,
      "མ</w>": 1349,
      "美</w>": 1350,
      "换</w>": 1351,
      "戈</w>": 1352,
      "€</w>": 1353,
      "Ҷ</w>": 1354,
      "ರ</w>": 1355,
      "木</w>": 1356,
      "ɐ</w>": 1357,
      "ギ</w>": 1358,
      "古</w>": 1359,
      "ך</w>": 1360,
      "ṭ</w>": 1361,
      "།</w>": 1362,
      "位</w>": 1363,
      "ɛ</w>": 1364,
      "า</w>": 1365,
      "）</w>": 1366,
      "族</w>": 1367,
      "王</w>": 1368,
      "摩</w>": 1369,
      "下</w>": 1370,
      "ʃ</w>": 1371,
      "ิ</w>": 1372,
      "ș</w>": 1373,
      "靈</w>": 1374,
      "～</w>": 1375,
      "ā</w>": 1376,
      "慈</w>": 1377,
      "市</w>": 1378,
      "儿</w>": 1379,
      "殤</w>": 1380,
      "淇</w>": 1381,
      "Θ</w>": 1382,
      "⊕</w>": 1383,
      "م</w>": 1384,
      "雄</w>": 1385,
      "ⴥ</w>": 1386,
      "别</w>": 1387,
      "ה</w>": 1388,
      "寬</w>": 1389,
      "*</w>": 1390,
      "傅</w>": 1391,
      "百</w>": 1392,
      "深</w>": 1393,
      "ေ</w>": 1394,
      "粉</w>": 1395,
      "‘</w>": 1396,
      "蔡</w>": 1397,
      "ꡙ</w>": 1398,
      "л</w>": 1399,
      "当</w>": 1400,
      "在</w>": 1401,
      "诗</w>": 1402,
      "′</w>": 1403,
      "曙</w>": 1404,
      "%</w>": 1405,
      "須</w>": 1406,
      "ҷ</w>": 1407,
      "\"</w>": 1408,
      "ს</w>": 1409,
      "訴</w>": 1410,
      "+</w>": 1411,
      "…</w>": 1412,
      "珺</w>": 1413,
      "ŋ</w>": 1414,
      "•</w>": 1415,
      "ï</w>": 1416,
      "ş</w>": 1417,
      "梁</w>": 1418,
      "ö</w>": 1419,
      "地</w>": 1420,
      "羽</w>": 1421,
      "尾</w>": 1422,
      "ð</w>": 1423,
      "ை</w>": 1424,
      "υ</w>": 1425,
      "性</w>": 1426,
      "槍</w>": 1427,
      "]</w>": 1428,
      "山</w>": 1429,
      "盧</w>": 1430,
      "ᠦ</w>": 1431,
      "伝</w>": 1432,
      "無</w>": 1433,
      "蓬</w>": 1434,
      "州</w>": 1435,
      "椒</w>": 1436,
      "ม</w>": 1437,
      "恋</w>": 1438,
      "上</w>": 1439,
      "→</w>": 1440,
      "狀</w>": 1441,
      "叉</w>": 1442,
      "ɨ</w>": 1443,
      "制</w>": 1444,
      "ɣ</w>": 1445,
      "氏</w>": 1446,
      "к</w>": 1447,
      "心</w>": 1448,
      "学</w>": 1449,
      "康</w>": 1450,
      "ꜜ</w>": 1451,
      "酷</w>": 1452,
      "甜</w>": 1453,
      "爱</w>": 1454,
      "升</w>": 1455,
      "ř</w>": 1456,
      "ة</w>": 1457,
      "有</w>": 1458,
      "千</w>": 1459,
      "“</w>": 1460,
      "探</w>": 1461,
      "師</w>": 1462,
      "г</w>": 1463,
      "羅</w>": 1464,
      "ṃ</w>": 1465,
      "感</w>": 1466,
      "た</w>": 1467,
      "А</w>": 1468,
      "ј</w>": 1469,
      "ü</w>": 1470,
      "÷</w>": 1471,
      "笔</w>": 1472,
      "ʕ</w>": 1473,
      "相</w>": 1474,
      "芯</w>": 1475,
      "门</w>": 1476,
      "乡</w>": 1477,
      "歌</w>": 1478,
      "極</w>": 1479,
      "鴨</w>": 1480,
      "ه</w>": 1481,
      "段</w>": 1482,
      "ष</w>": 1483,
      "‰</w>": 1484,
      "ు</w>": 1485,
      "ż</w>": 1486,
      "如</w>": 1487,
      "Ω</w>": 1488,
      "俊</w>": 1489,
      "№</w>": 1490,
      "র</w>": 1491,
      "˥</w>": 1492,
      "立</w>": 1493,
      "♠</w>": 1494,
      "ി</w>": 1495,
      "店</w>": 1496,
      "Κ</w>": 1497,
      "の</w>": 1498,
      "婆</w>": 1499,
      "♂</w>": 1500,
      "↓</w>": 1501,
      "陀</w>": 1502,
      "|</w>": 1503,
      "ル</w>": 1504,
      "力</w>": 1505,
      "看</w>": 1506,
      "花</w>": 1507,
      "者</w>": 1508,
      "η</w>": 1509,
      "ⴋ</w>": 1510,
      "∞</w>": 1511,
      "説</w>": 1512,
      "黎</w>": 1513,
      "Г</w>": 1514,
      "ҕ</w>": 1515,
      "之</w>": 1516,
      ")</w>": 1517,
      "期</w>": 1518,
      "係</w>": 1519,
      "ო</w>": 1520,
      "實</w>": 1521,
      "菊</w>": 1522,
      "ল</w>": 1523,
      "、</w>": 1524,
      "ர</w>": 1525,
      "会</w>": 1526,
      "世</w>": 1527,
      "戰</w>": 1528,
      "糸</w>": 1529,
      "的</w>": 1530,
      ";</w>": 1531,
      "敗</w>": 1532,
      "護</w>": 1533,
      "ň</w>": 1534,
      "–</w>": 1535,
      "多</w>": 1536,
      "ր</w>": 1537,
      "手</w>": 1538,
      "`</w>": 1539,
      "ㄷ</w>": 1540,
      "カ</w>": 1541,
      "惠</w>": 1542,
      "訪</w>": 1543,
      "野</w>": 1544,
      "林</w>": 1545,
      "т</w>": 1546,
      "基</w>": 1547,
      "주</w>": 1548,
      "（</w>": 1549,
      "機</w>": 1550,
      "ų</w>": 1551,
      "ē</w>": 1552,
      "给</w>": 1553,
      "←</w>": 1554,
      "奕</w>": 1555,
      "潮</w>": 1556,
      "-</w>": 1557,
      "没</w>": 1558,
      "淞</w>": 1559,
      "嫁</w>": 1560,
      "@</w>": 1561,
      "版</w>": 1562,
      "ါ</w>": 1563,
      "岡</w>": 1564,
      "卫</w>": 1565,
      "ತ</w>": 1566,
      "崇</w>": 1567,
      "ح</w>": 1568,
      "瓦</w>": 1569,
      "艺</w>": 1570,
      "ɵ</w>": 1571,
      "滑</w>": 1572,
      "ϝ</w>": 1573,
      "Ҕ</w>": 1574,
      "馬</w>": 1575,
      "ो</w>": 1576,
      "ς</w>": 1577,
      "√</w>": 1578,
      "猿</w>": 1579,
      "μ</w>": 1580,
      "$</w>": 1581,
      "與</w>": 1582,
      "왕</w>": 1583,
      "Ó</w>": 1584,
      "‡</w>": 1585,
      "频</w>": 1586,
      "ʽ</w>": 1587,
      "э</w>": 1588,
      "장</w>": 1589,
      "八</w>": 1590,
      "申</w>": 1591,
      "等</w>": 1592,
      "牌</w>": 1593,
      "은</w>": 1594,
      "延</w>": 1595,
      "ҿ</w>": 1596,
      "明</w>": 1597,
      "ย</w>": 1598,
      "☉</w>": 1599,
      "密</w>": 1600,
      "ʁ</w>": 1601,
      "厦</w>": 1602,
      "ㄲ</w>": 1603,
      "新</w>": 1604,
      "老</w>": 1605,
      "星</w>": 1606,
      "次</w>": 1607,
      "ǔ</w>": 1608,
      "吸</w>": 1609,
      "छ</w>": 1610,
      "天</w>": 1611,
      "き</w>": 1612,
      "台</w>": 1613,
      "夜</w>": 1614,
      "县</w>": 1615,
      "鬼</w>": 1616,
      "ɑ</w>": 1617,
      "三</w>": 1618,
      "乳</w>": 1619,
      "≅</w>": 1620,
      "়</w>": 1621,
      "２</w>": 1622,
      ",</w>": 1623,
      "Л</w>": 1624,
      "漫</w>": 1625,
      "ስ</w>": 1626,
      "依</w>": 1627,
      "ט</w>": 1628,
      "魔</w>": 1629,
      "̃</w>": 1630,
      "ν</w>": 1631,
      "界</w>": 1632,
      "情</w>": 1633,
      "弦</w>": 1634,
      "〜</w>": 1635,
      "・</w>": 1636,
      "丽</w>": 1637,
      "ֹ</w>": 1638,
      "造</w>": 1639,
      "沙</w>": 1640,
      "反</w>": 1641,
      "僕</w>": 1642,
      "宁</w>": 1643,
      "凤</w>": 1644,
      "ź</w>": 1645,
      "镇</w>": 1646,
      "伊</w>": 1647,
      "”</w>": 1648,
      "警</w>": 1649,
      "城</w>": 1650,
      "萬</w>": 1651,
      "り</w>": 1652,
      "Ö</w>": 1653,
      "福</w>": 1654,
      "全</w>": 1655,
      "曜</w>": 1656,
      "格</w>": 1657,
      "ㅎ</w>": 1658,
      "ာ</w>": 1659,
      "賴</w>": 1660,
      "^</w>": 1661,
      "자</w>": 1662,
      "ি</w>": 1663,
      "’</w>": 1664,
      "大</w>": 1665,
      "通</w>": 1666,
      "ಡ</w>": 1667,
      "ɔ</w>": 1668,
      "提</w>": 1669,
      "愛</w>": 1670,
      "θ</w>": 1671,
      "青</w>": 1672,
      "摸</w>": 1673,
      "省</w>": 1674,
      "霧</w>": 1675,
      "魚</w>": 1676,
      "色</w>": 1677,
      "戦</w>": 1678,
      "女</w>": 1679,
      "δ</w>": 1680,
      "昆</w>": 1681,
      "ʉ</w>": 1682,
      "″</w>": 1683,
      "郢</w>": 1684,
      "方</w>": 1685,
      "戀</w>": 1686,
      "ta": 1687,
      "le</w>": 1688,
      "ble</w>": 1689,
      "table</w>": 1690,
      "SE": 1691,
      "LE": 1692,
      "CT</w>": 1693,
      "FR": 1694,
      "OM</w>": 1695,
      "SELE": 1696,
      "FROM</w>": 1697,
      "SELECT</w>": 1698,
      "ER": 1699,
      "WH": 1700,
      "ERE</w>": 1701,
      "WHERE</w>": 1702,
      "AN": 1703,
      "AND</w>": 1704,
      "in": 1705,
      "at": 1706,
      "ea": 1707,
      "en": 1708,
      "on</w>": 1709,
      "er</w>": 1710,
      "or": 1711,
      "an": 1712,
      "it": 1713,
      "er": 1714,
      "on": 1715,
      "ion</w>": 1716,
      "ar": 1717,
      "me</w>": 1718,
      "ou": 1719,
      "la": 1720,
      "es</w>": 1721,
      "ate</w>": 1722,
      "eam</w>": 1723,
      "cor": 1724,
      "ri": 1725,
      "20": 1726,
      "is": 1727,
      "Date</w>": 1728,
      "Re": 1729,
      "ed</w>": 1730,
      "Po": 1731,
      "al": 1732,
      "ce</w>": 1733,
      "ent</w>": 1734,
      "CO": 1735,
      "NT</w>": 1736,
      "COU": 1737,
      "COUNT</w>": 1738,
      "re": 1739,
      "ts</w>": 1740,
      "st</w>": 1741,
      "core</w>": 1742,
      "oun": 1743,
      "ro": 1744,
      "ame</w>": 1745,
      "19": 1746,
      "il": 1747,
      "ic": 1748,
      "Pla": 1749,
      "al</w>": 1750,
      "team</w>": 1751,
      "ation</w>": 1752,
      "Yea": 1753,
      "200": 1754,
      "le": 1755,
      "am": 1756,
      "ct": 1757,
      "ch": 1758,
      "Year</w>": 1759,
      "in</w>": 1760,
      "ol": 1761,
      "ul": 1762,
      "st": 1763,
      "mb": 1764,
      "IN</w>": 1765,
      "MA": 1766,
      "MIN</w>": 1767,
      "pp": 1768,
      "MAX</w>": 1769,
      "ing</w>": 1770,
      "Play": 1771,
      "ay</w>": 1772,
      "or</w>": 1773,
      "Lo": 1774,
      "Score</w>": 1775,
      "un": 1776,
      "Team</w>": 1777,
      "ig": 1778,
      "ome</w>": 1779,
      "ir": 1780,
      "ue</w>": 1781,
      "ition</w>": 1782,
      "ra": 1783,
      "el": 1784,
      "Player</w>": 1785,
      "ge</w>": 1786,
      "th": 1787,
      "ints</w>": 1788,
      "om": 1789,
      "Name</w>": 1790,
      "ss": 1791,
      "ur": 1792,
      "tr": 1793,
      "Opp": 1794,
      "ity</w>": 1795,
      "To": 1796,
      "an</w>": 1797,
      "Home</w>": 1798,
      "Oppon": 1799,
      "mber</w>": 1800,
      "of</w>": 1801,
      "Win": 1802,
      "AV": 1803,
      "AVG</w>": 1804,
      "ank</w>": 1805,
      "end": 1806,
      "10</w>": 1807,
      "tal</w>": 1808,
      "ion": 1809,
      "tt": 1810,
      "way</w>": 1811,
      "ap": 1812,
      "en</w>": 1813,
      "Opponent</w>": 1814,
      "Points</w>": 1815,
      "SU": 1816,
      "sition</w>": 1817,
      "SUM</w>": 1818,
      "de</w>": 1819,
      "ers</w>": 1820,
      "Rank</w>": 1821,
      "ance</w>": 1822,
      "di": 1823,
      "Away</w>": 1824,
      "son</w>": 1825,
      "Position</w>": 1826,
      "Coun": 1827,
      "Res": 1828,
      "Total</w>": 1829,
      "cord</w>": 1830,
      "ver</w>": 1831,
      "11</w>": 1832,
      "th</w>": 1833,
      "enue</w>": 1834,
      "Record</w>": 1835,
      "Att": 1836,
      "Resul": 1837,
      "Ti": 1838,
      "endance</w>": 1839,
      "Sta": 1840,
      "Venue</w>": 1841,
      "Attendance</w>": 1842,
      "12</w>": 1843,
      "itle</w>": 1844,
      "de": 1845,
      "oo": 1846,
      "ound</w>": 1847,
      "Ch": 1848,
      "Result</w>": 1849,
      "ner</w>": 1850,
      "our": 1851,
      "score</w>": 1852,
      "and</w>": 1853,
      "Loc": 1854,
      "try</w>": 1855,
      "et": 1856,
      "ver": 1857,
      "We": 1858,
      "Country</w>": 1859,
      "ss</w>": 1860,
      "Location</w>": 1861,
      "In": 1862,
      "inal</w>": 1863,
      "ac": 1864,
      "00</w>": 1865,
      "art": 1866,
      "vi": 1867,
      "199": 1868,
      "lu": 1869,
      "lo": 1870,
      "En": 1871,
      "sh": 1872,
      "eason</w>": 1873,
      "Time</w>": 1874,
      "by</w>": 1875,
      "Round</w>": 1876,
      "ember</w>": 1877,
      "sta": 1878,
      "ourn": 1879,
      "Title</w>": 1880,
      "ill": 1881,
      "se</w>": 1882,
      "ma": 1883,
      "Di": 1884,
      "cu": 1885,
      "als</w>": 1886,
      "ek</w>": 1887,
      "Go": 1888,
      "13</w>": 1889,
      "ing": 1890,
      "co": 1891,
      "De": 1892,
      "ies</w>": 1893,
      "el</w>": 1894,
      "ds</w>": 1895,
      "lub</w>": 1896,
      "ia</w>": 1897,
      "Game</w>": 1898,
      "Week</w>": 1899,
      "Pro": 1900,
      "po": 1901,
      "ch</w>": 1902,
      "umber</w>": 1903,
      "ru": 1904,
      "se": 1905,
      "ov": 1906,
      "14</w>": 1907,
      "te</w>": 1908,
      "ick</w>": 1909,
      "igh": 1910,
      "ct</w>": 1911,
      "ga": 1912,
      "et</w>": 1913,
      "ool</w>": 1914,
      "pa": 1915,
      "wn</w>": 1916,
      "Season</w>": 1917,
      "ze</w>": 1918,
      "Com": 1919,
      "15</w>": 1920,
      "No</w>": 1921,
      "ary</w>": 1922,
      "is</w>": 1923,
      "ournam": 1924,
      "chool</w>": 1925,
      "us</w>": 1926,
      "ist": 1927,
      "if": 1928,
      "16</w>": 1929,
      "Con": 1930,
      "Br": 1931,
      "est</w>": 1932,
      "Col": 1933,
      "rig": 1934,
      "date</w>": 1935,
      "Club</w>": 1936,
      "up</w>": 1937,
      "les</w>": 1938,
      "ation": 1939,
      "ot": 1940,
      "old</w>": 1941,
      "all</w>": 1942,
      "ne": 1943,
      "cted</w>": 1944,
      "qu": 1945,
      "gu": 1946,
      "ournament</w>": 1947,
      "ff": 1948,
      "10": 1949,
      "Goals</w>": 1950,
      "Dra": 1951,
      "river</w>": 1952,
      "aps</w>": 1953,
      "Tournament</w>": 1954,
      "du": 1955,
      "igh</w>": 1956,
      "ctor</w>": 1957,
      "Pick</w>": 1958,
      "age</w>": 1959,
      "Wins</w>": 1960,
      "um</w>": 1961,
      "ight</w>": 1962,
      "the</w>": 1963,
      "ut": 1964,
      "School</w>": 1965,
      "ace</w>": 1966,
      "198": 1967,
      "ction</w>": 1968,
      "ha": 1969,
      "Orig": 1970,
      "20</w>": 1971,
      "Laps</w>": 1972,
      "eries</w>": 1973,
      "ic</w>": 1974,
      "17</w>": 1975,
      "id": 1976,
      "ard</w>": 1977,
      "amp": 1978,
      "25</w>": 1979,
      "High</w>": 1980,
      "18</w>": 1981,
      "Ev": 1982,
      "Lea": 1983,
      "Place</w>": 1984,
      "La": 1985,
      "gain": 1986,
      "ish</w>": 1987,
      "gainst</w>": 1988,
      "Part": 1989,
      "Se": 1990,
      "im": 1991,
      "it</w>": 1992,
      "Original</w>": 1993,
      "Dire": 1994,
      "por": 1995,
      "Cla": 1996,
      "pul": 1997,
      "ine</w>": 1998,
      "ad": 1999,
      "Winn": 2000,
      "ran": 2001,
      "lege</w>": 2002,
      "onze</w>": 2003,
      "pe</w>": 2004,
      "ve</w>": 2005,
      "ew": 2006,
      "ass": 2007,
      "pulation</w>": 2008,
      "ment</w>": 2009,
      "Bronze</w>": 2010,
      "row": 2011,
      "ele": 2012,
      "College</w>": 2013,
      "Sil": 2014,
      "ions</w>": 2015,
      "rid</w>": 2016,
      "Gold</w>": 2017,
      "istri": 2018,
      "Driver</w>": 2019,
      "Comp": 2020,
      "Number</w>": 2021,
      "ter": 2022,
      "Silver</w>": 2023,
      "2008</w>": 2024,
      "ality</w>": 2025,
      "ob": 2026,
      "30</w>": 2027,
      "gue</w>": 2028,
      "City</w>": 2029,
      "Population</w>": 2030,
      "istrict</w>": 2031,
      "ode</w>": 2032,
      "rit": 2033,
      "Grid</w>": 2034,
      "Mar": 2035,
      "22</w>": 2036,
      "irst</w>": 2037,
      "for": 2038,
      "19</w>": 2039,
      "District</w>": 2040,
      "ed": 2041,
      "ir</w>": 2042,
      "24</w>": 2043,
      "ents</w>": 2044,
      "mar": 2045,
      "au": 2046,
      "2010</w>": 2047,
      "and": 2048,
      "ck": 2049,
      "Crow": 2050,
      "Eng": 2051,
      "mill": 2052,
      "Winner</w>": 2053,
      "Crowd</w>": 2054,
      "21</w>": 2055,
      "pis": 2056,
      "Nation": 2057,
      "ory</w>": 2058,
      "Th": 2059,
      "con": 2060,
      "First</w>": 2061,
      "ype</w>": 2062,
      "To</w>": 2063,
      "ist</w>": 2064,
      "ton</w>": 2065,
      "Winning</w>": 2066,
      "rs</w>": 2067,
      "2011</w>": 2068,
      "name</w>": 2069,
      "Class</w>": 2070,
      "00": 2071,
      "18": 2072,
      "for</w>": 2073,
      "197": 2074,
      "ip": 2075,
      "2009</w>": 2076,
      "ag": 2077,
      "ong</w>": 2078,
      "ip</w>": 2079,
      "to": 2080,
      "cy</w>": 2081,
      "to</w>": 2082,
      "eg": 2083,
      "ames</w>": 2084,
      "anu": 2085,
      "par</w>": 2086,
      "cumb": 2087,
      "cumbent</w>": 2088,
      "ick": 2089,
      "Incumbent</w>": 2090,
      "ke</w>": 2091,
      "land</w>": 2092,
      "Epis": 2093,
      "Ca": 2094,
      "no</w>": 2095,
      "23</w>": 2096,
      "Ar": 2097,
      "ence</w>": 2098,
      "ph": 2099,
      "ewers</w>": 2100,
      "lea": 2101,
      "Ma": 2102,
      "Run": 2103,
      "Nationality</w>": 2104,
      "Writ": 2105,
      "as</w>": 2106,
      "ited</w>": 2107,
      "ent": 2108,
      "27</w>": 2109,
      "Event</w>": 2110,
      "us": 2111,
      "2007</w>": 2112,
      "League</w>": 2113,
      "ck</w>": 2114,
      "mon": 2115,
      "etition</w>": 2116,
      "pla": 2117,
      "Lost</w>": 2118,
      "26</w>": 2119,
      "su": 2120,
      "Played</w>": 2121,
      "rea</w>": 2122,
      "Sh": 2123,
      "pt": 2124,
      "dium</w>": 2125,
      "points</w>": 2126,
      "nd</w>": 2127,
      "mo": 2128,
      "Episode</w>": 2129,
      "ision</w>": 2130,
      "Competition</w>": 2131,
      "Area</w>": 2132,
      "Series</w>": 2133,
      "fe": 2134,
      "verage</w>": 2135,
      "ian</w>": 2136,
      "ens": 2137,
      "29</w>": 2138,
      "ca": 2139,
      "Sp": 2140,
      "Type</w>": 2141,
      "der</w>": 2142,
      "ey</w>": 2143,
      "gr": 2144,
      "per": 2145,
      "196": 2146,
      "Me": 2147,
      "2012</w>": 2148,
      "Produ": 2149,
      "car": 2150,
      "Party</w>": 2151,
      "Nation</w>": 2152,
      "ber": 2153,
      "Co": 2154,
      "ency</w>": 2155,
      "28</w>": 2156,
      "eng": 2157,
      "Against</w>": 2158,
      "2006</w>": 2159,
      "code</w>": 2160,
      "port</w>": 2161,
      "united</w>": 2162,
      "St": 2163,
      "ive</w>": 2164,
      "ten</w>": 2165,
      "ication</w>": 2166,
      "Vis": 2167,
      "2nd</w>": 2168,
      "cla": 2169,
      "For": 2170,
      "oh": 2171,
      "ty</w>": 2172,
      "1st</w>": 2173,
      "ow": 2174,
      "per</w>": 2175,
      "eight</w>": 2176,
      "Stat": 2177,
      "50</w>": 2178,
      "ovember</w>": 2179,
      "otes</w>": 2180,
      "Sur": 2181,
      "title</w>": 2182,
      "ite</w>": 2183,
      "Lan": 2184,
      "bl": 2185,
      "Fin": 2186,
      "Per": 2187,
      "verall</w>": 2188,
      "Au": 2189,
      "par": 2190,
      "14": 2191,
      "Visit": 2192,
      "face</w>": 2193,
      "Reg": 2194,
      "Years</w>": 2195,
      "Written</w>": 2196,
      "final</w>": 2197,
      "ly</w>": 2198,
      "Mo": 2199,
      "Average</w>": 2200,
      "at</w>": 2201,
      "Qu": 2202,
      "Overall</w>": 2203,
      "Directed</w>": 2204,
      "70</w>": 2205,
      "air</w>": 2206,
      "ril</w>": 2207,
      "Champ": 2208,
      "Fre": 2209,
      "ctob": 2210,
      "000</w>": 2211,
      "Cup</w>": 2212,
      "ctober</w>": 2213,
      "ates</w>": 2214,
      "est": 2215,
      "ired</w>": 2216,
      "ry</w>": 2217,
      "State</w>": 2218,
      "da": 2219,
      "km</w>": 2220,
      "ification</w>": 2221,
      "Can": 2222,
      "Mat": 2223,
      "mp": 2224,
      "Const": 2225,
      "Production</w>": 2226,
      "Surface</w>": 2227,
      "man": 2228,
      "31</w>": 2229,
      "mi": 2230,
      "ti": 2231,
      "Race</w>": 2232,
      "Pre": 2233,
      "Un": 2234,
      "ings</w>": 2235,
      "come</w>": 2236,
      "Dec": 2237,
      "ll": 2238,
      "ft</w>": 2239,
      "Out": 2240,
      "bru": 2241,
      "es": 2242,
      "jun": 2243,
      "wor": 2244,
      "ists</w>": 2245,
      "Ele": 2246,
      "del</w>": 2247,
      "number</w>": 2248,
      "Top</w>": 2249,
      "Games</w>": 2250,
      "sses</w>": 2251,
      "millions</w>": 2252,
      "omin": 2253,
      "Runner</w>": 2254,
      "act": 2255,
      "71</w>": 2256,
      "ship</w>": 2257,
      "Ro": 2258,
      "outh</w>": 2259,
      "Gr": 2260,
      "bu": 2261,
      "sp": 2262,
      "win": 2263,
      "Losses</w>": 2264,
      "Visitor</w>": 2265,
      "69</w>": 2266,
      "ant</w>": 2267,
      "ial</w>": 2268,
      "Height</w>": 2269,
      "Pri": 2270,
      "ce": 2271,
      "68</w>": 2272,
      "bo": 2273,
      "tired</w>": 2274,
      "as": 2275,
      "eld</w>": 2276,
      "col": 2277,
      "ounds</w>": 2278,
      "Al": 2279,
      "vision</w>": 2280,
      "erence</w>": 2281,
      "13": 2282,
      "ated</w>": 2283,
      "2005</w>": 2284,
      "stat": 2285,
      "min": 2286,
      "viewers</w>": 2287,
      "72</w>": 2288,
      "li": 2289,
      "anuary</w>": 2290,
      "ssification</w>": 2291,
      "elected</w>": 2292,
      "Engine</w>": 2293,
      "App": 2294,
      "Cap": 2295,
      "Mon": 2296,
      "Par": 2297,
      "Retired</w>": 2298,
      "ab": 2299,
      "go": 2300,
      "Bu": 2301,
      "assis</w>": 2302,
      "io</w>": 2303,
      "Chassis</w>": 2304,
      "ew</w>": 2305,
      "Su": 2306,
      "ircu": 2307,
      "quency</w>": 2308,
      "Drawn</w>": 2309,
      "Director</w>": 2310,
      "ann": 2311,
      "ward</w>": 2312,
      "iss": 2313,
      "Loss</w>": 2314,
      "elb": 2315,
      "ens</w>": 2316,
      "Region</w>": 2317,
      "re</w>": 2318,
      "against</w>": 2319,
      "bruary</w>": 2320,
      "Frequency</w>": 2321,
      "ptember</w>": 2322,
      "man</w>": 2323,
      "ak": 2324,
      "own</w>": 2325,
      "ateg": 2326,
      "all": 2327,
      "County</w>": 2328,
      "40</w>": 2329,
      "Circu": 2330,
      "ex": 2331,
      "ourne</w>": 2332,
      "season</w>": 2333,
      "ries</w>": 2334,
      "itu": 2335,
      "ice</w>": 2336,
      "15": 2337,
      "il</w>": 2338,
      "sig": 2339,
      "195": 2340,
      "ie</w>": 2341,
      "elbourne</w>": 2342,
      "ategory</w>": 2343,
      "nor": 2344,
      "ws</w>": 2345,
      "series</w>": 2346,
      "Opponents</w>": 2347,
      "Art": 2348,
      "ser": 2349,
      "2000</w>": 2350,
      "ure</w>": 2351,
      "april</w>": 2352,
      "dec": 2353,
      "Circuit</w>": 2354,
      "ath": 2355,
      "Candi": 2356,
      "73</w>": 2357,
      "tan": 2358,
      "2004</w>": 2359,
      "34</w>": 2360,
      "november</w>": 2361,
      "states</w>": 2362,
      "rom</w>": 2363,
      "em": 2364,
      "ot</w>": 2365,
      "33</w>": 2366,
      "vers": 2367,
      "october</w>": 2368,
      "ell": 2369,
      "32</w>": 2370,
      "Vi": 2371,
      "35</w>": 2372,
      "67</w>": 2373,
      "ding</w>": 2374,
      "op": 2375,
      "oval</w>": 2376,
      "66</w>": 2377,
      "com": 2378,
      "Ex": 2379,
      "ay": 2380,
      "2003</w>": 2381,
      "Car": 2382,
      "od</w>": 2383,
      "ict": 2384,
      "ant": 2385,
      "one</w>": 2386,
      "ors</w>": 2387,
      "38</w>": 2388,
      "Constru": 2389,
      "pu": 2390,
      "ina</w>": 2391,
      "Star": 2392,
      "lish</w>": 2393,
      "ang": 2394,
      "am</w>": 2395,
      "pre": 2396,
      "br": 2397,
      "bounds</w>": 2398,
      "ge": 2399,
      "lease</w>": 2400,
      "melbourne</w>": 2401,
      "ield</w>": 2402,
      "ld</w>": 2403,
      "Draws</w>": 2404,
      "74</w>": 2405,
      "pro": 2406,
      "Outcome</w>": 2407,
      "Le": 2408,
      "cr": 2409,
      "may</w>": 2410,
      "sk": 2411,
      "Model</w>": 2412,
      "42</w>": 2413,
      "enta": 2414,
      "are</w>": 2415,
      "uly</w>": 2416,
      "Stadium</w>": 2417,
      "str": 2418,
      "Lab": 2419,
      "dates</w>": 2420,
      "ill</w>": 2421,
      "mat</w>": 2422,
      "pri": 2423,
      "Inter": 2424,
      "Tran": 2425,
      "yes</w>": 2426,
      "form": 2427,
      "2001</w>": 2428,
      "28": 2429,
      "45</w>": 2430,
      "Final</w>": 2431,
      "Artist</w>": 2432,
      "ches</w>": 2433,
      "park</w>": 2434,
      "ince</w>": 2435,
      "49</w>": 2436,
      "Hea": 2437,
      "English</w>": 2438,
      "An": 2439,
      "day</w>": 2440,
      "won</w>": 2441,
      "september</w>": 2442,
      "bles</w>": 2443,
      "Gen": 2444,
      "48</w>": 2445,
      "bur": 2446,
      "ded</w>": 2447,
      "ith</w>": 2448,
      "Tie</w>": 2449,
      "Format</w>": 2450,
      "Trans": 2451,
      "44</w>": 2452,
      "Buil": 2453,
      "Air": 2454,
      "wer</w>": 2455,
      "Finish</w>": 2456,
      "36</w>": 2457,
      "Dis": 2458,
      "Rid": 2459,
      "Category</w>": 2460,
      "Jo": 2461,
      "km": 2462,
      "ern</w>": 2463,
      "Constructor</w>": 2464,
      "ins</w>": 2465,
      "ley</w>": 2466,
      "ionship</w>": 2467,
      "Lane</w>": 2468,
      "Candidates</w>": 2469,
      "ast": 2470,
      "do": 2471,
      "ms</w>": 2472,
      "new</w>": 2473,
      "Spe": 2474,
      "south</w>": 2475,
      "Status</w>": 2476,
      "75</w>": 2477,
      "gre": 2478,
      "enn": 2479,
      "ric": 2480,
      "leg</w>": 2481,
      "Cata": 2482,
      "km²</w>": 2483,
      "43</w>": 2484,
      "Tra": 2485,
      "ilm</w>": 2486,
      "gust</w>": 2487,
      "Tries</w>": 2488,
      "da</w>": 2489,
      "oubles</w>": 2490,
      "2002</w>": 2491,
      "ks</w>": 2492,
      "ohn</w>": 2493,
      "65</w>": 2494,
      "ee</w>": 2495,
      "ell</w>": 2496,
      "Catalo": 2497,
      "ff</w>": 2498,
      "46</w>": 2499,
      "FL</w>": 2500,
      "december</w>": 2501,
      "Wor": 2502,
      "05</w>": 2503,
      "ior</w>": 2504,
      "Release</w>": 2505,
      "Notes</w>": 2506,
      "ivers": 2507,
      "gin</w>": 2508,
      "ad</w>": 2509,
      "ho": 2510,
      "sign</w>": 2511,
      "classification</w>": 2512,
      "club</w>": 2513,
      "sco": 2514,
      "ste": 2515,
      "39</w>": 2516,
      "ter</w>": 2517,
      "08</w>": 2518,
      "54</w>": 2519,
      "Av": 2520,
      "Entr": 2521,
      "assists</w>": 2522,
      "Or": 2523,
      "sing": 2524,
      "07</w>": 2525,
      "vil": 2526,
      "Label</w>": 2527,
      "dy</w>": 2528,
      "rebounds</w>": 2529,
      "he": 2530,
      "60</w>": 2531,
      "ats</w>": 2532,
      "55</w>": 2533,
      "Song</w>": 2534,
      "ces</w>": 2535,
      "march</w>": 2536,
      "Film</w>": 2537,
      "cap": 2538,
      "rd</w>": 2539,
      "ard": 2540,
      "Rider</w>": 2541,
      "Entrant</w>": 2542,
      "09</w>": 2543,
      "37</w>": 2544,
      "2013</w>": 2545,
      "mer": 2546,
      "41</w>": 2547,
      "Rat": 2548,
      "air": 2549,
      "os": 2550,
      "tain</w>": 2551,
      "ns</w>": 2552,
      "nation": 2553,
      "06</w>": 2554,
      "can": 2555,
      "ts": 2556,
      "oup</w>": 2557,
      "ar</w>": 2558,
      "Money</w>": 2559,
      "iversity</w>": 2560,
      "te": 2561,
      "57</w>": 2562,
      "yea": 2563,
      "Margin</w>": 2564,
      "me": 2565,
      "Set</w>": 2566,
      "ange</w>": 2567,
      "ack": 2568,
      "mi</w>": 2569,
      "part": 2570,
      "ood</w>": 2571,
      "Viewers</w>": 2572,
      "Ass": 2573,
      "Bo": 2574,
      "acity</w>": 2575,
      "million</w>": 2576,
      "time</w>": 2577,
      "47</w>": 2578,
      "Wom": 2579,
      "ese</w>": 2580,
      "stadium</w>": 2581,
      "100</w>": 2582,
      "ian": 2583,
      "vict": 2584,
      "Partner</w>": 2585,
      "02</w>": 2586,
      "off": 2587,
      "urr": 2588,
      "itude</w>": 2589,
      "51</w>": 2590,
      "64</w>": 2591,
      "february</w>": 2592,
      "Meth": 2593,
      "je": 2594,
      "ish": 2595,
      "Char": 2596,
      "3rd</w>": 2597,
      "site</w>": 2598,
      "vince</w>": 2599,
      "ican</w>": 2600,
      "fr": 2601,
      "Ru": 2602,
      "av": 2603,
      "Draw</w>": 2604,
      "Avg</w>": 2605,
      "city</w>": 2606,
      "ston</w>": 2607,
      "omet": 2608,
      "ack</w>": 2609,
      "Method</w>": 2610,
      "52</w>": 2611,
      "Fe": 2612,
      "iv": 2613,
      "june</w>": 2614,
      "01</w>": 2615,
      "62</w>": 2616,
      "76</w>": 2617,
      "doubles</w>": 2618,
      "So": 2619,
      "56</w>": 2620,
      "Foun": 2621,
      "Ter": 2622,
      "ards</w>": 2623,
      "thor": 2624,
      "Op": 2625,
      "january</w>": 2626,
      "The</w>": 2627,
      "ted</w>": 2628,
      "29": 2629,
      "77</w>": 2630,
      "sy": 2631,
      "roll": 2632,
      "Weight</w>": 2633,
      "03</w>": 2634,
      "Ath": 2635,
      "New</w>": 2636,
      "state</w>": 2637,
      "ength</w>": 2638,
      "ev": 2639,
      "Catalog</w>": 2640,
      "Stage</w>": 2641,
      "1999</w>": 2642,
      "Matches</w>": 2643,
      "63</w>": 2644,
      "Homet": 2645,
      "ced</w>": 2646,
      "july</w>": 2647,
      "Hometown</w>": 2648,
      "ference</w>": 2649,
      "ution</w>": 2650,
      "Capacity</w>": 2651,
      "61</w>": 2652,
      "ons</w>": 2653,
      "national</w>": 2654,
      "80</w>": 2655,
      "AA</w>": 2656,
      "Jun": 2657,
      "mc": 2658,
      "ans": 2659,
      "Bir": 2660,
      "ther</w>": 2661,
      "FA</w>": 2662,
      "our</w>": 2663,
      "Pos</w>": 2664,
      "publ": 2665,
      "Rac": 2666,
      "Start</w>": 2667,
      "Nor": 2668,
      "champ": 2669,
      "work</w>": 2670,
      "Athle": 2671,
      "78</w>": 2672,
      "ik": 2673,
      "Apps</w>": 2674,
      "stral": 2675,
      "Off": 2676,
      "pm</w>": 2677,
      "ong": 2678,
      "alif": 2679,
      "ickname</w>": 2680,
      "tal": 2681,
      "arn": 2682,
      "04</w>": 2683,
      "tro": 2684,
      "stan": 2685,
      "58</w>": 2686,
      "Scor": 2687,
      "fact": 2688,
      "ena</w>": 2689,
      "ense</w>": 2690,
      "eter</w>": 2691,
      "Comm": 2692,
      "august</w>": 2693,
      "enter</w>": 2694,
      "Championship</w>": 2695,
      "Part</w>": 2696,
      "Award</w>": 2697,
      "fin": 2698,
      "king</w>": 2699,
      "lar</w>": 2700,
      "guage</w>": 2701,
      "rollment</w>": 2702,
      "Nickname</w>": 2703,
      "Bro": 2704,
      "Man": 2705,
      "ash": 2706,
      "ets</w>": 2707,
      "1998</w>": 2708,
      "ham</w>": 2709,
      "53</w>": 2710,
      "Net": 2711,
      "TV</w>": 2712,
      "bor": 2713,
      "ly": 2714,
      "lin": 2715,
      "anufact": 2716,
      "eak</w>": 2717,
      "round</w>": 2718,
      "ore</w>": 2719,
      "Enrollment</w>": 2720,
      "ju": 2721,
      "urer</w>": 2722,
      "59</w>": 2723,
      "ich": 2724,
      "Inst": 2725,
      "fference</w>": 2726,
      "iz": 2727,
      "ile</w>": 2728,
      "ne</w>": 2729,
      "nomin": 2730,
      "Goal</w>": 2731,
      "lat": 2732,
      "79</w>": 2733,
      "ford</w>": 2734,
      "US</w>": 2735,
      "ork</w>": 2736,
      "made</w>": 2737,
      "gh</w>": 2738,
      "os</w>": 2739,
      "1996</w>": 2740,
      "Length</w>": 2741,
      "im</w>": 2742,
      "ide</w>": 2743,
      "lan": 2744,
      "sa": 2745,
      "vice</w>": 2746,
      "HL</w>": 2747,
      "US": 2748,
      "bill": 2749,
      "Province</w>": 2750,
      "Founded</w>": 2751,
      "ess": 2752,
      "tt</w>": 2753,
      "wood</w>": 2754,
      "icip": 2755,
      "singles</w>": 2756,
      "anufacturer</w>": 2757,
      "Instit": 2758,
      "Min": 2759,
      "ci": 2760,
      "ean</w>": 2761,
      "grand</w>": 2762,
      "fer": 2763,
      "from</w>": 2764,
      "ator</w>": 2765,
      "urrent</w>": 2766,
      "aw": 2767,
      "cing</w>": 2768,
      "driver</w>": 2769,
      "ington</w>": 2770,
      "co</w>": 2771,
      "coun": 2772,
      "ager</w>": 2773,
      "Athlete</w>": 2774,
      "1r</w>": 2775,
      "hou": 2776,
      "Division</w>": 2777,
      "Language</w>": 2778,
      "bar": 2779,
      "ger": 2780,
      "haw": 2781,
      "be": 2782,
      "ical</w>": 2783,
      "ach</w>": 2784,
      "Best</w>": 2785,
      "bri": 2786,
      "der": 2787,
      "mat": 2788,
      "Perc": 2789,
      "north</w>": 2790,
      "January</w>": 2791,
      "sw": 2792,
      "ney</w>": 2793,
      "Institution</w>": 2794,
      "bon": 2795,
      "jo": 2796,
      "kg</w>": 2797,
      "ined</w>": 2798,
      "Fast": 2799,
      "Ho": 2800,
      "eu": 2801,
      "ital</w>": 2802,
      "int": 2803,
      "Pole</w>": 2804,
      "Power</w>": 2805,
      "ird</w>": 2806,
      "Fastest</w>": 2807,
      "Station</w>": 2808,
      "Seg": 2809,
      "ville</w>": 2810,
      "don</w>": 2811,
      "Events</w>": 2812,
      "mond</w>": 2813,
      "95</w>": 2814,
      "Nomin": 2815,
      "ast</w>": 2816,
      "84</w>": 2817,
      "app": 2818,
      "fer</w>": 2819,
      "gar": 2820,
      "illi": 2821,
      "AT": 2822,
      "gra": 2823,
      "Ends</w>": 2824,
      "November</w>": 2825,
      "Ver": 2826,
      "Last</w>": 2827,
      "December</w>": 2828,
      "Manufacturer</w>": 2829,
      "field</w>": 2830,
      "Conference</w>": 2831,
      "ips</w>": 2832,
      "Segment</w>": 2833,
      "with</w>": 2834,
      "icense</w>": 2835,
      "Champion</w>": 2836,
      "year</w>": 2837,
      "NHL</w>": 2838,
      "id</w>": 2839,
      "ris</w>": 2840,
      "Los": 2841,
      "icket</w>": 2842,
      "cra": 2843,
      "lim": 2844,
      "ps</w>": 2845,
      "ada</w>": 2846,
      "89</w>": 2847,
      "Ag": 2848,
      "fc</w>": 2849,
      "1990</w>": 2850,
      "Hz</w>": 2851,
      "lor": 2852,
      "rich": 2853,
      "ensity</w>": 2854,
      "open</w>": 2855,
      "85</w>": 2856,
      "90</w>": 2857,
      "so": 2858,
      "dian</w>": 2859,
      "1994</w>": 2860,
      "1997</w>": 2861,
      "Sk": 2862,
      "ib": 2863,
      "amil": 2864,
      "Qual</w>": 2865,
      "entage</w>": 2866,
      "99</w>": 2867,
      "CA": 2868,
      "john</w>": 2869,
      "od": 2870,
      "char": 2871,
      "vid</w>": 2872,
      "Grand</w>": 2873,
      "Sw": 2874,
      "ita": 2875,
      "cond</w>": 2876,
      "ago</w>": 2877,
      "Network</w>": 2878,
      "82</w>": 2879,
      "vel": 2880,
      "ous</w>": 2881,
      "1992</w>": 2882,
      "1995</w>": 2883,
      "Match</w>": 2884,
      "Election</w>": 2885,
      "93</w>": 2886,
      "Current</w>": 2887,
      "Tele": 2888,
      "bro": 2889,
      "pan": 2890,
      "att": 2891,
      "rist": 2892,
      "ams</w>": 2893,
      "University</w>": 2894,
      "96</w>": 2895,
      "DP</w>": 2896,
      "mer</w>": 2897,
      "west</w>": 2898,
      "ama</w>": 2899,
      "dio</w>": 2900,
      "cup</w>": 2901,
      "88</w>": 2902,
      "87</w>": 2903,
      "98</w>": 2904,
      "Code</w>": 2905,
      "atur": 2906,
      "unicip": 2907,
      "annel</w>": 2908,
      "Rating</w>": 2909,
      "91</w>": 2910,
      "Cu": 2911,
      "From</w>": 2912,
      "ach": 2913,
      "ea</w>": 2914,
      "no": 2915,
      "ys</w>": 2916,
      "Difference</w>": 2917,
      "Perform": 2918,
      "For</w>": 2919,
      "Lat": 2920,
      "bra": 2921,
      "dow": 2922,
      "riv": 2923,
      "Mc": 2924,
      "Member</w>": 2925,
      "Won</w>": 2926,
      "az": 2927,
      "ale</w>": 2928,
      "rin": 2929,
      "run": 2930,
      "ales</w>": 2931,
      "val": 2932,
      "ource</w>": 2933,
      "0000": 2934,
      "bert</w>": 2935,
      "ission</w>": 2936,
      "sed</w>": 2937,
      "we": 2938,
      "ita</w>": 2939,
      "reet</w>": 2940,
      "Demo": 2941,
      "ption</w>": 2942,
      "scor": 2943,
      "votes</w>": 2944,
      "1991</w>": 2945,
      "16": 2946,
      "Call</w>": 2947,
      "cc</w>": 2948,
      "cre": 2949,
      "ma</w>": 2950,
      "mm</w>": 2951,
      "ana</w>": 2952,
      "cast</w>": 2953,
      "victory</w>": 2954,
      "ning</w>": 2955,
      "tra": 2956,
      "ons": 2957,
      "Women</w>": 2958,
      "17": 2959,
      "MHz</w>": 2960,
      "del": 2961,
      "game</w>": 2962,
      "ix": 2963,
      "tur": 2964,
      "type</w>": 2965,
      "ear": 2966,
      "org": 2967,
      "tance</w>": 2968,
      "Ser": 2969,
      "af": 2970,
      "vo": 2971,
      "97</w>": 2972,
      "Men</w>": 2973,
      "cess": 2974,
      "12": 2975,
      "Gre": 2976,
      "Ow": 2977,
      "cl": 2978,
      "school</w>": 2979,
      "ross</w>": 2980,
      "The": 2981,
      "92</w>": 2982,
      "Ap": 2983,
      "Other</w>": 2984,
      "dre": 2985,
      "atic</w>": 2986,
      "eral</w>": 2987,
      "ships</w>": 2988,
      "Transfer</w>": 2989,
      "publican</w>": 2990,
      "94</w>": 2991,
      "October</w>": 2992,
      "place</w>": 2993,
      "Distance</w>": 2994,
      "Site</w>": 2995,
      "bum</w>": 2996,
      "tor": 2997,
      "ening</w>": 2998,
      "Laun": 2999,
      "ensus</w>": 3000,
      "February</w>": 3001,
      "ala": 3002,
      "har": 3003,
      "sc": 3004,
      "ative</w>": 3005,
      "icha": 3006,
      "view</w>": 3007,
      "ota</w>": 3008,
      "Group</w>": 3009,
      "81</w>": 3010,
      "fre": 3011,
      "ila": 3012,
      "rank</w>": 3013,
      "Report</w>": 3014,
      "March</w>": 3015,
      "Third</w>": 3016,
      "86</w>": 3017,
      "Bar": 3018,
      "Rea": 3019,
      "dge</w>": 3020,
      "ath</w>": 3021,
      "itz": 3022,
      "nes": 3023,
      "Gu": 3024,
      "Municip": 3025,
      "si": 3026,
      "entr": 3027,
      "ional</w>": 3028,
      "1993</w>": 3029,
      "world</w>": 3030,
      "Da": 3031,
      "Li": 3032,
      "Writer</w>": 3033,
      "Heat</w>": 3034,
      "Built</w>": 3035,
      "bonus</w>": 3036,
      "GDP</w>": 3037,
      "sey</w>": 3038,
      "Share</w>": 3039,
      "Earn": 3040,
      "bs</w>": 3041,
      "win</w>": 3042,
      "tra</w>": 3043,
      "scot</w>": 3044,
      "Air</w>": 3045,
      "Oper": 3046,
      "sch": 3047,
      "int</w>": 3048,
      "racing</w>": 3049,
      "83</w>": 3050,
      "Iss": 3051,
      "ro</w>": 3052,
      "junior</w>": 3053,
      "cratic</w>": 3054,
      "Host</w>": 3055,
      "Long</w>": 3056,
      "Moun": 3057,
      "Mov": 3058,
      "hu": 3059,
      "Poles</w>": 3060,
      "position</w>": 3061,
      "Classification</w>": 3062,
      "Mascot</w>": 3063,
      "play": 3064,
      "Stu": 3065,
      "Earnings</w>": 3066,
      "ball</w>": 3067,
      "hol": 3068,
      "eat</w>": 3069,
      "carl": 3070,
      "entat": 3071,
      "stralia</w>": 3072,
      "ang</w>": 3073,
      "Pu": 3074,
      "Source</w>": 3075,
      "ler</w>": 3076,
      "york</w>": 3077,
      "icago</w>": 3078,
      "Flo": 3079,
      "dra": 3080,
      "den</w>": 3081,
      "gh": 3082,
      "hill</w>": 3083,
      "not</w>": 3084,
      "san</w>": 3085,
      "ticket</w>": 3086,
      "Quant": 3087,
      "Decision</w>": 3088,
      "Prix</w>": 3089,
      "ichael</w>": 3090,
      "Tor": 3091,
      "my</w>": 3092,
      "Second</w>": 3093,
      "spe": 3094,
      "service</w>": 3095,
      "pres": 3096,
      "April</w>": 3097,
      "Ad": 3098,
      "ren": 3099,
      "sh</w>": 3100,
      "onn": 3101,
      "ony</w>": 3102,
      "els</w>": 3103,
      "manager</w>": 3104,
      "going</w>": 3105,
      "Broad": 3106,
      "ATA</w>": 3107,
      "Municipality</w>": 3108,
      "Quantity</w>": 3109,
      "4th</w>": 3110,
      "ID</w>": 3111,
      "Win</w>": 3112,
      "Yards</w>": 3113,
      "alist</w>": 3114,
      "ionships</w>": 3115,
      "Run</w>": 3116,
      "Cuts</w>": 3117,
      "Ge": 3118,
      "IATA</w>": 3119,
      "ka</w>": 3120,
      "que</w>": 3121,
      "change</w>": 3122,
      "placed</w>": 3123,
      "mph</w>": 3124,
      "Birth</w>": 3125,
      "Races</w>": 3126,
      "Sing": 3127,
      "ike</w>": 3128,
      "pe": 3129,
      "ra</w>": 3130,
      "Car</w>": 3131,
      "Owner</w>": 3132,
      "Issue</w>": 3133,
      "Call": 3134,
      "ah": 3135,
      "ners</w>": 3136,
      "las</w>": 3137,
      "ics</w>": 3138,
      "ire</w>": 3139,
      "1987</w>": 3140,
      "2r</w>": 3141,
      "Byes</w>": 3142,
      "Ran": 3143,
      "foo": 3144,
      "ie": 3145,
      "kn": 3146,
      "umb": 3147,
      "ya</w>": 3148,
      "inter": 3149,
      "ere</w>": 3150,
      "coll": 3151,
      "bb": 3152,
      "bla": 3153,
      "di</w>": 3154,
      "ko</w>": 3155,
      "van": 3156,
      "town</w>": 3157,
      "Open</w>": 3158,
      "Age</w>": 3159,
      "ca</w>": 3160,
      "ys": 3161,
      "any</w>": 3162,
      "ica</w>": 3163,
      "1989</w>": 3164,
      "Lap</w>": 3165,
      "Track</w>": 3166,
      "John</w>": 3167,
      "Val": 3168,
      "ere": 3169,
      "200</w>": 3170,
      "oll</w>": 3171,
      "total</w>": 3172,
      "World</w>": 3173,
      "Percentage</w>": 3174,
      "50": 3175,
      "Ed": 3176,
      "Sa": 3177,
      "Sport</w>": 3178,
      "best</w>": 3179,
      "off</w>": 3180,
      "west": 3181,
      "ans</w>": 3182,
      "onto</w>": 3183,
      "len</w>": 3184,
      "prix</w>": 3185,
      "Charact": 3186,
      "Ju": 3187,
      "cer</w>": 3188,
      "ting</w>": 3189,
      "eal</w>": 3190,
      "its</w>": 3191,
      "winner</w>": 3192,
      "Prize</w>": 3193,
      "Interview</w>": 3194,
      "billion</w>": 3195,
      "Ra": 3196,
      "Sy": 3197,
      "Tea": 3198,
      "ccess": 3199,
      "wh": 3200,
      "ili": 3201,
      "Speed</w>": 3202,
      "limin": 3203,
      "Theme</w>": 3204,
      "Census</w>": 3205,
      "Mens</w>": 3206,
      "Pts</w>": 3207,
      "cip": 3208,
      "ke": 3209,
      "ker</w>": 3210,
      "mor": 3211,
      "ved</w>": 3212,
      "Outgoing</w>": 3213,
      "Album</w>": 3214,
      "Airport</w>": 3215,
      "Res</w>": 3216,
      "eer</w>": 3217,
      "ig</w>": 3218,
      "ll</w>": 3219,
      "indi": 3220,
      "end</w>": 3221,
      "Leading</w>": 3222,
      "Coach</w>": 3223,
      "Television</w>": 3224,
      "Jer": 3225,
      "USD</w>": 3226,
      "Actor</w>": 3227,
      "GP</w>": 3228,
      "ICA": 3229,
      "ati</w>": 3230,
      "orn": 3231,
      "Republican</w>": 3232,
      "ster</w>": 3233,
      "endon</w>": 3234,
      "ports</w>": 3235,
      "Decile</w>": 3236,
      "Builder</w>": 3237,
      "Wh": 3238,
      "yle</w>": 3239,
      "cher</w>": 3240,
      "Lead</w>": 3241,
      "used</w>": 3242,
      "richmond</w>": 3243,
      "ICAO</w>": 3244,
      "CFL</w>": 3245,
      "sm": 3246,
      "olina</w>": 3247,
      "elong</w>": 3248,
      "Role</w>": 3249,
      "ashington</w>": 3250,
      "Day</w>": 3251,
      "fran": 3252,
      "hard</w>": 3253,
      "ix</w>": 3254,
      "ki</w>": 3255,
      "res</w>": 3256,
      "war": 3257,
      "blish": 3258,
      "Genre</w>": 3259,
      "Moving</w>": 3260,
      "500</w>": 3261,
      "ba": 3262,
      "bel": 3263,
      "back</w>": 3264,
      "la</w>": 3265,
      "lou": 3266,
      "ums</w>": 3267,
      "street</w>": 3268,
      "def": 3269,
      "group</w>": 3270,
      "Joined</w>": 3271,
      "Spec": 3272,
      "Order</w>": 3273,
      "80": 3274,
      "Jap": 3275,
      "Tou": 3276,
      "Vo": 3277,
      "ger</w>": 3278,
      "license</w>": 3279,
      "ov</w>": 3280,
      "sion</w>": 3281,
      "sons</w>": 3282,
      "Podi": 3283,
      "alt": 3284,
      "Channel</w>": 3285,
      "gular</w>": 3286,
      "1988</w>": 3287,
      "Ground</w>": 3288,
      "comp": 3289,
      "runner</w>": 3290,
      "Podiums</w>": 3291,
      "Field</w>": 3292,
      "High": 3293,
      "Med": 3294,
      "dan": 3295,
      "ji</w>": 3296,
      "icles</w>": 3297,
      "chicago</w>": 3298,
      "play</w>": 3299,
      "Ship</w>": 3300,
      "ohn": 3301,
      "Premi": 3302,
      "nomination</w>": 3303,
      "odes</w>": 3304,
      "Swim": 3305,
      "Floors</w>": 3306,
      "Pan": 3307,
      "South</w>": 3308,
      "ced": 3309,
      "gi": 3310,
      "ari</w>": 3311,
      "offs</w>": 3312,
      "June</w>": 3313,
      "Peak</w>": 3314,
      "Roll</w>": 3315,
      "kes</w>": 3316,
      "ls</w>": 3317,
      "arg": 3318,
      "Regular</w>": 3319,
      "roy</w>": 3320,
      "stro": 3321,
      "1986</w>": 3322,
      "thority</w>": 3323,
      "Character</w>": 3324,
      "dney</w>": 3325,
      "ERP</w>": 3326,
      "1000</w>": 3327,
      "1983</w>": 3328,
      "goals</w>": 3329,
      "thorn</w>": 3330,
      "May</w>": 3331,
      "gers</w>": 3332,
      "ul</w>": 3333,
      "ort</w>": 3334,
      "ult</w>": 3335,
      "usic</w>": 3336,
      "model</w>": 3337,
      "clay</w>": 3338,
      "HS": 3339,
      "by": 3340,
      "fri": 3341,
      "ier</w>": 3342,
      "ual</w>": 3343,
      "area</w>": 3344,
      "mark</w>": 3345,
      "Runs</w>": 3346,
      "many</w>": 3347,
      "ituency</w>": 3348,
      "Extra</w>": 3349,
      "geelong</w>": 3350,
      "General</w>": 3351,
      "Cre": 3352,
      "Ty": 3353,
      "do</w>": 3354,
      "mil": 3355,
      "Winners</w>": 3356,
      "Assists</w>": 3357,
      "Ranking</w>": 3358,
      "ii</w>": 3359,
      "ona</w>": 3360,
      "Replaced</w>": 3361,
      "sters</w>": 3362,
      "Seats</w>": 3363,
      "Pres": 3364,
      "Elev": 3365,
      "Left</w>": 3366,
      "hawthorn</w>": 3367,
      "amily</w>": 3368,
      "Democratic</w>": 3369,
      "IHS": 3370,
      "Ph": 3371,
      "Try</w>": 3372,
      "cou": 3373,
      "oint": 3374,
      "inia</w>": 3375,
      "inese</w>": 3376,
      "ater</w>": 3377,
      "canada</w>": 3378,
      "parture</w>": 3379,
      "Teams</w>": 3380,
      "Be": 3381,
      "Cy": 3382,
      "Long": 3383,
      "mary</w>": 3384,
      "og": 3385,
      "zz": 3386,
      "thers</w>": 3387,
      "los</w>": 3388,
      "100": 3389,
      "rica</w>": 3390,
      "Term</w>": 3391,
      "Offic": 3392,
      "scorer</w>": 3393,
      "Rate</w>": 3394,
      "pat": 3395,
      "pol": 3396,
      "willi": 3397,
      "income</w>": 3398,
      "ough</w>": 3399,
      "ingwood</w>": 3400,
      "Company</w>": 3401,
      "australia</w>": 3402,
      "league</w>": 3403,
      "International</w>": 3404,
      "essendon</w>": 3405,
      "IHSAA</w>": 3406,
      "July</w>": 3407,
      "Plat": 3408,
      "cd</w>": 3409,
      "cin": 3410,
      "center</w>": 3411,
      "din": 3412,
      "fm</w>": 3413,
      "kW</w>": 3414,
      "len": 3415,
      "mot": 3416,
      "wal": 3417,
      "ida</w>": 3418,
      "ident</w>": 3419,
      "suit</w>": 3420,
      "airdate</w>": 3421,
      "ansas</w>": 3422,
      "pa</w>": 3423,
      "qmi</w>": 3424,
      "sa</w>": 3425,
      "sqmi</w>": 3426,
      "ead</w>": 3427,
      "Town</w>": 3428,
      "Wee": 3429,
      "lock</w>": 3430,
      "phia</w>": 3431,
      "sub": 3432,
      "North</w>": 3433,
      "carlton</w>": 3434,
      "Ac": 3435,
      "Bor": 3436,
      "jer": 3437,
      "sla": 3438,
      "east</w>": 3439,
      "outh": 3440,
      "cho": 3441,
      "vious</w>": 3442,
      "cks</w>": 3443,
      "Performer</w>": 3444,
      "collingwood</w>": 3445,
      "western</w>": 3446,
      "Hor": 3447,
      "Hou": 3448,
      "Ob": 3449,
      "Up</w>": 3450,
      "bre": 3451,
      "gary</w>": 3452,
      "ja": 3453,
      "mit": 3454,
      "ok": 3455,
      "yn": 3456,
      "enne": 3457,
      "ico</w>": 3458,
      "amer": 3459,
      "stri": 3460,
      "university</w>": 3461,
      "Evening</w>": 3462,
      "Constituency</w>": 3463,
      "ject</w>": 3464,
      "ointment</w>": 3465,
      "Density</w>": 3466,
      "kil": 3467,
      "lin</w>": 3468,
      "ny</w>": 3469,
      "ta</w>": 3470,
      "vac": 3471,
      "vel</w>": 3472,
      "wn": 3473,
      "ameter</w>": 3474,
      "ournaments</w>": 3475,
      "1985</w>": 3476,
      "cket</w>": 3477,
      "1979</w>": 3478,
      "comm": 3479,
      "arden</w>": 3480,
      "germany</w>": 3481,
      "appointment</w>": 3482,
      "iod</w>": 3483,
      "ling</w>": 3484,
      "lig": 3485,
      "easons</w>": 3486,
      "ancy</w>": 3487,
      "anese</w>": 3488,
      "ones</w>": 3489,
      "ription</w>": 3490,
      "uration</w>": 3491,
      "1984</w>": 3492,
      "ckey</w>": 3493,
      "ester</w>": 3494,
      "Airdate</w>": 3495,
      "Womens</w>": 3496,
      "Latitude</w>": 3497,
      "downs</w>": 3498,
      "Longitude</w>": 3499,
      "Lin": 3500,
      "enter": 3501,
      "Chinese</w>": 3502,
      "mony</w>": 3503,
      "david</w>": 3504,
      "but</w>": 3505,
      "aliforn": 3506,
      "delphia</w>": 3507,
      "iladelphia</w>": 3508,
      "Swimsuit</w>": 3509,
      "alifornia</w>": 3510,
      "Gross</w>": 3511,
      "Rob": 3512,
      "Vol": 3513,
      "cial</w>": 3514,
      "mu": 3515,
      "oria</w>": 3516,
      "ctor": 3517,
      "ign</w>": 3518,
      "omas</w>": 3519,
      "exas</w>": 3520,
      "Office</w>": 3521,
      "Highest</w>": 3522,
      "Amer": 3523,
      "Rom": 3524,
      "Str": 3525,
      "bir": 3526,
      "uel</w>": 3527,
      "ith": 3528,
      "out</w>": 3529,
      "lap</w>": 3530,
      "anding</w>": 3531,
      "Dates</w>": 3532,
      "actor</w>": 3533,
      "den": 3534,
      "mart": 3535,
      "pi": 3536,
      "rate</w>": 3537,
      "spa": 3538,
      "ich</w>": 3539,
      "Aug</w>": 3540,
      "buil": 3541,
      "cray</w>": 3542,
      "tscray</w>": 3543,
      "Scored</w>": 3544,
      "Callsign</w>": 3545,
      "Japanese</w>": 3546,
      "Official</w>": 3547,
      "23": 3548,
      "AA": 3549,
      "Tro": 3550,
      "lit": 3551,
      "lation</w>": 3552,
      "ry": 3553,
      "tains</w>": 3554,
      "ino</w>": 3555,
      "art</w>": 3556,
      "lan</w>": 3557,
      "lake</w>": 3558,
      "Stan": 3559,
      "Authority</w>": 3560,
      "Losing</w>": 3561,
      "itzroy</w>": 3562,
      "nesota</w>": 3563,
      "Aff": 3564,
      "Ne": 3565,
      "Rounds</w>": 3566,
      "ban</w>": 3567,
      "ph</w>": 3568,
      "ple</w>": 3569,
      "ri</w>": 3570,
      "rat": 3571,
      "Playoffs</w>": 3572,
      "102</w>": 3573,
      "Mark</w>": 3574,
      "Ste": 3575,
      "office</w>": 3576,
      "onsor</w>": 3577,
      "footscray</w>": 3578,
      "Bow": 3579,
      "dis": 3580,
      "eh": 3581,
      "mif": 3582,
      "tage</w>": 3583,
      "orge</w>": 3584,
      "ender</w>": 3585,
      "division</w>": 3586,
      "1980</w>": 3587,
      "tom</w>": 3588,
      "phy</w>": 3589,
      "eremony</w>": 3590,
      "Touch": 3591,
      "vacancy</w>": 3592,
      "5th</w>": 3593,
      "As": 3594,
      "BA</w>": 3595,
      "UK</w>": 3596,
      "ez</w>": 3597,
      "fa</w>": 3598,
      "gen": 3599,
      "her": 3600,
      "lar": 3601,
      "ow</w>": 3602,
      "tion</w>": 3603,
      "ered</w>": 3604,
      "ures</w>": 3605,
      "boston</w>": 3606,
      "Head</w>": 3607,
      "championship</w>": 3608,
      "6th</w>": 3609,
      "Mil": 3610,
      "ven": 3611,
      "venue</w>": 3612,
      "istr": 3613,
      "West</w>": 3614,
      "quart": 3615,
      "port": 3616,
      "Nominee</w>": 3617,
      "Skip</w>": 3618,
      "ixed</w>": 3619,
      "Ba": 3620,
      "cal</w>": 3621,
      "dal": 3622,
      "ga</w>": 3623,
      "ja</w>": 3624,
      "ket</w>": 3625,
      "lant": 3626,
      "men</w>": 3627,
      "ane</w>": 3628,
      "rick</w>": 3629,
      "ula</w>": 3630,
      "stin</w>": 3631,
      "tte</w>": 3632,
      "fee</w>": 3633,
      "Junior</w>": 3634,
      "Studio</w>": 3635,
      "Touchdowns</w>": 3636,
      "400</w>": 3637,
      "Bri": 3638,
      "Cour": 3639,
      "Driv": 3640,
      "Ger": 3641,
      "Gra": 3642,
      "fitzroy</w>": 3643,
      "hun": 3644,
      "ol</w>": 3645,
      "ur</w>": 3646,
      "eles</w>": 3647,
      "1982</w>": 3648,
      "sign": 3649,
      "ceded</w>": 3650,
      "kilda</w>": 3651,
      "Du": 3652,
      "Pass": 3653,
      "ric</w>": 3654,
      "via</w>": 3655,
      "paul</w>": 3656,
      "Branding</w>": 3657,
      "Runners</w>": 3658,
      "Elected</w>": 3659,
      "captain</w>": 3660,
      "capita</w>": 3661,
      "years</w>": 3662,
      "Version</w>": 3663,
      "lorida</w>": 3664,
      "Mountains</w>": 3665,
      "Ceremony</w>": 3666,
      "Pur": 3667,
      "cel": 3668,
      "hon": 3669,
      "ron</w>": 3670,
      "sun": 3671,
      "christ": 3672,
      "trans": 3673,
      "101</w>": 3674,
      "1976</w>": 3675,
      "Episodes</w>": 3676,
      "August</w>": 3677,
      "iliation</w>": 3678,
      "Panel</w>": 3679,
      "Eu": 3680,
      "Is": 3681,
      "centr": 3682,
      "john": 3683,
      "tball</w>": 3684,
      "dela": 3685,
      "105</w>": 3686,
      "1981</w>": 3687,
      "September</w>": 3688,
      "Comple": 3689,
      "ensive</w>": 3690,
      "england</w>": 3691,
      "Previous</w>": 3692,
      "france</w>": 3693,
      "40": 3694,
      "Votes</w>": 3695,
      "ain</w>": 3696,
      "weight</w>": 3697,
      "ern": 3698,
      "rie</w>": 3699,
      "Pop</w>": 3700,
      "star": 3701,
      "mag": 3702,
      "qualif": 3703,
      "1978</w>": 3704,
      "Captain</w>": 3705,
      "friend": 3706,
      "Mixed</w>": 3707,
      "Ta": 3708,
      "Tu": 3709,
      "Tonn": 3710,
      "category</w>": 3711,
      "gate</w>": 3712,
      "high</w>": 3713,
      "land": 3714,
      "ming</w>": 3715,
      "tournaments</w>": 3716,
      "iro</w>": 3717,
      "Results</w>": 3718,
      "vis</w>": 3719,
      "ova</w>": 3720,
      "mike</w>": 3721,
      "Road</w>": 3722,
      "wins</w>": 3723,
      "stralian</w>": 3724,
      "ccessor</w>": 3725,
      "Cor": 3726,
      "Land</w>": 3727,
      "NFL</w>": 3728,
      "Si": 3729,
      "Sen": 3730,
      "ire": 3731,
      "jap": 3732,
      "mission</w>": 3733,
      "ut</w>": 3734,
      "ara</w>": 3735,
      "irg": 3736,
      "Web": 3737,
      "craft</w>": 3738,
      "Jersey</w>": 3739,
      "Euro": 3740,
      "30": 3741,
      "Bla": 3742,
      "Por": 3743,
      "Pct</w>": 3744,
      "Sto": 3745,
      "ou</w>": 3746,
      "ois</w>": 3747,
      "red</w>": 3748,
      "sen": 3749,
      "san": 3750,
      "wil": 3751,
      "washington</w>": 3752,
      "ymp": 3753,
      "earan": 3754,
      "ities</w>": 3755,
      "ree</w>": 3756,
      "Town": 3757,
      "departure</w>": 3758,
      "Prod</w>": 3759,
      "National</w>": 3760,
      "berg</w>": 3761,
      "Visiting</w>": 3762,
      "toronto</w>": 3763,
      "Reason</w>": 3764,
      "bi": 3765,
      "cal": 3766,
      "mea": 3767,
      "member</w>": 3768,
      "ok</w>": 3769,
      "ther": 3770,
      "Oppos": 3771,
      "End</w>": 3772,
      "1971</w>": 3773,
      "ickets</w>": 3774,
      "1964</w>": 3775,
      "Price</w>": 3776,
      "All</w>": 3777,
      "dow</w>": 3778,
      "victoria</w>": 3779,
      "nominated</w>": 3780,
      "Species</w>": 3781,
      "Opposing</w>": 3782,
      "Duration</w>": 3783,
      "Elimin": 3784,
      "density</w>": 3785,
      "ha</w>": 3786,
      "michael</w>": 3787,
      "van</w>": 3788,
      "orig": 3789,
      "ched</w>": 3790,
      "olymp": 3791,
      "union</w>": 3792,
      "thro": 3793,
      "Debut</w>": 3794,
      "righ": 3795,
      "Draft</w>": 3796,
      "ander": 3797,
      "1977</w>": 3798,
      "philadelphia</w>": 3799,
      "Auth": 3800,
      "stant</w>": 3801,
      "scription</w>": 3802,
      "David</w>": 3803,
      "Broadcast</w>": 3804,
      "Value</w>": 3805,
      "spain</w>": 3806,
      "Affiliation</w>": 3807,
      "Act": 3808,
      "Willi": 3809,
      "bul": 3810,
      "cm</w>": 3811,
      "ka": 3812,
      "pl": 3813,
      "tan</w>": 3814,
      "iss</w>": 3815,
      "ale": 3816,
      "Change</w>": 3817,
      "Manner</w>": 3818,
      "lands</w>": 3819,
      "international</w>": 3820,
      "Cou": 3821,
      "Music</w>": 3822,
      "fo": 3823,
      "imb": 3824,
      "james</w>": 3825,
      "line</w>": 3826,
      "wat": 3827,
      "che</w>": 3828,
      "Cont": 3829,
      "guard</w>": 3830,
      "1974</w>": 3831,
      "Capital</w>": 3832,
      "Starts</w>": 3833,
      "burg</w>": 3834,
      "Racing</w>": 3835,
      "house": 3836,
      "euro": 3837,
      "velo": 3838,
      "africa</w>": 3839,
      "friendly</w>": 3840,
      "11": 3841,
      "ac</w>": 3842,
      "bo</w>": 3843,
      "cur": 3844,
      "dition</w>": 3845,
      "Repres": 3846,
      "reg": 3847,
      "ress</w>": 3848,
      "oung</w>": 3849,
      "dia</w>": 3850,
      "dep": 3851,
      "dex</w>": 3852,
      "loss</w>": 3853,
      "masters</w>": 3854,
      "Main</w>": 3855,
      "Median</w>": 3856,
      "produ": 3857,
      "syl": 3858,
      "Birth": 3859,
      "japan</w>": 3860,
      "San</w>": 3861,
      "ah</w>": 3862,
      "dard</w>": 3863,
      "emb": 3864,
      "ij": 3865,
      "ky": 3866,
      "ser</w>": 3867,
      "tv</w>": 3868,
      "tig": 3869,
      "vs</w>": 3870,
      "vol": 3871,
      "ating</w>": 3872,
      "ise</w>": 3873,
      "ally</w>": 3874,
      "detro": 3875,
      "etro": 3876,
      "artist</w>": 3877,
      "103</w>": 3878,
      "ground</w>": 3879,
      "1966</w>": 3880,
      "blished</w>": 3881,
      "detroit</w>": 3882,
      "Mot": 3883,
      "don": 3884,
      "ges</w>": 3885,
      "kansas</w>": 3886,
      "na</w>": 3887,
      "rea": 3888,
      "ves</w>": 3889,
      "alists</w>": 3890,
      "urch</w>": 3891,
      "Market</w>": 3892,
      "Arena</w>": 3893,
      "Period</w>": 3894,
      "Candidate</w>": 3895,
      "size</w>": 3896,
      "Passeng": 3897,
      "delaide</w>": 3898,
      "Co</w>": 3899,
      "Pin": 3900,
      "Whe": 3901,
      "ied</w>": 3902,
      "jim</w>": 3903,
      "king": 3904,
      "ened</w>": 3905,
      "record</w>": 3906,
      "Play</w>": 3907,
      "treal</w>": 3908,
      "point</w>": 3909,
      "Semif": 3910,
      "1970</w>": 3911,
      "cards</w>": 3912,
      "Comb": 3913,
      "window</w>": 3914,
      "aths</w>": 3915,
      "Launch</w>": 3916,
      "Guest</w>": 3917,
      "Drivers</w>": 3918,
      "Center</w>": 3919,
      "Sun": 3920,
      "average</w>": 3921,
      "dan</w>": 3922,
      "hcards</w>": 3923,
      "iver</w>": 3924,
      "list</w>": 3925,
      "ner": 3926,
      "pit": 3927,
      "rari</w>": 3928,
      "tw": 3929,
      "tre": 3930,
      "za</w>": 3931,
      "rill": 3932,
      "robert</w>": 3933,
      "che": 3934,
      "stern</w>": 3935,
      "igan</w>": 3936,
      "articles</w>": 3937,
      "Gown</w>": 3938,
      "population</w>": 3939,
      "cement</w>": 3940,
      "dom</w>": 3941,
      "stem</w>": 3942,
      "hawks</w>": 3943,
      "7th</w>": 3944,
      "Bl": 3945,
      "Caps</w>": 3946,
      "Han": 3947,
      "Lu": 3948,
      "San": 3949,
      "bea": 3950,
      "bay</w>": 3951,
      "epis": 3952,
      "hold</w>": 3953,
      "kar": 3954,
      "itles</w>": 3955,
      "loy": 3956,
      "low</w>": 3957,
      "power</w>": 3958,
      "que": 3959,
      "1968</w>": 3960,
      "Championships</w>": 3961,
      "Appearan": 3962,
      "orgia</w>": 3963,
      "0s</w>": 3964,
      "Penn": 3965,
      "Sim": 3966,
      "Vac": 3967,
      "ai</w>": 3968,
      "go</w>": 3969,
      "sports</w>": 3970,
      "ty": 3971,
      "va</w>": 3972,
      "ano</w>": 3973,
      "ami</w>": 3974,
      "chester</w>": 3975,
      "stru": 3976,
      "ssic</w>": 3977,
      "russ": 3978,
      "ample</w>": 3979,
      "form</w>": 3980,
      "1973</w>": 3981,
      "premi": 3982,
      "burgh</w>": 3983,
      "Torque</w>": 3984,
      "known</w>": 3985,
      "irginia</w>": 3986,
      "112</w>": 3987,
      "27": 3988,
      "Bul": 3989,
      "Fle": 3990,
      "J2000</w>": 3991,
      "License</w>": 3992,
      "Ur": 3993,
      "York</w>": 3994,
      "ken</w>": 3995,
      "kings</w>": 3996,
      "lb</w>": 3997,
      "ni": 3998,
      "ve": 3999,
      "ying</w>": 4000,
      "atlant": 4001,
      "Rebounds</w>": 4002,
      "Revenue</w>": 4003,
      "lot</w>": 4004,
      "Enter": 4005,
      "Color</w>": 4006,
      "Unit</w>": 4007,
      "junction</w>": 4008,
      "green</w>": 4009,
      "championships</w>": 4010,
      "Percent</w>": 4011,
      "entator</w>": 4012,
      "125</w>": 4013,
      "24": 4014,
      "25": 4015,
      "Gender</w>": 4016,
      "Pa": 4017,
      "Tur": 4018,
      "ba</w>": 4019,
      "dr": 4020,
      "gol": 4021,
      "ku": 4022,
      "prin": 4023,
      "sim": 4024,
      "yu": 4025,
      "inois</w>": 4026,
      "erry</w>": 4027,
      "res": 4028,
      "let</w>": 4029,
      "share</w>": 4030,
      "ado</w>": 4031,
      "ritory</w>": 4032,
      "Head": 4033,
      "party</w>": 4034,
      "ferrari</w>": 4035,
      "house</w>": 4036,
      "played</w>": 4037,
      "Course</w>": 4038,
      "Do": 4039,
      "GT": 4040,
      "II</w>": 4041,
      "Mission</w>": 4042,
      "Net</w>": 4043,
      "OT</w>": 4044,
      "Pat": 4045,
      "Te": 4046,
      "bal": 4047,
      "cle": 4048,
      "ipp": 4049,
      "mp</w>": 4050,
      "osition</w>": 4051,
      "rpm</w>": 4052,
      "sen</w>": 4053,
      "ination</w>": 4054,
      "alo</w>": 4055,
      "ility</w>": 4056,
      "chris</w>": 4057,
      "106</w>": 4058,
      "Winnings</w>": 4059,
      "class</w>": 4060,
      "ays</w>": 4061,
      "testant</w>": 4062,
      "vote</w>": 4063,
      "React</w>": 4064,
      "Liber": 4065,
      "Urban</w>": 4066,
      "FC</w>": 4067,
      "ST</w>": 4068,
      "Sco": 4069,
      "Water</w>": 4070,
      "award</w>": 4071,
      "jack": 4072,
      "kW": 4073,
      "kers</w>": 4074,
      "led</w>": 4075,
      "nam": 4076,
      "Poll</w>": 4077,
      "ssee</w>": 4078,
      "Opposition</w>": 4079,
      "isted</w>": 4080,
      "istered</w>": 4081,
      "Conceded</w>": 4082,
      "ension</w>": 4083,
      "minnesota</w>": 4084,
      "price</w>": 4085,
      "Catalogue</w>": 4086,
      "azz</w>": 4087,
      "bye</w>": 4088,
      "honda</w>": 4089,
      "Couple</w>": 4090,
      "150</w>": 4091,
      "Ale": 4092,
      "Bike</w>": 4093,
      "Den": 4094,
      "Family</w>": 4095,
      "GE": 4096,
      "In</w>": 4097,
      "aff": 4098,
      "games</w>": 4099,
      "held</w>": 4100,
      "tri": 4101,
      "ume</w>": 4102,
      "wa</w>": 4103,
      "ealand</w>": 4104,
      "illa": 4105,
      "oma</w>": 4106,
      "ife</w>": 4107,
      "1975</w>": 4108,
      "Max</w>": 4109,
      "montreal</w>": 4110,
      "1967</w>": 4111,
      "1965</w>": 4112,
      "angeles</w>": 4113,
      "Launched</w>": 4114,
      "Elevation</w>": 4115,
      "300</w>": 4116,
      "Gar": 4117,
      "Michael</w>": 4118,
      "Others</w>": 4119,
      "ben</w>": 4120,
      "first</w>": 4121,
      "pt</w>": 4122,
      "pun": 4123,
      "sur": 4124,
      "ison</w>": 4125,
      "did</w>": 4126,
      "Diameter</w>": 4127,
      "ister</w>": 4128,
      "guest</w>": 4129,
      "107</w>": 4130,
      "eden</w>": 4131,
      "ander</w>": 4132,
      "car</w>": 4133,
      "1969</w>": 4134,
      "italy</w>": 4135,
      "00000000": 4136,
      "black</w>": 4137,
      "slam</w>": 4138,
      "ennessee</w>": 4139,
      "Rober": 4140,
      "Eliminated</w>": 4141,
      "thromb": 4142,
      "Entered</w>": 4143,
      "113</w>": 4144,
      "120</w>": 4145,
      "Fran": 4146,
      "Pe": 4147,
      "Pil": 4148,
      "UT": 4149,
      "dar": 4150,
      "fa": 4151,
      "glen": 4152,
      "kat": 4153,
      "kly</w>": 4154,
      "sl": 4155,
      "vers</w>": 4156,
      "out": 4157,
      "ald</w>": 4158,
      "recor": 4159,
      "icle</w>": 4160,
      "eli": 4161,
      "Reser": 4162,
      "Develo": 4163,
      "104</w>": 4164,
      "andre": 4165,
      "cky</w>": 4166,
      "carolina</w>": 4167,
      "ski</w>": 4168,
      "Jockey</w>": 4169,
      "tsburgh</w>": 4170,
      "iana</w>": 4171,
      "mcg</w>": 4172,
      "ichigan</w>": 4173,
      "Performance</w>": 4174,
      "franc": 4175,
      "Tonnage</w>": 4176,
      "Size</w>": 4177,
      "Developer</w>": 4178,
      "26": 4179,
      "Blo": 4180,
      "Bus": 4181,
      "Centr": 4182,
      "Fa": 4183,
      "Foo": 4184,
      "Seasons</w>": 4185,
      "cy": 4186,
      "dent": 4187,
      "gs</w>": 4188,
      "hal": 4189,
      "iel</w>": 4190,
      "nat": 4191,
      "ram": 4192,
      "um": 4193,
      "ze": 4194,
      "ini</w>": 4195,
      "arena</w>": 4196,
      "Tim": 4197,
      "lost</w>": 4198,
      "new": 4199,
      "placement</w>": 4200,
      "sum": 4201,
      "1961</w>": 4202,
      "days</w>": 4203,
      "Primary</w>": 4204,
      "allen": 4205,
      "north": 4206,
      "version</w>": 4207,
      "count</w>": 4208,
      "clar": 4209,
      "built</w>": 4210,
      "signation</w>": 4211,
      "110</w>": 4212,
      "117</w>": 4213,
      "37": 4214,
      "Batt": 4215,
      "ML": 4216,
      "Sol": 4217,
      "hen": 4218,
      "ham": 4219,
      "iel": 4220,
      "na": 4221,
      "peter</w>": 4222,
      "tu": 4223,
      "tries</w>": 4224,
      "v8</w>": 4225,
      "vent": 4226,
      "wa": 4227,
      "itt": 4228,
      "sto": 4229,
      "lubs</w>": 4230,
      "stablished</w>": 4231,
      "top</w>": 4232,
      "140</w>": 4233,
      "bob</w>": 4234,
      "Career</w>": 4235,
      "ska</w>": 4236,
      "sydney</w>": 4237,
      "broad": 4238,
      "vania</w>": 4239,
      "smith</w>": 4240,
      "Fleet</w>": 4241,
      "princes</w>": 4242,
      "Per</w>": 4243,
      "Rich": 4244,
      "Satur": 4245,
      "dor": 4246,
      "mem": 4247,
      "ron": 4248,
      "sk</w>": 4249,
      "south": 4250,
      "tland</w>": 4251,
      "vis": 4252,
      "lement</w>": 4253,
      "Church</w>": 4254,
      "ett</w>": 4255,
      "very</w>": 4256,
      "max</w>": 4257,
      "109</w>": 4258,
      "admin": 4259,
      "1972</w>": 4260,
      "perc": 4261,
      "perform": 4262,
      "1960</w>": 4263,
      "Sub": 4264,
      "serv": 4265,
      "talian</w>": 4266,
      "Manager</w>": 4267,
      "Nominated</w>": 4268,
      "Tyre</w>": 4269,
      "Platform</w>": 4270,
      "Streak</w>": 4271,
      "Af": 4272,
      "Bra": 4273,
      "Mill": 4274,
      "PM</w>": 4275,
      "Rou": 4276,
      "Tour</w>": 4277,
      "jor": 4278,
      "kra": 4279,
      "mid": 4280,
      "we</w>": 4281,
      "ata</w>": 4282,
      "ani</w>": 4283,
      "Reg</w>": 4284,
      "unknown</w>": 4285,
      "ations</w>": 4286,
      "Cast</w>": 4287,
      "eslot</w>": 4288,
      "windy</w>": 4289,
      "ission": 4290,
      "ellation</w>": 4291,
      "born</w>": 4292,
      "strokes</w>": 4293,
      "choice</w>": 4294,
      "Horse</w>": 4295,
      "birth</w>": 4296,
      "Appearances</w>": 4297,
      "Har": 4298,
      "Names</w>": 4299,
      "Right</w>": 4300,
      "california</w>": 4301,
      "eff": 4302,
      "fs</w>": 4303,
      "fla": 4304,
      "hz</w>": 4305,
      "mo</w>": 4306,
      "rfc</w>": 4307,
      "sand": 4308,
      "ondon</w>": 4309,
      "lab": 4310,
      "irt</w>": 4311,
      "ury</w>": 4312,
      "tres</w>": 4313,
      "Chie": 4314,
      "utes</w>": 4315,
      "elect": 4316,
      "Mala": 4317,
      "engine</w>": 4318,
      "Finalist</w>": 4319,
      "ella</w>": 4320,
      "Aircraft</w>": 4321,
      "scott</w>": 4322,
      "Ratio</w>": 4323,
      "veland</w>": 4324,
      "Green</w>": 4325,
      "dress</w>": 4326,
      "holds</w>": 4327,
      "Premiere</w>": 4328,
      "johnson</w>": 4329,
      "sylvania</w>": 4330,
      "Semifin": 4331,
      "BB": 4332,
      "Doubles</w>": 4333,
      "Gol": 4334,
      "IS</w>": 4335,
      "hy": 4336,
      "mun": 4337,
      "sport</w>": 4338,
      "vin</w>": 4339,
      "zealand</w>": 4340,
      "ine": 4341,
      "enix</w>": 4342,
      "isco</w>": 4343,
      "stu": 4344,
      "ook</w>": 4345,
      "ours</w>": 4346,
      "Local</w>": 4347,
      "male</w>": 4348,
      "Promin": 4349,
      "gram": 4350,
      "Champions</w>": 4351,
      "United</w>": 4352,
      "serati</w>": 4353,
      "Carolina</w>": 4354,
      "airport</w>": 4355,
      "Opened</w>": 4356,
      "Medals</w>": 4357,
      "Cyrill": 4358,
      "williams</w>": 4359,
      "Black</w>": 4360,
      "allenge</w>": 4361,
      "Prominence</w>": 4362,
      "Cyrillic</w>": 4363,
      "35": 4364,
      "Kick": 4365,
      "Rd</w>": 4366,
      "Sm": 4367,
      "Sales</w>": 4368,
      "Wil": 4369,
      "ak</w>": 4370,
      "bit</w>": 4371,
      "dd</w>": 4372,
      "far": 4373,
      "kw</w>": 4374,
      "sal": 4375,
      "eration</w>": 4376,
      "ari": 4377,
      "channel</w>": 4378,
      "igital</w>": 4379,
      "ttlement</w>": 4380,
      "apol": 4381,
      "death</w>": 4382,
      "arter</w>": 4383,
      "seats</w>": 4384,
      "qual": 4385,
      "ffalo</w>": 4386,
      "idth</w>": 4387,
      "Semi</w>": 4388,
      "Style</w>": 4389,
      "Finals</w>": 4390,
      "Free</w>": 4391,
      "Park</w>": 4392,
      "1958</w>": 4393,
      "host</w>": 4394,
      "Commun": 4395,
      "match</w>": 4396,
      "Service</w>": 4397,
      "Operator</w>": 4398,
      "Singles</w>": 4399,
      "louis</w>": 4400,
      "ctorate</w>": 4401,
      "American</w>": 4402,
      "ithdra": 4403,
      "kingdom</w>": 4404,
      "kWh</w>": 4405,
      "GEO</w>": 4406,
      "116</w>": 4407,
      "GC</w>": 4408,
      "IS": 4409,
      "James</w>": 4410,
      "Rnd</w>": 4411,
      "SC</w>": 4412,
      "Wickets</w>": 4413,
      "aa</w>": 4414,
      "ault</w>": 4415,
      "ban": 4416,
      "bas": 4417,
      "cro": 4418,
      "des</w>": 4419,
      "ko": 4420,
      "kor": 4421,
      "pean</w>": 4422,
      "tim": 4423,
      "ug": 4424,
      "yal</w>": 4425,
      "yin</w>": 4426,
      "inf": 4427,
      "era</w>": 4428,
      "lah": 4429,
      "release</w>": 4430,
      "lee</w>": 4431,
      "local</w>": 4432,
      "maserati</w>": 4433,
      "Gover": 4434,
      "Death</w>": 4435,
      "108</w>": 4436,
      "Origin</w>": 4437,
      "ego</w>": 4438,
      "Make</w>": 4439,
      "141</w>": 4440,
      "worth</w>": 4441,
      "Successor</w>": 4442,
      "sky</w>": 4443,
      "Aggre": 4444,
      "rench</w>": 4445,
      "Passengers</w>": 4446,
      "60": 4447,
      "AAA</w>": 4448,
      "Bel": 4449,
      "Bill": 4450,
      "He": 4451,
      "Prin": 4452,
      "TD</w>": 4453,
      "Texas</w>": 4454,
      "Young</w>": 4455,
      "florida</w>": 4456,
      "lor</w>": 4457,
      "lies</w>": 4458,
      "mel": 4459,
      "miss": 4460,
      "sf</w>": 4461,
      "test</w>": 4462,
      "ven</w>": 4463,
      "order</w>": 4464,
      "road</w>": 4465,
      "china</w>": 4466,
      "ola</w>": 4467,
      "ultur": 4468,
      "ura</w>": 4469,
      "ingham</w>": 4470,
      "Brit": 4471,
      "rangers</w>": 4472,
      "forward</w>": 4473,
      "aul</w>": 4474,
      "1954</w>": 4475,
      "steve</w>": 4476,
      "cialist</w>": 4477,
      "Agg</w>": 4478,
      "charles</w>": 4479,
      "President</w>": 4480,
      "House</w>": 4481,
      "olympic</w>": 4482,
      "depend": 4483,
      "pittsburgh</w>": 4484,
      "ultural</w>": 4485,
      "Att</w>": 4486,
      "Bon": 4487,
      "Clubs</w>": 4488,
      "Dance</w>": 4489,
      "East</w>": 4490,
      "Established</w>": 4491,
      "French</w>": 4492,
      "Gain</w>": 4493,
      "Non</w>": 4494,
      "NBA</w>": 4495,
      "Paul</w>": 4496,
      "dit": 4497,
      "hp</w>": 4498,
      "head</w>": 4499,
      "jor</w>": 4500,
      "mex": 4501,
      "pen": 4502,
      "pal": 4503,
      "ining</w>": 4504,
      "ris": 4505,
      "let": 4506,
      "ural</w>": 4507,
      "illa</w>": 4508,
      "conom": 4509,
      "usa</w>": 4510,
      "Shirt</w>": 4511,
      "Producer</w>": 4512,
      "classic</w>": 4513,
      "Electorate</w>": 4514,
      "1956</w>": 4515,
      "ennis</w>": 4516,
      "entative</w>": 4517,
      "Timeslot</w>": 4518,
      "issioned</w>": 4519,
      "800</w>": 4520,
      "Ball": 4521,
      "El": 4522,
      "Est": 4523,
      "Equ": 4524,
      "Fall</w>": 4525,
      "Lou": 4526,
      "Listed</w>": 4527,
      "ME": 4528,
      "Pack": 4529,
      "be</w>": 4530,
      "dy": 4531,
      "dam": 4532,
      "gold</w>": 4533,
      "moun": 4534,
      "sam": 4535,
      "rizz": 4536,
      "rest": 4537,
      "1950</w>": 4538,
      "chn": 4539,
      "chu": 4540,
      "stination</w>": 4541,
      "ourth</w>": 4542,
      "eter": 4543,
      "Income</w>": 4544,
      "shire</w>": 4545,
      "cont": 4546,
      "leased</w>": 4547,
      "Form": 4548,
      "Constellation</w>": 4549,
      "Ann": 4550,
      "Assets</w>": 4551,
      "iants</w>": 4552,
      "Publ": 4553,
      "Edition</w>": 4554,
      "Crew</w>": 4555,
      "couver</w>": 4556,
      "100km</w>": 4557,
      "william</w>": 4558,
      "Weeks</w>": 4559,
      "Europe</w>": 4560,
      "Stolen</w>": 4561,
      "therlands</w>": 4562,
      "right</w>": 4563,
      "Author</w>": 4564,
      "Pinyin</w>": 4565,
      "Football</w>": 4566,
      "210</w>": 4567,
      "3r</w>": 4568,
      "8th</w>": 4569,
      "Bas": 4570,
      "CC</w>": 4571,
      "Dan": 4572,
      "Ly": 4573,
      "Mu": 4574,
      "Melbourne</w>": 4575,
      "Nat</w>": 4576,
      "Oc": 4577,
      "Pit": 4578,
      "Veh": 4579,
      "Villa": 4580,
      "cam": 4581,
      "fl</w>": 4582,
      "jack</w>": 4583,
      "mac": 4584,
      "ned</w>": 4585,
      "sil": 4586,
      "yan</w>": 4587,
      "ines</w>": 4588,
      "ature</w>": 4589,
      "ean": 4590,
      "orado</w>": 4591,
      "2014</w>": 4592,
      "isiana</w>": 4593,
      "ound": 4594,
      "ult": 4595,
      "race": 4596,
      "ela</w>": 4597,
      "thomas</w>": 4598,
      "sson</w>": 4599,
      "uro</w>": 4600,
      "die</w>": 4601,
      "Ties</w>": 4602,
      "Christ": 4603,
      "Indu": 4604,
      "Dele": 4605,
      "Settlement</w>": 4606,
      "constru": 4607,
      "Cain</w>": 4608,
      "Coast</w>": 4609,
      "Australian</w>": 4610,
      "Rock": 4611,
      "Territory</w>": 4612,
      "county</w>": 4613,
      "McCain</w>": 4614,
      "Weekly</w>": 4615,
      "Born</w>": 4616,
      "William</w>": 4617,
      "atlanta</w>": 4618,
      "Bush</w>": 4619,
      "natch</w>": 4620,
      "percentage</w>": 4621,
      "British</w>": 4622,
      "raceway</w>": 4623,
      "114</w>": 4624,
      "115</w>": 4625,
      "49": 4626,
      "Jazz</w>": 4627,
      "Mor": 4628,
      "No": 4629,
      "ben": 4630,
      "bin</w>": 4631,
      "eb": 4632,
      "hor": 4633,
      "ik</w>": 4634,
      "jam": 4635,
      "jay</w>": 4636,
      "jan</w>": 4637,
      "jones</w>": 4638,
      "long": 4639,
      "nick</w>": 4640,
      "om</w>": 4641,
      "sol": 4642,
      "ton": 4643,
      "inson</w>": 4644,
      "alex": 4645,
      "ren</w>": 4646,
      "olog": 4647,
      "elson</w>": 4648,
      "stage</w>": 4649,
      "seph</w>": 4650,
      "gain</w>": 4651,
      "Partner": 4652,
      "ckland</w>": 4653,
      "entu": 4654,
      "Street</w>": 4655,
      "mploy": 4656,
      "1959</w>": 4657,
      "ians</w>": 4658,
      "public</w>": 4659,
      "trodu": 4660,
      "country</w>": 4661,
      "bridge</w>": 4662,
      "Loser</w>": 4663,
      "speed</w>": 4664,
      "Sydney</w>": 4665,
      "Medal</w>": 4666,
      "commentator</w>": 4667,
      "ratio</w>": 4668,
      "quarters</w>": 4669,
      "Purse</w>": 4670,
      "ithdrawn</w>": 4671,
      "Package</w>": 4672,
      "Cru": 4673,
      "HD": 4674,
      "IN": 4675,
      "dro": 4676,
      "ected</w>": 4677,
      "kee</w>": 4678,
      "ots</w>": 4679,
      "tus</w>": 4680,
      "tony</w>": 4681,
      "wol": 4682,
      "well</w>": 4683,
      "zil</w>": 4684,
      "ind": 4685,
      "laps</w>": 4686,
      "rit</w>": 4687,
      "stra": 4688,
      "ira</w>": 4689,
      "tter</w>": 4690,
      "Index</w>": 4691,
      "vil</w>": 4692,
      "run</w>": 4693,
      "pho": 4694,
      "usical</w>": 4695,
      "feet</w>": 4696,
      "cast": 4697,
      "Sponsor</w>": 4698,
      "Col</w>": 4699,
      "Cover</w>": 4700,
      "Copa</w>": 4701,
      "145</w>": 4702,
      "dave</w>": 4703,
      "sponsor</w>": 4704,
      "1955</w>": 4705,
      "ello</w>": 4706,
      "ople</w>": 4707,
      "province</w>": 4708,
      "Level</w>": 4709,
      "Ratings</w>": 4710,
      "evin</w>": 4711,
      "joe</w>": 4712,
      "crat</w>": 4713,
      "acht</w>": 4714,
      "Admin": 4715,
      "cipi": 4716,
      "Obama</w>": 4717,
      "lando</w>": 4718,
      "Vacator</w>": 4719,
      "records</w>": 4720,
      "administered</w>": 4721,
      "rizzlies</w>": 4722,
      "111</w>": 4723,
      "250</w>": 4724,
      "47": 4725,
      "Adelaide</w>": 4726,
      "Center": 4727,
      "Dow": 4728,
      "Mart": 4729,
      "None</w>": 4730,
      "PP": 4731,
      "Snatch</w>": 4732,
      "down</w>": 4733,
      "fold</w>": 4734,
      "family</w>": 4735,
      "gor": 4736,
      "men": 4737,
      "pool</w>": 4738,
      "son": 4739,
      "texas</w>": 4740,
      "yl</w>": 4741,
      "yland</w>": 4742,
      "zu": 4743,
      "inc": 4744,
      "eals</w>": 4745,
      "rich</w>": 4746,
      "Released</w>": 4747,
      "race</w>": 4748,
      "Tom</w>": 4749,
      "difference</w>": 4750,
      "sha": 4751,
      "Description</w>": 4752,
      "Prof": 4753,
      "ified</w>": 4754,
      "tern": 4755,
      "ckle</w>": 4756,
      "1963</w>": 4757,
      "actress</w>": 4758,
      "138</w>": 4759,
      "139</w>": 4760,
      "Super</w>": 4761,
      "enny</w>": 4762,
      "ished</w>": 4763,
      "Socialist</w>": 4764,
      "awards</w>": 4765,
      "sweden</w>": 4766,
      "atural</w>": 4767,
      "Toronto</w>": 4768,
      "umbia</w>": 4769,
      "50cc</w>": 4770,
      "defensive</w>": 4771,
      "argest</w>": 4772,
      "martin</w>": 4773,
      "Bowl</w>": 4774,
      "Senior</w>": 4775,
      "Website</w>": 4776,
      "origin</w>": 4777,
      "Representative</w>": 4778,
      "Combined</w>": 4779,
      "russia</w>": 4780,
      "Headquarters</w>": 4781,
      "lahoma</w>": 4782,
      "entucky</w>": 4783,
      "122</w>": 4784,
      "At": 4785,
      "Largest</w>": 4786,
      "Pen": 4787,
      "Peter</w>": 4788,
      "St</w>": 4789,
      "South": 4790,
      "bay": 4791,
      "dn": 4792,
      "eth": 4793,
      "fif": 4794,
      "fat</w>": 4795,
      "hin": 4796,
      "mal": 4797,
      "opp": 4798,
      "sb": 4799,
      "woo": 4800,
      "tackle</w>": 4801,
      "ila</w>": 4802,
      "cture</w>": 4803,
      "demo": 4804,
      "illinois</w>": 4805,
      "mar</w>": 4806,
      "cus</w>": 4807,
      "Destination</w>": 4808,
      "Program": 4809,
      "Condition</w>": 4810,
      "imate</w>": 4811,
      "election</w>": 4812,
      "monton</w>": 4813,
      "Construction</w>": 4814,
      "brun": 4815,
      "george</w>": 4816,
      "Work</w>": 4817,
      "Russ": 4818,
      "ival</w>": 4819,
      "Commissioned</w>": 4820,
      "Mintage</w>": 4821,
      "garian</w>": 4822,
      "amilton</w>": 4823,
      "Serial</w>": 4824,
      "Vote</w>": 4825,
      "submission</w>": 4826,
      "Standard</w>": 4827,
      "fox</w>": 4828,
      "Chief</w>": 4829,
      "mexico</w>": 4830,
      "Administr": 4831,
      "Centerfold</w>": 4832,
      "Fri": 4833,
      "Fuel</w>": 4834,
      "Hol": 4835,
      "Jam": 4836,
      "Miss</w>": 4837,
      "NGC</w>": 4838,
      "One</w>": 4839,
      "PA</w>": 4840,
      "Tw": 4841,
      "bt</w>": 4842,
      "dou": 4843,
      "dol": 4844,
      "ials</w>": 4845,
      "rou": 4846,
      "ring</w>": 4847,
      "enz": 4848,
      "erland</w>": 4849,
      "Recipi": 4850,
      "ilers</w>": 4851,
      "ull</w>": 4852,
      "iga</w>": 4853,
      "verse</w>": 4854,
      "gas</w>": 4855,
      "Contestant</w>": 4856,
      "lean</w>": 4857,
      "Show</w>": 4858,
      "career</w>": 4859,
      "Stor": 4860,
      "mpg</w>": 4861,
      "Prelimin": 4862,
      "anna</w>": 4863,
      "Cards</w>": 4864,
      "put</w>": 4865,
      "Spec</w>": 4866,
      "cana": 4867,
      "fred</w>": 4868,
      "ferrie</w>": 4869,
      "attle</w>": 4870,
      "Mountain</w>": 4871,
      "dallas</w>": 4872,
      "households</w>": 4873,
      "glenferrie</w>": 4874,
      "qualification</w>": 4875,
      "36": 4876,
      "500": 4877,
      "Bea": 4878,
      "Ble": 4879,
      "California</w>": 4880,
      "Dom": 4881,
      "Ep</w>": 4882,
      "Hu": 4883,
      "Option</w>": 4884,
      "ap</w>": 4885,
      "con</w>": 4886,
      "cats</w>": 4887,
      "light</w>": 4888,
      "mhz</w>": 4889,
      "non</w>": 4890,
      "t3</w>": 4891,
      "ten": 4892,
      "án": 4893,
      "tation</w>": 4894,
      "orial</w>": 4895,
      "ery</w>": 4896,
      "rio</w>": 4897,
      "1943</w>": 4898,
      "sted</w>": 4899,
      "ray": 4900,
      "Deaths</w>": 4901,
      "Designation</w>": 4902,
      "Proto</w>": 4903,
      "duc": 4904,
      "eding</w>": 4905,
      "leans</w>": 4906,
      "grams</w>": 4907,
      "great</w>": 4908,
      "person</w>": 4909,
      "Finale</w>": 4910,
      "144</w>": 4911,
      "147</w>": 4912,
      "asc": 4913,
      "136</w>": 4914,
      "gement</w>": 4915,
      "Translation</w>": 4916,
      "Displacement</w>": 4917,
      "Socket</w>": 4918,
      "Democrat</w>": 4919,
      "Save</w>": 4920,
      "centre</w>": 4921,
      "start</w>": 4922,
      "Content</w>": 4923,
      "affected</w>": 4924,
      "Reserved</w>": 4925,
      "Batting</w>": 4926,
      "Kickoff</w>": 4927,
      "Vehicle</w>": 4928,
      "phoenix</w>": 4929,
      "118</w>": 4930,
      "119</w>": 4931,
      "127</w>": 4932,
      "126</w>": 4933,
      "211</w>": 4934,
      "Bur": 4935,
      "Block</w>": 4936,
      "Cele": 4937,
      "GS</w>": 4938,
      "Je": 4939,
      "Miss": 4940,
      "Nov</w>": 4941,
      "aut": 4942,
      "dw": 4943,
      "fal": 4944,
      "jac": 4945,
      "ments</w>": 4946,
      "michigan</w>": 4947,
      "ps": 4948,
      "pson</w>": 4949,
      "peak</w>": 4950,
      "val</w>": 4951,
      "yam": 4952,
      "iner</w>": 4953,
      "eag": 4954,
      "ench</w>": 4955,
      "ouse</w>": 4956,
      "cha</w>": 4957,
      "stor": 4958,
      "this</w>": 4959,
      "tti</w>": 4960,
      "Indi": 4961,
      "sea</w>": 4962,
      "Arch": 4963,
      "supp": 4964,
      "1962</w>": 4965,
      "mann</w>": 4966,
      "Parish</w>": 4967,
      "Super": 4968,
      "1951</w>": 4969,
      "288</w>": 4970,
      "champion</w>": 4971,
      "finish</w>": 4972,
      "Latin</w>": 4973,
      "week</w>": 4974,
      "pier": 4975,
      "Trophy</w>": 4976,
      "German</w>": 4977,
      "Island</w>": 4978,
      "Wheel</w>": 4979,
      "Administrative</w>": 4980,
      "Bleeding</w>": 4981,
      "Am": 4982,
      "Digital</w>": 4983,
      "Ident": 4984,
      "Ke": 4985,
      "Man</w>": 4986,
      "Natural</w>": 4987,
      "Range</w>": 4988,
      "Tri": 4989,
      "Titles</w>": 4990,
      "YE": 4991,
      "Yacht</w>": 4992,
      "cs</w>": 4993,
      "emp": 4994,
      "gan": 4995,
      "gil": 4996,
      "giants</w>": 4997,
      "han": 4998,
      "nor</w>": 4999,
      "og</w>": 5000,
      "plat": 5001,
      "sc</w>": 5002,
      "tom": 5003,
      "wom": 5004,
      "208</w>": 5005,
      "rome</w>": 5006,
      "stone</w>": 5007,
      "ssion</w>": 5008,
      "Took</w>": 5009,
      "Results": 5010,
      "dem": 5011,
      "etts</w>": 5012,
      "Inn": 5013,
      "ational</w>": 5014,
      "rangement</w>": 5015,
      "aukee</w>": 5016,
      "Thur": 5017,
      "Thomas</w>": 5018,
      "served</w>": 5019,
      "athlet": 5020,
      "Exp": 5021,
      "Example</w>": 5022,
      "bury</w>": 5023,
      "Works</w>": 5024,
      "french</w>": 5025,
      "finals</w>": 5026,
      "Publish": 5027,
      "George</w>": 5028,
      "vancouver</w>": 5029,
      "cipal</w>": 5030,
      "comple": 5031,
      "qualify</w>": 5032,
      "Townland</w>": 5033,
      "Township</w>": 5034,
      "Pennsylvania</w>": 5035,
      "cleveland</w>": 5036,
      "UTC</w>": 5037,
      "broadcast</w>": 5038,
      "Principal</w>": 5039,
      "Results¹</w>": 5040,
      "123</w>": 5041,
      "38": 5042,
      "59": 5043,
      "Bill</w>": 5044,
      "Dro": 5045,
      "Nm</w>": 5046,
      "SI": 5047,
      "Washington</w>": 5048,
      "band</w>": 5049,
      "can</w>": 5050,
      "cia</w>": 5051,
      "garden</w>": 5052,
      "hea": 5053,
      "lia</w>": 5054,
      "med": 5055,
      "net</w>": 5056,
      "oph": 5057,
      "su</w>": 5058,
      "sin</w>": 5059,
      "squ": 5060,
      "seasons</w>": 5061,
      "sSpec</w>": 5062,
      "tou": 5063,
      "waukee</w>": 5064,
      "tah</w>": 5065,
      "anapol": 5066,
      "rider</w>": 5067,
      "riots</w>": 5068,
      "ounded</w>": 5069,
      "row</w>": 5070,
      "rab": 5071,
      "ths</w>": 5072,
      "tro</w>": 5073,
      "dire": 5074,
      "vic</w>": 5075,
      "dual</w>": 5076,
      "Leader</w>": 5077,
      "address</w>": 5078,
      "elector": 5079,
      "usetts</w>": 5080,
      "owa</w>": 5081,
      "oward</w>": 5082,
      "143</w>": 5083,
      "Supp": 5084,
      "brity</w>": 5085,
      "burn</w>": 5086,
      "Joe</w>": 5087,
      "door</w>": 5088,
      "Train</w>": 5089,
      "mercial</w>": 5090,
      "osed</w>": 5091,
      "North": 5092,
      "Loses</w>": 5093,
      "achusetts</w>": 5094,
      "motor": 5095,
      "liga</w>": 5096,
      "Volume</w>": 5097,
      "Steve</w>": 5098,
      "translation</w>": 5099,
      "Robert</w>": 5100,
      "MLS</w>": 5101,
      "servative</w>": 5102,
      "Bonus</w>": 5103,
      "Formula</w>": 5104,
      "Lyric": 5105,
      "fifa</w>": 5106,
      "opposed</w>": 5107,
      "ascension</w>": 5108,
      "Publisher</w>": 5109,
      "anapolis</w>": 5110,
      "electorates</w>": 5111,
      "121</w>": 5112,
      "22": 5113,
      "39": 5114,
      "All": 5115,
      "Econom": 5116,
      "Fourth</w>": 5117,
      "Kerry</w>": 5118,
      "LM": 5119,
      "MW</w>": 5120,
      "Mea": 5121,
      "Mag": 5122,
      "cle</w>": 5123,
      "dun": 5124,
      "gran": 5125,
      "jan": 5126,
      "ogra": 5127,
      "qf</w>": 5128,
      "rg": 5129,
      "erg": 5130,
      "law": 5131,
      "rist</w>": 5132,
      "1948</w>": 5133,
      "ster": 5134,
      "load</w>": 5135,
      "stad": 5136,
      "ights</w>": 5137,
      "immy</w>": 5138,
      "Marri": 5139,
      "Australia</w>": 5140,
      "Elector</w>": 5141,
      "colorado</w>": 5142,
      "135</w>": 5143,
      "aki</w>": 5144,
      "1953</w>": 5145,
      "programs</w>": 5146,
      "Orlando</w>": 5147,
      "borough</w>": 5148,
      "swick</w>": 5149,
      "rival</w>": 5150,
      "drew</w>": 5151,
      "ditional</w>": 5152,
      "constructor</w>": 5153,
      "Rockets</w>": 5154,
      "Partnering</w>": 5155,
      "Crude</w>": 5156,
      "YES</w>": 5157,
      "130</w>": 5158,
      "AR</w>": 5159,
      "Her": 5160,
      "Jim</w>": 5161,
      "OL</w>": 5162,
      "Ren": 5163,
      "SI</w>": 5164,
      "Sla": 5165,
      "Spo": 5166,
      "Tam": 5167,
      "ata": 5168,
      "bill</w>": 5169,
      "cts</w>": 5170,
      "cent": 5171,
      "dea": 5172,
      "ders</w>": 5173,
      "fu": 5174,
      "ium</w>": 5175,
      "jul": 5176,
      "kins</w>": 5177,
      "my": 5178,
      "min</w>": 5179,
      "nati</w>": 5180,
      "oci": 5181,
      "tournament</w>": 5182,
      "tele": 5183,
      "wing</w>": 5184,
      "arrangement</w>": 5185,
      "rece": 5186,
      "Placing</w>": 5187,
      "leg": 5188,
      "chi</w>": 5189,
      "thony</w>": 5190,
      "Chris</w>": 5191,
      "Introdu": 5192,
      "lotte</w>": 5193,
      "star</w>": 5194,
      "Goal": 5195,
      "cos": 5196,
      "ific</w>": 5197,
      "ness</w>": 5198,
      "idence</w>": 5199,
      "Laid</w>": 5200,
      "imum</w>": 5201,
      "imore</w>": 5202,
      "180</w>": 5203,
      "ages</w>": 5204,
      "Male</w>": 5205,
      "college</w>": 5206,
      "132</w>": 5207,
      "anne</w>": 5208,
      "1952</w>": 5209,
      "tants</w>": 5210,
      "Ang": 5211,
      "hop</w>": 5212,
      "Termin": 5213,
      "credi": 5214,
      "draw</w>": 5215,
      "white</w>": 5216,
      "alties</w>": 5217,
      "competition</w>": 5218,
      "stroke</w>": 5219,
      "cinnati</w>": 5220,
      "stria</w>": 5221,
      "Roma": 5222,
      "Asian</w>": 5223,
      "meaning</w>": 5224,
      "Birthplace</w>": 5225,
      "Garfield</w>": 5226,
      "Route</w>": 5227,
      "Semifinalists</w>": 5228,
      "Aggregate</w>": 5229,
      "democratic</w>": 5230,
      "Programming</w>": 5231,
      "Celebrity</w>": 5232,
      "Jeff</w>": 5233,
      "Bin": 5234,
      "Ci": 5235,
      "Clo": 5236,
      "Ear": 5237,
      "Fo": 5238,
      "Italian</w>": 5239,
      "Kar": 5240,
      "Met": 5241,
      "Out</w>": 5242,
      "Sch": 5243,
      "Wal": 5244,
      "bol": 5245,
      "bran": 5246,
      "brit": 5247,
      "bell</w>": 5248,
      "dg": 5249,
      "dome</w>": 5250,
      "ees</w>": 5251,
      "fi": 5252,
      "fig": 5253,
      "gro": 5254,
      "ien</w>": 5255,
      "jos": 5256,
      "kes": 5257,
      "kard": 5258,
      "met": 5259,
      "music</w>": 5260,
      "nic": 5261,
      "net": 5262,
      "song</w>": 5263,
      "t8</w>": 5264,
      "ufc</w>": 5265,
      "virginia</w>": 5266,
      "lace</w>": 5267,
      "ildre": 5268,
      "ledon</w>": 5269,
      "diego</w>": 5270,
      "Challenge</w>": 5271,
      "vie</w>": 5272,
      "Def": 5273,
      "poser</w>": 5274,
      "10th</w>": 5275,
      "iders</w>": 5276,
      "ranking</w>": 5277,
      "blue</w>": 5278,
      "Most</w>": 5279,
      "buffalo</w>": 5280,
      "134</w>": 5281,
      "1957</w>": 5282,
      "Articles</w>": 5283,
      "athan</w>": 5284,
      "compan": 5285,
      "scotland</w>": 5286,
      "stein</w>": 5287,
      "Charles</w>": 5288,
      "Social</w>": 5289,
      "eva</w>": 5290,
      "Scores</w>": 5291,
      "Minister</w>": 5292,
      "richard</w>": 5293,
      "free</w>": 5294,
      "Broadway</w>": 5295,
      "umbers</w>": 5296,
      "White</w>": 5297,
      "altimore</w>": 5298,
      "imbledon</w>": 5299,
      "Motor": 5300,
      "episode</w>": 5301,
      "andrew</w>": 5302,
      "Blocks</w>": 5303,
      "Central</w>": 5304,
      "BBC</w>": 5305,
      "Two</w>": 5306,
      "124</w>": 5307,
      "129</w>": 5308,
      "44": 5309,
      "9th</w>": 5310,
      "Abb": 5311,
      "Big</w>": 5312,
      "CS": 5313,
      "Cal": 5314,
      "Days</w>": 5315,
      "ET</w>": 5316,
      "Far": 5317,
      "Florida</w>": 5318,
      "Hal": 5319,
      "Ja": 5320,
      "Mike</w>": 5321,
      "NA": 5322,
      "On</w>": 5323,
      "Pl": 5324,
      "Yes</w>": 5325,
      "aila": 5326,
      "ber</w>": 5327,
      "cri": 5328,
      "cil</w>": 5329,
      "dle</w>": 5330,
      "ecu": 5331,
      "gan</w>": 5332,
      "hi": 5333,
      "iv</w>": 5334,
      "lp</w>": 5335,
      "sar": 5336,
      "vfl</w>": 5337,
      "tawa</w>": 5338,
      "indian</w>": 5339,
      "lap": 5340,
      "ispan": 5341,
      "ishop</w>": 5342,
      "republican</w>": 5343,
      "1940</w>": 5344,
      "iles</w>": 5345,
      "the": 5346,
      "acres</w>": 5347,
      "vier</w>": 5348,
      "second</w>": 5349,
      "pass": 5350,
      "Colors</w>": 5351,
      "netherlands</w>": 5352,
      "habi": 5353,
      "Partial</w>": 5354,
      "obby</w>": 5355,
      "egan</w>": 5356,
      "Mem": 5357,
      "Perth</w>": 5358,
      "Auckland</w>": 5359,
      "Quest": 5360,
      "Qualif": 5361,
      "ested</w>": 5362,
      "davis</w>": 5363,
      "miami</w>": 5364,
      "norway</w>": 5365,
      "ells</w>": 5366,
      "georgia</w>": 5367,
      "capital</w>": 5368,
      "Opening</w>": 5369,
      "jun</w>": 5370,
      "Minutes</w>": 5371,
      "houston</w>": 5372,
      "britain</w>": 5373,
      "nov</w>": 5374,
      "nesday</w>": 5375,
      "aha</w>": 5376,
      "Premier</w>": 5377,
      "general</w>": 5378,
      "central</w>": 5379,
      "Completed</w>": 5380,
      "tiger</w>": 5381,
      "drama</w>": 5382,
      "Liberal</w>": 5383,
      "francisco</w>": 5384,
      "summer</w>": 5385,
      "Saturday</w>": 5386,
      "Down": 5387,
      "brunswick</w>": 5388,
      "ildren</w>": 5389,
      "habitants</w>": 5390,
      "213</w>": 5391,
      "AR": 5392,
      "Cart": 5393,
      "FM</w>": 5394,
      "III</w>": 5395,
      "Line</w>": 5396,
      "Leg": 5397,
      "Old</w>": 5398,
      "Sign</w>": 5399,
      "able</w>": 5400,
      "ci</w>": 5401,
      "equ": 5402,
      "jon": 5403,
      "mm": 5404,
      "mw</w>": 5405,
      "night</w>": 5406,
      "pl</w>": 5407,
      "sday</w>": 5408,
      "t10</w>": 5409,
      "atre</w>": 5410,
      "eng</w>": 5411,
      "anish</w>": 5412,
      "rier</w>": 5413,
      "rian</w>": 5414,
      "ridge</w>": 5415,
      "207</w>": 5416,
      "Red</w>": 5417,
      "Poll": 5418,
      "ala</w>": 5419,
      "rey</w>": 5420,
      "1942</w>": 5421,
      "level</w>": 5422,
      "elly</w>": 5423,
      "ominal</w>": 5424,
      "Tied</w>": 5425,
      "mad": 5426,
      "Brand</w>": 5427,
      "otive</w>": 5428,
      "hai</w>": 5429,
      "australian</w>": 5430,
      "andy</w>": 5431,
      "anda</w>": 5432,
      "cker</w>": 5433,
      "Three</w>": 5434,
      "008</w>": 5435,
      "tim</w>": 5436,
      "137</w>": 5437,
      "Appar": 5438,
      "aka</w>": 5439,
      "285</w>": 5440,
      "greg</w>": 5441,
      "Bob</w>": 5442,
      "tals</w>": 5443,
      "trol</w>": 5444,
      "value</w>": 5445,
      "spect</w>": 5446,
      "Georgia</w>": 5447,
      "ligion</w>": 5448,
      "ryan</w>": 5449,
      "Bowling</w>": 5450,
      "magn": 5451,
      "ireland</w>": 5452,
      "anderers</w>": 5453,
      "Techn": 5454,
      "Pilot</w>": 5455,
      "Golden</w>": 5456,
      "longed</w>": 5457,
      "Innings</w>": 5458,
      "kardinia</w>": 5459,
      "lapsed</w>": 5460,
      "56": 5461,
      "Cro": 5462,
      "Cross</w>": 5463,
      "Don": 5464,
      "Fr": 5465,
      "Ft</w>": 5466,
      "FS</w>": 5467,
      "Grizzlies</w>": 5468,
      "Kit</w>": 5469,
      "Mer": 5470,
      "Sam": 5471,
      "Slo": 5472,
      "Sab": 5473,
      "Vict": 5474,
      "Virginia</w>": 5475,
      "Wrest": 5476,
      "away</w>": 5477,
      "bi</w>": 5478,
      "bc</w>": 5479,
      "home</w>": 5480,
      "hur": 5481,
      "han</w>": 5482,
      "hours</w>": 5483,
      "hCards</w>": 5484,
      "iii</w>": 5485,
      "li</w>": 5486,
      "oper": 5487,
      "pir": 5488,
      "sing</w>": 5489,
      "t6</w>": 5490,
      "tis</w>": 5491,
      "un</w>": 5492,
      "ye</w>": 5493,
      "inas</w>": 5494,
      "ene</w>": 5495,
      "anal": 5496,
      "ites</w>": 5497,
      "erson</w>": 5498,
      "riz": 5499,
      "alfa</w>": 5500,
      "lev": 5501,
      "ulli": 5502,
      "pper</w>": 5503,
      "Residence</w>": 5504,
      "deo</w>": 5505,
      "vidual</w>": 5506,
      "loc": 5507,
      "shar": 5508,
      "cos</w>": 5509,
      "coach</w>": 5510,
      "term</w>": 5511,
      "miller</w>": 5512,
      "conservative</w>": 5513,
      "icks</w>": 5514,
      "Arrival</w>": 5515,
      "phen</w>": 5516,
      "Meet": 5517,
      "Stri": 5518,
      "ohio</w>": 5519,
      "dam</w>": 5520,
      "manchester</w>": 5521,
      "spons": 5522,
      "lie</w>": 5523,
      "athon</w>": 5524,
      "ayne</w>": 5525,
      "pular</w>": 5526,
      "prof": 5527,
      "280</w>": 5528,
      "tech</w>": 5529,
      "frank</w>": 5530,
      "Female</w>": 5531,
      "ization</w>": 5532,
      "fern": 5533,
      "earance</w>": 5534,
      "12th</w>": 5535,
      "itzerland</w>": 5536,
      "ysia</w>": 5537,
      "patriots</w>": 5538,
      "Borough</w>": 5539,
      "Object</w>": 5540,
      "istration</w>": 5541,
      "watson</w>": 5542,
      "Scott</w>": 5543,
      "clark</w>": 5544,
      "Annual</w>": 5545,
      "Public</w>": 5546,
      "Village</w>": 5547,
      "eagles</w>": 5548,
      "Romaji</w>": 5549,
      "Questions</w>": 5550,
      "33": 5551,
      "48": 5552,
      "57": 5553,
      "600</w>": 5554,
      "Ab": 5555,
      "Ben": 5556,
      "Back": 5557,
      "Fun": 5558,
      "Hand</w>": 5559,
      "John": 5560,
      "Kansas</w>": 5561,
      "L2</w>": 5562,
      "Live</w>": 5563,
      "Mass": 5564,
      "New": 5565,
      "Sha": 5566,
      "Zone</w>": 5567,
      "au</w>": 5568,
      "ade</w>": 5569,
      "bank</w>": 5570,
      "camp": 5571,
      "eds</w>": 5572,
      "london</w>": 5573,
      "math": 5574,
      "nic</w>": 5575,
      "over</w>": 5576,
      "pts</w>": 5577,
      "pac": 5578,
      "t1</w>": 5579,
      "t5</w>": 5580,
      "tko</w>": 5581,
      "tennessee</w>": 5582,
      "ue": 5583,
      "ANSI</w>": 5584,
      "inted</w>": 5585,
      "oul": 5586,
      "requ": 5587,
      "190</w>": 5588,
      "195</w>": 5589,
      "Winter</w>": 5590,
      "ended</w>": 5591,
      "apore</w>": 5592,
      "Attemp": 5593,
      "Int</w>": 5594,
      "mala": 5595,
      "secon": 5596,
      "Comp</w>": 5597,
      "ipe": 5598,
      "Shoo": 5599,
      "Short</w>": 5600,
      "Steals</w>": 5601,
      "142</w>": 5602,
      "Unopposed</w>": 5603,
      "Sub</w>": 5604,
      "press</w>": 5605,
      "stream</w>": 5606,
      "Body": 5607,
      "jeff</w>": 5608,
      "standing</w>": 5609,
      "lination</w>": 5610,
      "saint</w>": 5611,
      "Verb</w>": 5612,
      "Agric": 5613,
      "brazil</w>": 5614,
      "scored</w>": 5615,
      "player</w>": 5616,
      "gium</w>": 5617,
      "jason</w>": 5618,
      "american</w>": 5619,
      "strial</w>": 5620,
      "commun": 5621,
      "Voltage</w>": 5622,
      "Roman": 5623,
      "porters</w>": 5624,
      "tigers</w>": 5625,
      "Blue</w>": 5626,
      "named</w>": 5627,
      "Solo</w>": 5628,
      "info</w>": 5629,
      "sbane</w>": 5630,
      "company</w>": 5631,
      "ailable</w>": 5632,
      "274</w>": 5633,
      "333</w>": 5634,
      "380": 5635,
      "DV": 5636,
      "Employ": 5637,
      "Hispan": 5638,
      "Kil": 5639,
      "Nu": 5640,
      "Oct</w>": 5641,
      "PU</w>": 5642,
      "Q1</w>": 5643,
      "SP": 5644,
      "Tennessee</w>": 5645,
      "Wicket</w>": 5646,
      "current</w>": 5647,
      "ds": 5648,
      "district</w>": 5649,
      "fe</w>": 5650,
      "hamilton</w>": 5651,
      "if</w>": 5652,
      "lions</w>": 5653,
      "none</w>": 5654,
      "oak": 5655,
      "real</w>": 5656,
      "slo": 5657,
      "satur": 5658,
      "uk</w>": 5659,
      "var": 5660,
      "wales</w>": 5661,
      "width</w>": 5662,
      "zi</w>": 5663,
      "tamp": 5664,
      "ato</w>": 5665,
      "each</w>": 5666,
      "ito</w>": 5667,
      "ero</w>": 5668,
      "205</w>": 5669,
      "ised</w>": 5670,
      "Recor": 5671,
      "CON": 5672,
      "ils</w>": 5673,
      "iling</w>": 5674,
      "ilway</w>": 5675,
      "Western</w>": 5676,
      "stall": 5677,
      "com</w>": 5678,
      "Prothromb": 5679,
      "seattle</w>": 5680,
      "ight": 5681,
      "Commercial</w>": 5682,
      "Composer</w>": 5683,
      "ques</w>": 5684,
      "ampton</w>": 5685,
      "rows</w>": 5686,
      "ando</w>": 5687,
      "cons</w>": 5688,
      "phil</w>": 5689,
      "cap</w>": 5690,
      "berto</w>": 5691,
      "berlin</w>": 5692,
      "Former</w>": 5693,
      "estic</w>": 5694,
      "dale</w>": 5695,
      "Under</w>": 5696,
      "anny</w>": 5697,
      "156</w>": 5698,
      "151</w>": 5699,
      "decision</w>": 5700,
      "bron": 5701,
      "Leg</w>": 5702,
      "281</w>": 5703,
      "Assemb": 5704,
      "iano</w>": 5705,
      "Judge</w>": 5706,
      "india</w>": 5707,
      "subject</w>": 5708,
      "Acqu": 5709,
      "episodes</w>": 5710,
      "premiere</w>": 5711,
      "000000000000": 5712,
      "memorial</w>": 5713,
      "Pitcher</w>": 5714,
      "Delegate</w>": 5715,
      "yamaha</w>": 5716,
      "cosworth</w>": 5717,
      "Qualifying</w>": 5718,
      "Polling</w>": 5719,
      "Hispanic</w>": 5720,
      "tampa</w>": 5721,
      "Prothrombin</w>": 5722,
      "212</w>": 5723,
      "215</w>": 5724,
      "62": 5725,
      "AC": 5726,
      "Cle": 5727,
      "Der": 5728,
      "Deli": 5729,
      "Eff": 5730,
      "Fate</w>": 5731,
      "Fast</w>": 5732,
      "GA</w>": 5733,
      "GN</w>": 5734,
      "Im": 5735,
      "Life</w>": 5736,
      "Oly": 5737,
      "Roo": 5738,
      "Vess": 5739,
      "Wat": 5740,
      "Withdrawn</w>": 5741,
      "cour": 5742,
      "clo": 5743,
      "cli": 5744,
      "census</w>": 5745,
      "fra": 5746,
      "fur": 5747,
      "gon": 5748,
      "hib": 5749,
      "ible</w>": 5750,
      "iowa</w>": 5751,
      "lo</w>": 5752,
      "lun": 5753,
      "mouth</w>": 5754,
      "males</w>": 5755,
      "musical</w>": 5756,
      "num</w>": 5757,
      "nik": 5758,
      "ointed</w>": 5759,
      "pur": 5760,
      "t2</w>": 5761,
      "ti</w>": 5762,
      "titles</w>": 5763,
      "vo</w>": 5764,
      "yard</w>": 5765,
      "yota</w>": 5766,
      "án</w>": 5767,
      "tay": 5768,
      "eastern</w>": 5769,
      "ana": 5770,
      "corpor": 5771,
      "rock</w>": 5772,
      "ici": 5773,
      "les": 5774,
      "leon": 5775,
      "ctive</w>": 5776,
      "Lowest</w>": 5777,
      "third</w>": 5778,
      "dic</w>": 5779,
      "diens</w>": 5780,
      "viation</w>": 5781,
      "lom</w>": 5782,
      "lotus</w>": 5783,
      "imal</w>": 5784,
      "range</w>": 5785,
      "edmonton</w>": 5786,
      "ented</w>": 5787,
      "successor</w>": 5788,
      "Que": 5789,
      "Quart": 5790,
      "boys</w>": 5791,
      "Altern": 5792,
      "152</w>": 5793,
      "155</w>": 5794,
      "ather</w>": 5795,
      "anton": 5796,
      "angay</w>": 5797,
      "Building</w>": 5798,
      "scow</w>": 5799,
      "villa": 5800,
      "capacity</w>": 5801,
      "nations</w>": 5802,
      "acker</w>": 5803,
      "Chart</w>": 5804,
      "Minnesota</w>": 5805,
      "brian</w>": 5806,
      "matt</w>": 5807,
      "brown</w>": 5808,
      "cred": 5809,
      "voice</w>": 5810,
      "poland</w>": 5811,
      "jersey</w>": 5812,
      "Base</w>": 5813,
      "christian</w>": 5814,
      "plified</w>": 5815,
      "europe</w>": 5816,
      "kyo</w>": 5817,
      "Simplified</w>": 5818,
      "jackson</w>": 5819,
      "effield</w>": 5820,
      "mount</w>": 5821,
      "PPP</w>": 5822,
      "Jamie</w>": 5823,
      "Legs</w>": 5824,
      "uefa</w>": 5825,
      "Attempts</w>": 5826,
      "Olymp": 5827,
      "170</w>": 5828,
      "214</w>": 5829,
      "97": 5830,
      "Band</w>": 5831,
      "Cra": 5832,
      "Clock</w>": 5833,
      "Clean</w>": 5834,
      "Dou": 5835,
      "Domin": 5836,
      "Detro": 5837,
      "Er": 5838,
      "EU</w>": 5839,
      "Fla": 5840,
      "Jack</w>": 5841,
      "Ko": 5842,
      "Ober": 5843,
      "Pre</w>": 5844,
      "Pict": 5845,
      "ao</w>": 5846,
      "bast": 5847,
      "cf</w>": 5848,
      "cell": 5849,
      "ccer</w>": 5850,
      "fed": 5851,
      "fli": 5852,
      "film</w>": 5853,
      "hh</w>": 5854,
      "iy": 5855,
      "ius</w>": 5856,
      "kh": 5857,
      "ker": 5858,
      "length</w>": 5859,
      "mur": 5860,
      "nell</w>": 5861,
      "ox": 5862,
      "pet</w>": 5863,
      "ped": 5864,
      "vest": 5865,
      "wanderers</w>": 5866,
      "ators</w>": 5867,
      "eased</w>": 5868,
      "orting</w>": 5869,
      "ert": 5870,
      "aron</w>": 5871,
      "ise": 5872,
      "iscon": 5873,
      "alent</w>": 5874,
      "rell</w>": 5875,
      "ley": 5876,
      "chel": 5877,
      "chen</w>": 5878,
      "ign": 5879,
      "ran</w>": 5880,
      "radio</w>": 5881,
      "tton</w>": 5882,
      "description</w>": 5883,
      "deaths</w>": 5884,
      "Che": 5885,
      "ouri</w>": 5886,
      "vered</w>": 5887,
      "aco</w>": 5888,
      "acks</w>": 5889,
      "shi</w>": 5890,
      "Design</w>": 5891,
      "adam</w>": 5892,
      "ewart</w>": 5893,
      "ipts</w>": 5894,
      "Max": 5895,
      "success": 5896,
      "most</w>": 5897,
      "Metres</w>": 5898,
      "carlos</w>": 5899,
      "bruins</w>": 5900,
      "esel</w>": 5901,
      "asian</w>": 5902,
      "liber": 5903,
      "issipp": 5904,
      "brea": 5905,
      "Lee</w>": 5906,
      "skrit</w>": 5907,
      "284</w>": 5908,
      "Andrew</w>": 5909,
      "Traditional</w>": 5910,
      "ardo</w>": 5911,
      "jets</w>": 5912,
      "Scorers</w>": 5913,
      "Netfli": 5914,
      "itary</w>": 5915,
      "dows</w>": 5916,
      "Operation</w>": 5917,
      "indianapolis</w>": 5918,
      "Who</w>": 5919,
      "argent": 5920,
      "Tyres</w>": 5921,
      "cincinnati</w>": 5922,
      "mitted</w>": 5923,
      "alex</w>": 5924,
      "household</w>": 5925,
      "european</w>": 5926,
      "Sanskrit</w>": 5927,
      "Smith</w>": 5928,
      "korea</w>": 5929,
      "Domestic</w>": 5930,
      "raymond</w>": 5931,
      "women</w>": 5932,
      "Memory</w>": 5933,
      "Wrestler</w>": 5934,
      "location</w>": 5935,
      "Detroit</w>": 5936,
      "isconsin</w>": 5937,
      "issippi</w>": 5938,
      "Netflix</w>": 5939,
      "279</w>": 5940,
      "64": 5941,
      "Camp": 5942,
      "DT</w>": 5943,
      "DR</w>": 5944,
      "Dar": 5945,
      "Gi": 5946,
      "Kill": 5947,
      "Lar": 5948,
      "NC": 5949,
      "OA</w>": 5950,
      "Pl</w>": 5951,
      "Pap": 5952,
      "Pay": 5953,
      "PBA</w>": 5954,
      "Sal": 5955,
      "War": 5956,
      "adelaide</w>": 5957,
      "coo": 5958,
      "dt</w>": 5959,
      "du</w>": 5960,
      "dley</w>": 5961,
      "ep</w>": 5962,
      "eth</w>": 5963,
      "ement</w>": 5964,
      "gen</w>": 5965,
      "goo": 5966,
      "jo</w>": 5967,
      "jimmy</w>": 5968,
      "kir": 5969,
      "kim</w>": 5970,
      "mol": 5971,
      "map": 5972,
      "oo</w>": 5973,
      "oct</w>": 5974,
      "opla": 5975,
      "pr": 5976,
      "ru</w>": 5977,
      "rence</w>": 5978,
      "rated</w>": 5979,
      "sab": 5980,
      "ute</w>": 5981,
      "vin": 5982,
      "vill": 5983,
      "wy": 5984,
      "wimbledon</w>": 5985,
      "ym</w>": 5986,
      "yed</w>": 5987,
      "you</w>": 5988,
      "itt</w>": 5989,
      "erial</w>": 5990,
      "oni</w>": 5991,
      "lau": 5992,
      "ria</w>": 5993,
      "203</w>": 5994,
      "201</w>": 5995,
      "209</w>": 5996,
      "isa</w>": 5997,
      "Rece": 5998,
      "rock": 5999,
      "1946</w>": 6000,
      "ices</w>": 6001,
      "chi": 6002,
      "stewart</w>": 6003,
      "tre</w>": 6004,
      "Wind</w>": 6005,
      "Tier</w>": 6006,
      "des": 6007,
      "coast</w>": 6008,
      "Departure</w>": 6009,
      "Debt</w>": 6010,
      "ista</w>": 6011,
      "ifier</w>": 6012,
      "mario</w>": 6013,
      "tower</w>": 6014,
      "mons</w>": 6015,
      "money</w>": 6016,
      "fess": 6017,
      "bern": 6018,
      "Fore": 6019,
      "Stations</w>": 6020,
      "148</w>": 6021,
      "Cana": 6022,
      "Matt</w>": 6023,
      "Prefe": 6024,
      "ests</w>": 6025,
      "Elect": 6026,
      "omination</w>": 6027,
      "Royal</w>": 6028,
      "153</w>": 6029,
      "View": 6030,
      "aya</w>": 6031,
      "Cardin": 6032,
      "brm</w>": 6033,
      "Labour</w>": 6034,
      "formal</w>": 6035,
      "Transmission</w>": 6036,
      "Discip": 6037,
      "gress</w>": 6038,
      "Trainer</w>": 6039,
      "hockey</w>": 6040,
      "Organ": 6041,
      "candi": 6042,
      "Athlet": 6043,
      "juan</w>": 6044,
      "awa</w>": 6045,
      "eur</w>": 6046,
      "craig</w>": 6047,
      "Barangay</w>": 6048,
      "Radio</w>": 6049,
      "Voice</w>": 6050,
      "arget</w>": 6051,
      "celona</w>": 6052,
      "qualifying</w>": 6053,
      "calgary</w>": 6054,
      "Williams</w>": 6055,
      "Blank</w>": 6056,
      "Bulgarian</w>": 6057,
      "Liberta": 6058,
      "outstanding</w>": 6059,
      "henry</w>": 6060,
      "Richard</w>": 6061,
      "dependent</w>": 6062,
      "straight</w>": 6063,
      "Recipient</w>": 6064,
      "canadiens</w>": 6065,
      "Drop</w>": 6066,
      "ograph": 6067,
      "ergy</w>": 6068,
      "Background</w>": 6069,
      "seconds</w>": 6070,
      "Agricultural</w>": 6071,
      "128</w>": 6072,
      "131</w>": 6073,
      "160</w>": 6074,
      "54": 6075,
      "70": 6076,
      "Cri": 6077,
      "Cam": 6078,
      "DFL</w>": 6079,
      "Ell": 6080,
      "Fac": 6081,
      "FCC</w>": 6082,
      "Lif": 6083,
      "ME</w>": 6084,
      "Night</w>": 6085,
      "Neu": 6086,
      "RT</w>": 6087,
      "RR</w>": 6088,
      "Seat</w>": 6089,
      "Target</w>": 6090,
      "Vir": 6091,
      "Vot": 6092,
      "agu": 6093,
      "bun": 6094,
      "baltimore</w>": 6095,
      "cul": 6096,
      "cident</w>": 6097,
      "ful": 6098,
      "fun": 6099,
      "gir": 6100,
      "hi</w>": 6101,
      "ier": 6102,
      "ime</w>": 6103,
      "jar": 6104,
      "kin</w>": 6105,
      "kov": 6106,
      "kie</w>": 6107,
      "long</w>": 6108,
      "mul": 6109,
      "manu": 6110,
      "nu": 6111,
      "oc": 6112,
      "oilers</w>": 6113,
      "pon": 6114,
      "plan": 6115,
      "t4</w>": 6116,
      "yan": 6117,
      "ão</w>": 6118,
      "ón</w>": 6119,
      "ariz": 6120,
      "oul</w>": 6121,
      "rish</w>": 6122,
      "istan</w>": 6123,
      "Poly": 6124,
      "ali</w>": 6125,
      "alat": 6126,
      "rel</w>": 6127,
      "retired</w>": 6128,
      "1930</w>": 6129,
      "1941</w>": 6130,
      "amb": 6131,
      "ctions</w>": 6132,
      "mbers</w>": 6133,
      "thew</w>": 6134,
      "sse": 6135,
      "ssen</w>": 6136,
      "ending</w>": 6137,
      "Invest": 6138,
      "vies</w>": 6139,
      "main</w>": 6140,
      "cup": 6141,
      "copa</w>": 6142,
      "Depart": 6143,
      "Provi": 6144,
      "pos": 6145,
      "pose</w>": 6146,
      "set</w>": 6147,
      "ima</w>": 6148,
      "obile</w>": 6149,
      "187</w>": 6150,
      "Major</w>": 6151,
      "sun</w>": 6152,
      "feo</w>": 6153,
      "cache</w>": 6154,
      "Spouse</w>": 6155,
      "period</w>": 6156,
      "Story</w>": 6157,
      "Force</w>": 6158,
      "States</w>": 6159,
      "estyle</w>": 6160,
      "Canada</w>": 6161,
      "tier</w>": 6162,
      "Declination</w>": 6163,
      "esday</w>": 6164,
      "board</w>": 6165,
      "lier</w>": 6166,
      "Appointed</w>": 6167,
      "tans</w>": 6168,
      "enna</w>": 6169,
      "Word</w>": 6170,
      "single</w>": 6171,
      "heim</w>": 6172,
      "metres</w>": 6173,
      "Body</w>": 6174,
      "talia</w>": 6175,
      "standard</w>": 6176,
      "deria</w>": 6177,
      "switzerland</w>": 6178,
      "valley</w>": 6179,
      "motor</w>": 6180,
      "america</w>": 6181,
      "denver</w>": 6182,
      "Trofeo</w>": 6183,
      "Purpose</w>": 6184,
      "Authors</w>": 6185,
      "Sunday</w>": 6186,
      "Pennant</w>": 6187,
      "Alex": 6188,
      "punt</w>": 6189,
      "thrombopla": 6190,
      "southern</w>": 6191,
      "Louisiana</w>": 6192,
      "ology</w>": 6193,
      "HDTV</w>": 6194,
      "Thursday</w>": 6195,
      "Lyricist</w>": 6196,
      "Meaning</w>": 6197,
      "Tamil</w>": 6198,
      "ociation</w>": 6199,
      "network</w>": 6200,
      "Massachusetts</w>": 6201,
      "Bodyweight</w>": 6202,
      "DVD</w>": 6203,
      "hibition</w>": 6204,
      "Quarter": 6205,
      "Discipline</w>": 6206,
      "arizona</w>": 6207,
      "thromboplastin</w>": 6208,
      "270</w>": 6209,
      "240</w>": 6210,
      "250cc</w>": 6211,
      "34": 6212,
      "4r</w>": 6213,
      "75": 6214,
      "700</w>": 6215,
      "90": 6216,
      "AM</w>": 6217,
      "Bru": 6218,
      "Core</w>": 6219,
      "Distri": 6220,
      "GB</w>": 6221,
      "Gal": 6222,
      "Hy": 6223,
      "Hill</w>": 6224,
      "IT": 6225,
      "IV</w>": 6226,
      "La</w>": 6227,
      "NE": 6228,
      "Not</w>": 6229,
      "Od": 6230,
      "Oh": 6231,
      "Ok": 6232,
      "Of</w>": 6233,
      "Pro</w>": 6234,
      "Row": 6235,
      "River</w>": 6236,
      "VA</w>": 6237,
      "WC</w>": 6238,
      "bus": 6239,
      "cart": 6240,
      "clu": 6241,
      "dcats</w>": 6242,
      "eta": 6243,
      "ever": 6244,
      "gon</w>": 6245,
      "hl</w>": 6246,
      "hel": 6247,
      "ju</w>": 6248,
      "kur": 6249,
      "kentucky</w>": 6250,
      "lth</w>": 6251,
      "ms": 6252,
      "mes</w>": 6253,
      "mig": 6254,
      "mir": 6255,
      "mck": 6256,
      "morg": 6257,
      "nak": 6258,
      "so</w>": 6259,
      "side</w>": 6260,
      "source</w>": 6261,
      "tle</w>": 6262,
      "ters</w>": 6263,
      "ud</w>": 6264,
      "vate</w>": 6265,
      "wards</w>": 6266,
      "yne</w>": 6267,
      "ür": 6268,
      "tails</w>": 6269,
      "install": 6270,
      "ored</w>": 6271,
      "ership</w>": 6272,
      "aries</w>": 6273,
      "law</w>": 6274,
      "rice</w>": 6275,
      "204</w>": 6276,
      "album</w>": 6277,
      "red": 6278,
      "replay</w>": 6279,
      "rome": 6280,
      "1920</w>": 6281,
      "amo</w>": 6282,
      "sta</w>": 6283,
      "racu": 6284,
      "eline</w>": 6285,
      "thou": 6286,
      "thur</w>": 6287,
      "diff</w>": 6288,
      "dee</w>": 6289,
      "Chicago</w>": 6290,
      "ete</w>": 6291,
      "Inf": 6292,
      "viet</w>": 6293,
      "love</w>": 6294,
      "shot</w>": 6295,
      "sheffield</w>": 6296,
      "Died</w>": 6297,
      "cuderia</w>": 6298,
      "inger</w>": 6299,
      "seated</w>": 6300,
      "Control</w>": 6301,
      "hat</w>": 6302,
      "rowth</w>": 6303,
      "elet</w>": 6304,
      "Maryland</w>": 6305,
      "force</w>": 6306,
      "maria</w>": 6307,
      "conference</w>": 6308,
      "ipinas</w>": 6309,
      "Shu": 6310,
      "Spike</w>": 6311,
      "blin</w>": 6312,
      "parish</w>": 6313,
      "146</w>": 6314,
      "149</w>": 6315,
      "Regional</w>": 6316,
      "milan</w>": 6317,
      "cess</w>": 6318,
      "askat": 6319,
      "coln</w>": 6320,
      "133</w>": 6321,
      "station</w>": 6322,
      "coming</w>": 6323,
      "prize</w>": 6324,
      "Internet</w>": 6325,
      "Anal": 6326,
      "ricity</w>": 6327,
      "airs</w>": 6328,
      "292</w>": 6329,
      "trophy</w>": 6330,
      "Brown</w>": 6331,
      "boro</w>": 6332,
      "lyn</w>": 6333,
      "justin</w>": 6334,
      "bills</w>": 6335,
      "garia</w>": 6336,
      "graham</w>": 6337,
      "itan</w>": 6338,
      "velop": 6339,
      "web": 6340,
      "Opera</w>": 6341,
      "entation</w>": 6342,
      "ghz</w>": 6343,
      "football</w>": 6344,
      "Railway</w>": 6345,
      "ilipp": 6346,
      "individual</w>": 6347,
      "dances</w>": 6348,
      "Platelet</w>": 6349,
      "jerk</w>": 6350,
      "hungary</w>": 6351,
      "production</w>": 6352,
      "simon</w>": 6353,
      "result</w>": 6354,
      "Franc": 6355,
      "Pilipinas</w>": 6356,
      "electric</w>": 6357,
      "ebacker</w>": 6358,
      "alexander</w>": 6359,
      "castle</w>": 6360,
      "Martin</w>": 6361,
      "Profits</w>": 6362,
      "enzo</w>": 6363,
      "Preliminary</w>": 6364,
      "Identifier</w>": 6365,
      "Slalom</w>": 6366,
      "Introduced</w>": 6367,
      "Metric</w>": 6368,
      "Canadian</w>": 6369,
      "Provider</w>": 6370,
      "Ohio</w>": 6371,
      "installation</w>": 6372,
      "166</w>": 6373,
      "165</w>": 6374,
      "162</w>": 6375,
      "350</w>": 6376,
      "55": 6377,
      "66": 6378,
      "AL</w>": 6379,
      "Aut": 6380,
      "Aspect</w>": 6381,
      "BN</w>": 6382,
      "Educ": 6383,
      "Fest": 6384,
      "Hen": 6385,
      "Haw": 6386,
      "Kor": 6387,
      "List</w>": 6388,
      "London</w>": 6389,
      "Mid": 6390,
      "Oli": 6391,
      "Off</w>": 6392,
      "Re</w>": 6393,
      "Round": 6394,
      "Sid": 6395,
      "Ten": 6396,
      "aar</w>": 6397,
      "bus</w>": 6398,
      "bobby</w>": 6399,
      "dern</w>": 6400,
      "ep": 6401,
      "euro</w>": 6402,
      "fle": 6403,
      "flo": 6404,
      "gl": 6405,
      "gn": 6406,
      "gla": 6407,
      "ids</w>": 6408,
      "jean</w>": 6409,
      "kan": 6410,
      "kol": 6411,
      "kun": 6412,
      "ket": 6413,
      "kevin</w>": 6414,
      "nominal</w>": 6415,
      "ole</w>": 6416,
      "pro</w>": 6417,
      "ray</w>": 6418,
      "sr": 6419,
      "sq</w>": 6420,
      "since</w>": 6421,
      "t9</w>": 6422,
      "tel": 6423,
      "ties</w>": 6424,
      "titude</w>": 6425,
      "use</w>": 6426,
      "vir": 6427,
      "wan</w>": 6428,
      "wall</w>": 6429,
      "wide</w>": 6430,
      "xon</w>": 6431,
      "ye": 6432,
      "ym": 6433,
      "tam": 6434,
      "inch</w>": 6435,
      "index</w>": 6436,
      "ore": 6437,
      "ite": 6438,
      "itions</w>": 6439,
      "202</w>": 6440,
      "roy": 6441,
      "roe</w>": 6442,
      "royal</w>": 6443,
      "1926</w>": 6444,
      "1931</w>": 6445,
      "ults</w>": 6446,
      "ompson</w>": 6447,
      "omotive</w>": 6448,
      "diesel</w>": 6449,
      "dez</w>": 6450,
      "vian</w>": 6451,
      "macher</w>": 6452,
      "pop</w>": 6453,
      "amples</w>": 6454,
      "austria</w>": 6455,
      "England</w>": 6456,
      "toyota</w>": 6457,
      "phone</w>": 6458,
      "sualties</w>": 6459,
      "Product</w>": 6460,
      "ows</w>": 6461,
      "Surname</w>": 6462,
      "paris</w>": 6463,
      "active</w>": 6464,
      "activ": 6465,
      "columbia</w>": 6466,
      "Altitude</w>": 6467,
      "status</w>": 6468,
      "158</w>": 6469,
      "282</w>": 6470,
      "287</w>": 6471,
      "tein</w>": 6472,
      "297</w>": 6473,
      "system</w>": 6474,
      "Scoring</w>": 6475,
      "Common</w>": 6476,
      "finale</w>": 6477,
      "USA</w>": 6478,
      "joseph</w>": 6479,
      "Nomination</w>": 6480,
      "Latest</w>": 6481,
      "runs</w>": 6482,
      "carlo</w>": 6483,
      "Single</w>": 6484,
      "black": 6485,
      "System</w>": 6486,
      "belgium</w>": 6487,
      "cedes</w>": 6488,
      "jerry</w>": 6489,
      "House": 6490,
      "Link</w>": 6491,
      "AAAAA</w>": 6492,
      "literation</w>": 6493,
      "Tuesday</w>": 6494,
      "wilson</w>": 6495,
      "original</w>": 6496,
      "Actress</w>": 6497,
      "ijing</w>": 6498,
      "beach</w>": 6499,
      "bears</w>": 6500,
      "People</w>": 6501,
      "Balls</w>": 6502,
      "shaw</w>": 6503,
      "Southern</w>": 6504,
      "square</w>": 6505,
      "stadion</w>": 6506,
      "Marriage</w>": 6507,
      "Spokes": 6508,
      "british</w>": 6509,
      "cricket</w>": 6510,
      "sponsored</w>": 6511,
      "Shooter</w>": 6512,
      "broncos</w>": 6513,
      "taylor</w>": 6514,
      "antonio</w>": 6515,
      "credits</w>": 6516,
      "Foreign</w>": 6517,
      "Neutr": 6518,
      "Odds</w>": 6519,
      "romeo</w>": 6520,
      "Festival</w>": 6521,
      "161</w>": 6522,
      "217</w>": 6523,
      "266</w>": 6524,
      "255</w>": 6525,
      "98": 6526,
      "Acr": 6527,
      "Bal": 6528,
      "Hun": 6529,
      "It</w>": 6530,
      "Ill": 6531,
      "King": 6532,
      "My</w>": 6533,
      "Mac": 6534,
      "Nav": 6535,
      "OS</w>": 6536,
      "Pr": 6537,
      "Pat</w>": 6538,
      "SR</w>": 6539,
      "Saf": 6540,
      "Tally</w>": 6541,
      "Up": 6542,
      "Vice</w>": 6543,
      "Woo": 6544,
      "Width</w>": 6545,
      "Yds</w>": 6546,
      "bal</w>": 6547,
      "bad": 6548,
      "bmw</w>": 6549,
      "cer": 6550,
      "dman</w>": 6551,
      "ece</w>": 6552,
      "ftw": 6553,
      "gri": 6554,
      "ho</w>": 6555,
      "hang</w>": 6556,
      "je</w>": 6557,
      "ku</w>": 6558,
      "lq</w>": 6559,
      "scuderia</w>": 6560,
      "vey</w>": 6561,
      "yn</w>": 6562,
      "yu</w>": 6563,
      "yer</w>": 6564,
      "°C</w>": 6565,
      "tat": 6566,
      "tain": 6567,
      "atell": 6568,
      "eau</w>": 6569,
      "orleans</w>": 6570,
      "ity": 6571,
      "ering</w>": 6572,
      "arriv": 6573,
      "arsen": 6574,
      "lay</w>": 6575,
      "ism</w>": 6576,
      "island</w>": 6577,
      "Rec</w>": 6578,
      "Reign</w>": 6579,
      "alb": 6580,
      "rett</w>": 6581,
      "ror</w>": 6582,
      "192</w>": 6583,
      "less</w>": 6584,
      "ols</w>": 6585,
      "oli</w>": 6586,
      "olic</w>": 6587,
      "stry</w>": 6588,
      "unn": 6589,
      "rain</w>": 6590,
      "raiders</w>": 6591,
      "three</w>": 6592,
      "sse</w>": 6593,
      "ssure</w>": 6594,
      "ttish</w>": 6595,
      "Countries</w>": 6596,
      "Wed": 6597,
      "Incoming</w>": 6598,
      "major</w>": 6599,
      "Conne": 6600,
      "ottawa</w>": 6601,
      "hale</w>": 6602,
      "Particip": 6603,
      "conceded</w>": 6604,
      "183</w>": 6605,
      "185</w>": 6606,
      "tokyo</w>": 6607,
      "Cache</w>": 6608,
      "caster</w>": 6609,
      "Spanish</w>": 6610,
      "carpet</w>": 6611,
      "Cost</w>": 6612,
      "Finished</w>": 6613,
      "Appl": 6614,
      "antes</w>": 6615,
      "formula</w>": 6616,
      "Joseph</w>": 6617,
      "Boston</w>": 6618,
      "290</w>": 6619,
      "lincoln</w>": 6620,
      "awar": 6621,
      "barcelona</w>": 6622,
      "matches</w>": 6623,
      "Skipp": 6624,
      "brab": 6625,
      "earch</w>": 6626,
      "Elevator</w>": 6627,
      "Cycl": 6628,
      "patrick</w>": 6629,
      "politan</w>": 6630,
      "oklahoma</w>": 6631,
      "christoph": 6632,
      "landers</w>": 6633,
      "European</w>": 6634,
      "curity</w>": 6635,
      "Birthdate</w>": 6636,
      "etropolitan</w>": 6637,
      "two</w>": 6638,
      "trev": 6639,
      "premier</w>": 6640,
      "Denomination</w>": 6641,
      "performed</w>": 6642,
      "jordan</w>": 6643,
      "ISBN</w>": 6644,
      "rism</w>": 6645,
      "Daniel</w>": 6646,
      "Friday</w>": 6647,
      "athletic</w>": 6648,
      "television</w>": 6649,
      "Meetings</w>": 6650,
      "Strike</w>": 6651,
      "ipeg</w>": 6652,
      "community</w>": 6653,
      "oakland</w>": 6654,
      "Vessel</w>": 6655,
      "iseum</w>": 6656,
      "Killed</w>": 6657,
      "racuse</w>": 6658,
      "atellite</w>": 6659,
      "Skipper</w>": 6660,
      "229</w>": 6661,
      "277</w>": 6662,
      "600": 6663,
      "Al</w>": 6664,
      "By</w>": 6665,
      "Ban": 6666,
      "Bank</w>": 6667,
      "CI</w>": 6668,
      "Cat": 6669,
      "Elapsed</w>": 6670,
      "Frank</w>": 6671,
      "Fri</w>": 6672,
      "Hot</w>": 6673,
      "IP": 6674,
      "Jones</w>": 6675,
      "Ka": 6676,
      "Kn": 6677,
      "Ku": 6678,
      "Kur": 6679,
      "LOA</w>": 6680,
      "MB</w>": 6681,
      "Mult": 6682,
      "Num</w>": 6683,
      "Nos</w>": 6684,
      "Overs</w>": 6685,
      "Sü": 6686,
      "but": 6687,
      "came</w>": 6688,
      "dick</w>": 6689,
      "fil": 6690,
      "hong</w>": 6691,
      "ience</w>": 6692,
      "italian</w>": 6693,
      "ji": 6694,
      "ky</w>": 6695,
      "lers</w>": 6696,
      "life</w>": 6697,
      "ng</w>": 6698,
      "nc</w>": 6699,
      "nac": 6700,
      "nick": 6701,
      "odi": 6702,
      "over": 6703,
      "overall</w>": 6704,
      "other</w>": 6705,
      "pon</w>": 6706,
      "ples</w>": 6707,
      "peter": 6708,
      "rk": 6709,
      "si</w>": 6710,
      "sin": 6711,
      "vot": 6712,
      "wea": 6713,
      "water</w>": 6714,
      "xy</w>": 6715,
      "yo": 6716,
      "yy": 6717,
      "young</w>": 6718,
      "tar": 6719,
      "ind</w>": 6720,
      "ants</w>": 6721,
      "onia</w>": 6722,
      "lady</w>": 6723,
      "corio</w>": 6724,
      "rilia</w>": 6725,
      "Rel": 6726,
      "rob": 6727,
      "196</w>": 6728,
      "191</w>": 6729,
      "1949</w>": 6730,
      "ily</w>": 6731,
      "cham": 6732,
      "chew": 6733,
      "oli": 6734,
      "oliver</w>": 6735,
      "igg": 6736,
      "elle</w>": 6737,
      "elers</w>": 6738,
      "ellow</w>": 6739,
      "aprilia</w>": 6740,
      "Tim</w>": 6741,
      "dec</w>": 6742,
      "Inhabitants</w>": 6743,
      "accident</w>": 6744,
      "stars</w>": 6745,
      "mass": 6746,
      "Prob": 6747,
      "popular</w>": 6748,
      "Sets</w>": 6749,
      "Sept</w>": 6750,
      "oba</w>": 6751,
      "contestant</w>": 6752,
      "189</w>": 6753,
      "ega</w>": 6754,
      "lead</w>": 6755,
      "Coverage</w>": 6756,
      "mix": 6757,
      "bud": 6758,
      "colts</w>": 6759,
      "Capita</w>": 6760,
      "gown</w>": 6761,
      "Suc": 6762,
      "Video</w>": 6763,
      "primary</w>": 6764,
      "formation</w>": 6765,
      "289</w>": 6766,
      "Transliteration</w>": 6767,
      "hein": 6768,
      "ardi</w>": 6769,
      "isher</w>": 6770,
      "293</w>": 6771,
      "champions</w>": 6772,
      "finalists</w>": 6773,
      "lyn": 6774,
      "linebacker</w>": 6775,
      "language</w>": 6776,
      "billions</w>": 6777,
      "german</w>": 6778,
      "beijing</w>": 6779,
      "brisbane</w>": 6780,
      "Sky</w>": 6781,
      "chargers</w>": 6782,
      "Operating</w>": 6783,
      "Singer</w>": 6784,
      "ystal</w>": 6785,
      "indiana</w>": 6786,
      "louisiana</w>": 6787,
      "Japan</w>": 6788,
      "daniel</w>": 6789,
      "miles</w>": 6790,
      "AAAA</w>": 6791,
      "quarter</w>": 6792,
      "johnny</w>": 6793,
      "ernie</w>": 6794,
      "produced</w>": 6795,
      "Millions</w>": 6796,
      "Community</w>": 6797,
      "Occup": 6798,
      "woods</w>": 6799,
      "saturated</w>": 6800,
      "Maximum</w>": 6801,
      "successors</w>": 6802,
      "Cardinalat": 6803,
      "Oklahoma</w>": 6804,
      "askatchew": 6805,
      "Illinois</w>": 6806,
      "Cardinalatial</w>": 6807,
      "askatchewan</w>": 6808,
      "1a</w>": 6809,
      "175</w>": 6810,
      "220</w>": 6811,
      "310</w>": 6812,
      "86": 6813,
      "900</w>": 6814,
      "AS": 6815,
      "BP</w>": 6816,
      "Bat": 6817,
      "CO</w>": 6818,
      "Cur": 6819,
      "Clar": 6820,
      "Down</w>": 6821,
      "El</w>": 6822,
      "East": 6823,
      "Fl": 6824,
      "Ga": 6825,
      "Gam": 6826,
      "Gran": 6827,
      "HC</w>": 6828,
      "HD</w>": 6829,
      "Hon": 6830,
      "Howard</w>": 6831,
      "Irish</w>": 6832,
      "Jew": 6833,
      "Jack": 6834,
      "Kevin</w>": 6835,
      "Late</w>": 6836,
      "Mad": 6837,
      "SP</w>": 6838,
      "Sar": 6839,
      "Squ": 6840,
      "Since</w>": 6841,
      "Tru": 6842,
      "aus</w>": 6843,
      "bishop</w>": 6844,
      "cription</w>": 6845,
      "domin": 6846,
      "ec</w>": 6847,
      "famil": 6848,
      "gi</w>": 6849,
      "lif": 6850,
      "mingham</w>": 6851,
      "ny": 6852,
      "oa</w>": 6853,
      "pin": 6854,
      "pic": 6855,
      "pra": 6856,
      "pan</w>": 6857,
      "pack": 6858,
      "q2</w>": 6859,
      "sak": 6860,
      "villa</w>": 6861,
      "will": 6862,
      "whe": 6863,
      "xx": 6864,
      "−1</w>": 6865,
      "ene": 6866,
      "ories</w>": 6867,
      "ann</w>": 6868,
      "arat</w>": 6869,
      "ladi": 6870,
      "206</w>": 6871,
      "Red": 6872,
      "rod": 6873,
      "rovers</w>": 6874,
      "1928</w>": 6875,
      "1934</w>": 6876,
      "1935</w>": 6877,
      "1945</w>": 6878,
      "1939</w>": 6879,
      "Los</w>": 6880,
      "unaffected</w>": 6881,
      "igi</w>": 6882,
      "irdate</w>": 6883,
      "ras</w>": 6884,
      "urs</w>": 6885,
      "trin": 6886,
      "endit": 6887,
      "apo": 6888,
      "diameter</w>": 6889,
      "Chap": 6890,
      "verpool</w>": 6891,
      "lus</w>": 6892,
      "low": 6893,
      "Entries</w>": 6894,
      "sho": 6895,
      "sha</w>": 6896,
      "stan</w>": 6897,
      "mail</w>": 6898,
      "comb": 6899,
      "cock</w>": 6900,
      "Project</w>": 6901,
      "Condu": 6902,
      "Columbia</w>": 6903,
      "hab</w>": 6904,
      "Origin": 6905,
      "admitted</w>": 6906,
      "edway</w>": 6907,
      "188</w>": 6908,
      "todd</w>": 6909,
      "phis</w>": 6910,
      "ential</w>": 6911,
      "mont</w>": 6912,
      "super</w>": 6913,
      "moscow</w>": 6914,
      "feb</w>": 6915,
      "Span</w>": 6916,
      "Spac": 6917,
      "Forward</w>": 6918,
      "part</w>": 6919,
      "Unaffected</w>": 6920,
      "word</w>": 6921,
      "box</w>": 6922,
      "minutes</w>": 6923,
      "Month</w>": 6924,
      "Sud": 6925,
      "Sun</w>": 6926,
      "1500</w>": 6927,
      "emy</w>": 6928,
      "elli</w>": 6929,
      "aylor</w>": 6930,
      "Cargo</w>": 6931,
      "bronze</w>": 6932,
      "Labor</w>": 6933,
      "283</w>": 6934,
      "Anthony</w>": 6935,
      "Transmit": 6936,
      "Build</w>": 6937,
      "hou</w>": 6938,
      "steelers</w>": 6939,
      "mercedes</w>": 6940,
      "ivalent</w>": 6941,
      "talities</w>": 6942,
      "Scorer</w>": 6943,
      "lyers</w>": 6944,
      "saints</w>": 6945,
      "billy</w>": 6946,
      "charact": 6947,
      "Theatre</w>": 6948,
      "Barrel</w>": 6949,
      "Real</w>": 6950,
      "Dave</w>": 6951,
      "schu": 6952,
      "people</w>": 6953,
      "milwaukee</w>": 6954,
      "Elevated</w>": 6955,
      "dison</w>": 6956,
      "gene</w>": 6957,
      "Tonnes</w>": 6958,
      "bulgaria</w>": 6959,
      "Turbo</w>": 6960,
      "Fatalities</w>": 6961,
      "Russian</w>": 6962,
      "deacon</w>": 6963,
      "Angeles</w>": 6964,
      "Abbr</w>": 6965,
      "Apparent</w>": 6966,
      "Sloven": 6967,
      "Alternate</w>": 6968,
      "Olympics</w>": 6969,
      "argentina</w>": 6970,
      "maple</w>": 6971,
      "Department</w>": 6972,
      "ftware</w>": 6973,
      "arrivals</w>": 6974,
      "arsenal</w>": 6975,
      "Wednesday</w>": 6976,
      "brabham</w>": 6977,
      "families</w>": 6978,
      "216</w>": 6979,
      "225</w>": 6980,
      "275</w>": 6981,
      "278</w>": 6982,
      "325</w>": 6983,
      "85": 6984,
      "As</w>": 6985,
      "AC</w>": 6986,
      "Act</w>": 6987,
      "Arab": 6988,
      "BI": 6989,
      "CL": 6990,
      "Cin": 6991,
      "Curr": 6992,
      "Dur": 6993,
      "Eth": 6994,
      "Fig": 6995,
      "Fire": 6996,
      "GT</w>": 6997,
      "Gir": 6998,
      "IO": 6999,
      "Kentucky</w>": 7000,
      "Mi": 7001,
      "Mon</w>": 7002,
      "Mich": 7003,
      "Michigan</w>": 7004,
      "Metropolitan</w>": 7005,
      "NT": 7006,
      "Nam": 7007,
      "Nov": 7008,
      "Nick</w>": 7009,
      "Numbers</w>": 7010,
      "Over": 7011,
      "PSI": 7012,
      "Rap": 7013,
      "TS</w>": 7014,
      "bow": 7015,
      "bital</w>": 7016,
      "cta": 7017,
      "cent</w>": 7018,
      "dur": 7019,
      "dson</w>": 7020,
      "dges</w>": 7021,
      "ev</w>": 7022,
      "eme</w>": 7023,
      "fb</w>": 7024,
      "fel": 7025,
      "five</w>": 7026,
      "fire</w>": 7027,
      "gom": 7028,
      "hart": 7029,
      "hall</w>": 7030,
      "height</w>": 7031,
      "ki": 7032,
      "lon</w>": 7033,
      "mand": 7034,
      "manufacturer</w>": 7035,
      "municip": 7036,
      "nd": 7037,
      "q1</w>": 7038,
      "rm</w>": 7039,
      "samp": 7040,
      "spar": 7041,
      "sam</w>": 7042,
      "sville</w>": 7043,
      "ues</w>": 7044,
      "vak": 7045,
      "wboys</w>": 7046,
      "xi</w>": 7047,
      "ét": 7048,
      "ina": 7049,
      "indoor</w>": 7050,
      "encia</w>": 7051,
      "anim": 7052,
      "ont</w>": 7053,
      "riors</w>": 7054,
      "isation</w>": 7055,
      "istan": 7056,
      "Retur": 7057,
      "Post</w>": 7058,
      "Point</w>": 7059,
      "rema": 7060,
      "reti": 7061,
      "religion</w>": 7062,
      "rol": 7063,
      "roger</w>": 7064,
      "199</w>": 7065,
      "1929</w>": 7066,
      "icro": 7067,
      "una</w>": 7068,
      "tha</w>": 7069,
      "thly</w>": 7070,
      "demy</w>": 7071,
      "Children</w>": 7072,
      "Locomotive</w>": 7073,
      "vikings</w>": 7074,
      "vijay</w>": 7075,
      "lues</w>": 7076,
      "Divis": 7077,
      "paul": 7078,
      "oto</w>": 7079,
      "ided</w>": 7080,
      "Direction</w>": 7081,
      "fort</w>": 7082,
      "aug": 7083,
      "aug</w>": 7084,
      "authority</w>": 7085,
      "andro</w>": 7086,
      "aged</w>": 7087,
      "anucks</w>": 7088,
      "Arkansas</w>": 7089,
      "leafs</w>": 7090,
      "May": 7091,
      "Mass</w>": 7092,
      "Running</w>": 7093,
      "suzu": 7094,
      "perience</w>": 7095,
      "clau": 7096,
      "Ford</w>": 7097,
      "Registration</w>": 7098,
      "Freq</w>": 7099,
      "mile</w>": 7100,
      "tiago</w>": 7101,
      "Rocket</w>": 7102,
      "winter</w>": 7103,
      "bot</w>": 7104,
      "Monar": 7105,
      "issue</w>": 7106,
      "aker</w>": 7107,
      "154</w>": 7108,
      "atholic</w>": 7109,
      "ema</w>": 7110,
      "iction</w>": 7111,
      "anga</w>": 7112,
      "anger</w>": 7113,
      "Transcription</w>": 7114,
      "singh</w>": 7115,
      "urray</w>": 7116,
      "ika</w>": 7117,
      "Commentator</w>": 7118,
      "finland</w>": 7119,
      "charlotte</w>": 7120,
      "rint</w>": 7121,
      "creek</w>": 7122,
      "125": 7123,
      "Davis</w>": 7124,
      "Livery</w>": 7125,
      "renault</w>": 7126,
      "Sail</w>": 7127,
      "frank": 7128,
      "base</w>": 7129,
      "806": 7130,
      "Philadelphia</w>": 7131,
      "zzle</w>": 7132,
      "walker</w>": 7133,
      "Accredi": 7134,
      "choke</w>": 7135,
      "America</w>": 7136,
      "Standing</w>": 7137,
      "portland</w>": 7138,
      "Brian</w>": 7139,
      "Senator</w>": 7140,
      "sands</w>": 7141,
      "Active</w>": 7142,
      "11th</w>": 7143,
      "product</w>": 7144,
      "Passenger</w>": 7145,
      "queen</w>": 7146,
      "Bullet</w>": 7147,
      "Centre</w>": 7148,
      "MLB</w>": 7149,
      "dores</w>": 7150,
      "Africa</w>": 7151,
      "Governor</w>": 7152,
      "Estimate</w>": 7153,
      "contin": 7154,
      "Industrial</w>": 7155,
      "49ers</w>": 7156,
      "Atlant": 7157,
      "storm</w>": 7158,
      "Indiana</w>": 7159,
      "director</w>": 7160,
      "France</w>": 7161,
      "profit</w>": 7162,
      "fernando</w>": 7163,
      "Johnson</w>": 7164,
      "Employees</w>": 7165,
      "Assembled</w>": 7166,
      "Dominant</w>": 7167,
      "Prefecture</w>": 7168,
      "Virt": 7169,
      "royals</w>": 7170,
      "Neutral</w>": 7171,
      "tainment</w>": 7172,
      "awarded</w>": 7173,
      "packers</w>": 7174,
      "Originala": 7175,
      "Figures</w>": 7176,
      "Accreditation</w>": 7177,
      "21": 7178,
      "222</w>": 7179,
      "231</w>": 7180,
      "272</w>": 7181,
      "256</w>": 7182,
      "308</w>": 7183,
      "46": 7184,
      "750</w>": 7185,
      "AB": 7186,
      "Adam</w>": 7187,
      "Ber": 7188,
      "CH": 7189,
      "Cultural</w>": 7190,
      "Dal": 7191,
      "Dam": 7192,
      "Dun": 7193,
      "FS": 7194,
      "Ham": 7195,
      "Hall</w>": 7196,
      "Kit": 7197,
      "Lit": 7198,
      "MP": 7199,
      "Mit": 7200,
      "Py": 7201,
      "RE": 7202,
      "Sat</w>": 7203,
      "Scre": 7204,
      "Sacks</w>": 7205,
      "Ton": 7206,
      "Tests</w>": 7207,
      "UE": 7208,
      "Van": 7209,
      "WS": 7210,
      "ab</w>": 7211,
      "aaa</w>": 7212,
      "bar</w>": 7213,
      "barn": 7214,
      "big</w>": 7215,
      "curr": 7216,
      "cze": 7217,
      "d2</w>": 7218,
      "d1</w>": 7219,
      "dation</w>": 7220,
      "due</w>": 7221,
      "dom": 7222,
      "dents</w>": 7223,
      "dart</w>": 7224,
      "eiro</w>": 7225,
      "flor": 7226,
      "gg</w>": 7227,
      "glo": 7228,
      "hat": 7229,
      "hon</w>": 7230,
      "joh": 7231,
      "kaz": 7232,
      "mb</w>": 7233,
      "mir</w>": 7234,
      "mean</w>": 7235,
      "ng": 7236,
      "nov": 7237,
      "nas": 7238,
      "nam</w>": 7239,
      "nelson</w>": 7240,
      "sg</w>": 7241,
      "sir</w>": 7242,
      "sus": 7243,
      "td</w>": 7244,
      "uz": 7245,
      "ux</w>": 7246,
      "vy": 7247,
      "v12</w>": 7248,
      "wr</w>": 7249,
      "wc</w>": 7250,
      "wer": 7251,
      "wells</w>": 7252,
      "yala": 7253,
      "ía</w>": 7254,
      "tag": 7255,
      "tas</w>": 7256,
      "tario</w>": 7257,
      "indu": 7258,
      "eans</w>": 7259,
      "orted</w>": 7260,
      "itor</w>": 7261,
      "itive</w>": 7262,
      "eri</w>": 7263,
      "onym</w>": 7264,
      "20th</w>": 7265,
      "isition</w>": 7266,
      "islanders</w>": 7267,
      "alca</w>": 7268,
      "alph</w>": 7269,
      "rement</w>": 7270,
      "ilures</w>": 7271,
      "chine</w>": 7272,
      "challenge</w>": 7273,
      "unc": 7274,
      "ung</w>": 7275,
      "Windows</w>": 7276,
      "tter": 7277,
      "Counties</w>": 7278,
      "Cho": 7279,
      "eta</w>": 7280,
      "vio</w>": 7281,
      "shu": 7282,
      "maker</w>": 7283,
      "Prohibition</w>": 7284,
      "rum</w>": 7285,
      "semif": 7286,
      "ove</w>": 7287,
      "gar</w>": 7288,
      "Bran": 7289,
      "gul</w>": 7290,
      "guese</w>": 7291,
      "ador</w>": 7292,
      "terry</w>": 7293,
      "fore</w>": 7294,
      "edo</w>": 7295,
      "edward</w>": 7296,
      "maryland</w>": 7297,
      "ause</w>": 7298,
      "Throws</w>": 7299,
      "186</w>": 7300,
      "tos</w>": 7301,
      "icker</w>": 7302,
      "entries</w>": 7303,
      "Shar": 7304,
      "Shot</w>": 7305,
      "ensions</w>": 7306,
      "oha</w>": 7307,
      "Uni": 7308,
      "Undec": 7309,
      "Appearance</w>": 7310,
      "abel</w>": 7311,
      "about</w>": 7312,
      "15th</w>": 7313,
      "eller</w>": 7314,
      "greece</w>": 7315,
      "Worst</w>": 7316,
      "stephen</w>": 7317,
      "Orleans</w>": 7318,
      "temp": 7319,
      "partners</w>": 7320,
      "Association</w>": 7321,
      "Foundation</w>": 7322,
      "291</w>": 7323,
      "295</w>": 7324,
      "mclar": 7325,
      "judge</w>": 7326,
      "jose</w>": 7327,
      "grass</w>": 7328,
      "soviet</w>": 7329,
      "ibb": 7330,
      "ibining</w>": 7331,
      "panthers</w>": 7332,
      "braska</w>": 7333,
      "wee": 7334,
      "sche</w>": 7335,
      "morris</w>": 7336,
      "warriors</w>": 7337,
      "Presenter</w>": 7338,
      "Became</w>": 7339,
      "dinary</w>": 7340,
      "Houston</w>": 7341,
      "oklyn</w>": 7342,
      "entertainment</w>": 7343,
      "little</w>": 7344,
      "started</w>": 7345,
      "Tues</w>": 7346,
      "Portra": 7347,
      "Represented</w>": 7348,
      "Moto": 7349,
      "loyd</w>": 7350,
      "atlantic</w>": 7351,
      "golf</w>": 7352,
      "Patrick</w>": 7353,
      "surface</w>": 7354,
      "newcastle</w>": 7355,
      "Richmond</w>": 7356,
      "performance</w>": 7357,
      "midd": 7358,
      "Semifinals</w>": 7359,
      "ariant</w>": 7360,
      "Missouri</w>": 7361,
      "support</w>": 7362,
      "pierre</w>": 7363,
      "tourist</w>": 7364,
      "Termination</w>": 7365,
      "Binibining</w>": 7366,
      "Civil</w>": 7367,
      "josé</w>": 7368,
      "madrid</w>": 7369,
      "magnitude</w>": 7370,
      "mathrm</w>": 7371,
      "Acquisition</w>": 7372,
      "iciency</w>": 7373,
      "chelsea</w>": 7374,
      "Rowers</w>": 7375,
      "Educational</w>": 7376,
      "Henry</w>": 7377,
      "Spokesperson</w>": 7378,
      "Application</w>": 7379,
      "Occupation</w>": 7380,
      "PSIP</w>": 7381,
      "suzuki</w>": 7382,
      "Originalairdate</w>": 7383,
      "mclaren</w>": 7384,
      "167</w>": 7385,
      "179</w>": 7386,
      "268</w>": 7387,
      "273</w>": 7388,
      "400": 7389,
      "850</w>": 7390,
      "AL": 7391,
      "AN</w>": 7392,
      "Alab": 7393,
      "BR</w>": 7394,
      "DS</w>": 7395,
      "Eag": 7396,
      "Fin</w>": 7397,
      "Fra": 7398,
      "Fiel": 7399,
      "FIS</w>": 7400,
      "Gor": 7401,
      "GRT</w>": 7402,
      "Hard": 7403,
      "Jul": 7404,
      "Jury</w>": 7405,
      "Mun": 7406,
      "NC</w>": 7407,
      "PC</w>": 7408,
      "PI</w>": 7409,
      "Plan": 7410,
      "RFC</w>": 7411,
      "TDP</w>": 7412,
      "Tournaments</w>": 7413,
      "Utah</w>": 7414,
      "Wk</w>": 7415,
      "Wea": 7416,
      "Wed</w>": 7417,
      "Wade</w>": 7418,
      "ae": 7419,
      "ake</w>": 7420,
      "bat": 7421,
      "bil": 7422,
      "cb": 7423,
      "cook</w>": 7424,
      "dd": 7425,
      "ett": 7426,
      "eers</w>": 7427,
      "feld</w>": 7428,
      "fsted</w>": 7429,
      "gons</w>": 7430,
      "hour</w>": 7431,
      "howard</w>": 7432,
      "ia": 7433,
      "ked</w>": 7434,
      "kenne": 7435,
      "lbs</w>": 7436,
      "lét": 7437,
      "ni</w>": 7438,
      "oks</w>": 7439,
      "pies</w>": 7440,
      "rr</w>": 7441,
      "sv": 7442,
      "sz": 7443,
      "sold</w>": 7444,
      "seat</w>": 7445,
      "tul": 7446,
      "tons</w>": 7447,
      "tour</w>": 7448,
      "von</w>": 7449,
      "wo": 7450,
      "wit": 7451,
      "wel": 7452,
      "withdrawn</w>": 7453,
      "yrs</w>": 7454,
      "zer</w>": 7455,
      "tary</w>": 7456,
      "invol": 7457,
      "atp</w>": 7458,
      "atus</w>": 7459,
      "atory</w>": 7460,
      "ease</w>": 7461,
      "enson</w>": 7462,
      "entry</w>": 7463,
      "energy</w>": 7464,
      "ori</w>": 7465,
      "orab": 7466,
      "orials</w>": 7467,
      "ank": 7468,
      "Polish</w>": 7469,
      "Polit": 7470,
      "republic</w>": 7471,
      "reporters</w>": 7472,
      "rose</w>": 7473,
      "rolet</w>": 7474,
      "197</w>": 7475,
      "1938</w>": 7476,
      "1936</w>": 7477,
      "1947</w>": 7478,
      "icana</w>": 7479,
      "icut</w>": 7480,
      "lest</w>": 7481,
      "lection</w>": 7482,
      "cticut</w>": 7483,
      "chan": 7484,
      "old": 7485,
      "style</w>": 7486,
      "stival</w>": 7487,
      "Players</w>": 7488,
      "Love</w>": 7489,
      "under</w>": 7490,
      "univers": 7491,
      "iger</w>": 7492,
      "igned</w>": 7493,
      "rad</w>": 7494,
      "rash": 7495,
      "elim": 7496,
      "elists</w>": 7497,
      "ssive</w>": 7498,
      "designation</w>": 7499,
      "ourg</w>": 7500,
      "verted</w>": 7501,
      "West": 7502,
      "Int": 7503,
      "aca": 7504,
      "vić</w>": 7505,
      "stade</w>": 7506,
      "mad</w>": 7507,
      "madison</w>": 7508,
      "Prolonged</w>": 7509,
      "Protein</w>": 7510,
      "sec</w>": 7511,
      "pat</w>": 7512,
      "pass</w>": 7513,
      "Cold</w>": 7514,
      "nets</w>": 7515,
      "1000": 7516,
      "duke</w>": 7517,
      "ider</w>": 7518,
      "Law": 7519,
      "Lake</w>": 7520,
      "Classic</w>": 7521,
      "pulsion</w>": 7522,
      "rowns</w>": 7523,
      "territory</w>": 7524,
      "eded</w>": 7525,
      "marathon</w>": 7526,
      "andra</w>": 7527,
      "egrated</w>": 7528,
      "Cash</w>": 7529,
      "phill": 7530,
      "phins</w>": 7531,
      "sur</w>": 7532,
      "super": 7533,
      "festival</w>": 7534,
      "blo</w>": 7535,
      "Movie</w>": 7536,
      "Quad</w>": 7537,
      "mped</w>": 7538,
      "Albert</w>": 7539,
      "Appro": 7540,
      "Monday</w>": 7541,
      "Buffalo</w>": 7542,
      "Sum": 7543,
      "ather": 7544,
      "Carl</w>": 7545,
      "anta</w>": 7546,
      "previous</w>": 7547,
      "strong</w>": 7548,
      "And": 7549,
      "Anton": 7550,
      "vils</w>": 7551,
      "ishes</w>": 7552,
      "Feature</w>": 7553,
      "Soap</w>": 7554,
      "Soccer</w>": 7555,
      "Founding</w>": 7556,
      "296</w>": 7557,
      "298</w>": 7558,
      "evrolet</w>": 7559,
      "tallest</w>": 7560,
      "Committ": 7561,
      "izon": 7562,
      "lative</w>": 7563,
      "Vert": 7564,
      "soft</w>": 7565,
      "iba</w>": 7566,
      "Televote</w>": 7567,
      "16th</w>": 7568,
      "17th</w>": 7569,
      "organ": 7570,
      "alan</w>": 7571,
      "hart</w>": 7572,
      "freestyle</w>": 7573,
      "Reaction</w>": 7574,
      "presenter</w>": 7575,
      "knows</w>": 7576,
      "Edward</w>": 7577,
      "Phon": 7578,
      "100s</w>": 7579,
      "denmark</w>": 7580,
      "Miles</w>": 7581,
      "Milwaukee</w>": 7582,
      "Military</w>": 7583,
      "Grade</w>": 7584,
      "wildcats</w>": 7585,
      "Sunk</w>": 7586,
      "golden</w>": 7587,
      "Doctor</w>": 7588,
      "cycle</w>": 7589,
      "vention</w>": 7590,
      "mississippi</w>": 7591,
      "Muzzle</w>": 7592,
      "Industry</w>": 7593,
      "ethnic</w>": 7594,
      "double</w>": 7595,
      "Preliminaries</w>": 7596,
      "completed</w>": 7597,
      "Economy</w>": 7598,
      "LMS</w>": 7599,
      "Technology</w>": 7600,
      "ullivan</w>": 7601,
      "requested</w>": 7602,
      "Recorded</w>": 7603,
      "Pictorials</w>": 7604,
      "velopment</w>": 7605,
      "Tenure</w>": 7606,
      "activities</w>": 7607,
      "Space": 7608,
      "Currency</w>": 7609,
      "vakia</w>": 7610,
      "UEFA</w>": 7611,
      "Alabama</w>": 7612,
      "lético</w>": 7613,
      "Political</w>": 7614,
      "Antonio</w>": 7615,
      "Committee</w>": 7616,
      "164</w>": 7617,
      "234</w>": 7618,
      "244</w>": 7619,
      "3X": 7620,
      "315</w>": 7621,
      "321</w>": 7622,
      "340</w>": 7623,
      "305</w>": 7624,
      "301</w>": 7625,
      "380</w>": 7626,
      "45": 7627,
      "451</w>": 7628,
      "67": 7629,
      "650</w>": 7630,
      "AT</w>": 7631,
      "AU</w>": 7632,
      "Ara": 7633,
      "Ariz": 7634,
      "By": 7635,
      "Bats</w>": 7636,
      "BOL</w>": 7637,
      "CER": 7638,
      "Don</w>": 7639,
      "Dick</w>": 7640,
      "Dut": 7641,
      "ED</w>": 7642,
      "Fu": 7643,
      "Fal": 7644,
      "Fed": 7645,
      "GN": 7646,
      "Goo": 7647,
      "Ha": 7648,
      "HK</w>": 7649,
      "Hin": 7650,
      "IC": 7651,
      "IM": 7652,
      "Ir": 7653,
      "Ire": 7654,
      "MA</w>": 7655,
      "Mal": 7656,
      "Musical</w>": 7657,
      "NO": 7658,
      "NO</w>": 7659,
      "Nic": 7660,
      "Ot": 7661,
      "PF</w>": 7662,
      "RT": 7663,
      "Ram": 7664,
      "Tre": 7665,
      "Tom": 7666,
      "Test</w>": 7667,
      "Taylor</w>": 7668,
      "Upper</w>": 7669,
      "VIII</w>": 7670,
      "Variant</w>": 7671,
      "You</w>": 7672,
      "Zodi": 7673,
      "ai": 7674,
      "az</w>": 7675,
      "band": 7676,
      "bell": 7677,
      "bang": 7678,
      "bution</w>": 7679,
      "cit": 7680,
      "cru": 7681,
      "cings</w>": 7682,
      "circu": 7683,
      "df": 7684,
      "df</w>": 7685,
      "dig": 7686,
      "dary</w>": 7687,
      "dra</w>": 7688,
      "dennis</w>": 7689,
      "ei</w>": 7690,
      "fan": 7691,
      "fab": 7692,
      "fuel</w>": 7693,
      "factor</w>": 7694,
      "gal": 7695,
      "gory</w>": 7696,
      "gian</w>": 7697,
      "hot": 7698,
      "kon": 7699,
      "kal": 7700,
      "kts</w>": 7701,
      "kim": 7702,
      "kong</w>": 7703,
      "key</w>": 7704,
      "kaw": 7705,
      "kenny</w>": 7706,
      "lit</w>": 7707,
      "ldw": 7708,
      "mf</w>": 7709,
      "mble</w>": 7710,
      "mson</w>": 7711,
      "mph": 7712,
      "mstan": 7713,
      "nes</w>": 7714,
      "nav": 7715,
      "nash": 7716,
      "pent": 7717,
      "penn": 7718,
      "stable</w>": 7719,
      "sea": 7720,
      "ses</w>": 7721,
      "som": 7722,
      "sfield</w>": 7723,
      "t7</w>": 7724,
      "ular</w>": 7725,
      "utah</w>": 7726,
      "wi</w>": 7727,
      "wad": 7728,
      "wed": 7729,
      "weg": 7730,
      "wayne</w>": 7731,
      "yr</w>": 7732,
      "yst</w>": 7733,
      "yant</w>": 7734,
      "tail</w>": 7735,
      "enko</w>": 7736,
      "oreg": 7737,
      "only</w>": 7738,
      "aro</w>": 7739,
      "lable</w>": 7740,
      "laus</w>": 7741,
      "Reverse</w>": 7742,
      "COSP": 7743,
      "rel": 7744,
      "rex": 7745,
      "robb": 7746,
      "rosa</w>": 7747,
      "1925</w>": 7748,
      "1932</w>": 7749,
      "1944</w>": 7750,
      "1937</w>": 7751,
      "Places</w>": 7752,
      "lett</w>": 7753,
      "chez</w>": 7754,
      "ram</w>": 7755,
      "rael</w>": 7756,
      "thi": 7757,
      "ssi</w>": 7758,
      "tru": 7759,
      "tto</w>": 7760,
      "tters</w>": 7761,
      "Stars</w>": 7762,
      "Locale</w>": 7763,
      "eto</w>": 7764,
      "viet": 7765,
      "she": 7766,
      "show</w>": 7767,
      "mah": 7768,
      "major": 7769,
      "coed</w>": 7770,
      "Dec</w>": 7771,
      "Propulsion</w>": 7772,
      "see</w>": 7773,
      "sequ": 7774,
      "secs</w>": 7775,
      "ighting</w>": 7776,
      "Conv</w>": 7777,
      "Coll": 7778,
      "Colour</w>": 7779,
      "dule</w>": 7780,
      "har</w>": 7781,
      "haus": 7782,
      "Secon": 7783,
      "Secre": 7784,
      "ranger</w>": 7785,
      "marco</w>": 7786,
      "augh": 7787,
      "andre</w>": 7788,
      "000": 7789,
      "000s</w>": 7790,
      "pha</w>": 7791,
      "ensland</w>": 7792,
      "cale</w>": 7793,
      "Spr": 7794,
      "perty</w>": 7795,
      "Mex": 7796,
      "Members</w>": 7797,
      "Audition</w>": 7798,
      "Quarter</w>": 7799,
      "Pref": 7800,
      "esa</w>": 7801,
      "Prime</w>": 7802,
      "liverpool</w>": 7803,
      "Parent</w>": 7804,
      "abbre": 7805,
      "abwe</w>": 7806,
      "alls</w>": 7807,
      "Circumstan": 7808,
      "exp": 7809,
      "expe": 7810,
      "norman</w>": 7811,
      "emper": 7812,
      "opened</w>": 7813,
      "Execu": 7814,
      "286</w>": 7815,
      "rican</w>": 7816,
      "offic": 7817,
      "ava</w>": 7818,
      "Software</w>": 7819,
      "talbot</w>": 7820,
      "ized</w>": 7821,
      "attendance</w>": 7822,
      "notre</w>": 7823,
      "after</w>": 7824,
      "Greek</w>": 7825,
      "torque</w>": 7826,
      "freight</w>": 7827,
      "Moves</w>": 7828,
      "onnes</w>": 7829,
      "Singapore</w>": 7830,
      "bbc</w>": 7831,
      "Tourism</w>": 7832,
      "dancer</w>": 7833,
      "Horizon": 7834,
      "ynamo</w>": 7835,
      "americana</w>": 7836,
      "entered</w>": 7837,
      "births</w>": 7838,
      "building</w>": 7839,
      "larry</w>": 7840,
      "quarter": 7841,
      "Cores</w>": 7842,
      "Black": 7843,
      "Actual</w>": 7844,
      "imbabwe</w>": 7845,
      "Scottish</w>": 7846,
      "After</w>": 7847,
      "Malaysia</w>": 7848,
      "Communist</w>": 7849,
      "Bills</w>": 7850,
      "Ballarat</w>": 7851,
      "Equip": 7852,
      "MEBOL</w>": 7853,
      "Publication</w>": 7854,
      "eant</w>": 7855,
      "jamie</w>": 7856,
      "jacques</w>": 7857,
      "tommy</w>": 7858,
      "athletics</w>": 7859,
      "receiver</w>": 7860,
      "Goals": 7861,
      "credit</w>": 7862,
      "NAME</w>": 7863,
      "jonathan</w>": 7864,
      "CONMEBOL</w>": 7865,
      "Rookie</w>": 7866,
      "leonard</w>": 7867,
      "leyball</w>": 7868,
      "liberal</w>": 7869,
      "Libertadores</w>": 7870,
      "Crime</w>": 7871,
      "Facility</w>": 7872,
      "Voted</w>": 7873,
      "manuel</w>": 7874,
      "NER</w>": 7875,
      "thousands</w>": 7876,
      "Francisco</w>": 7877,
      "Sideline</w>": 7878,
      "Eastern</w>": 7879,
      "Transmitter</w>": 7880,
      "CLIS</w>": 7881,
      "retirement</w>": 7882,
      "Monarch</w>": 7883,
      "125cc</w>": 7884,
      "yalam</w>": 7885,
      "Choice</w>": 7886,
      "Universe</w>": 7887,
      "Undecided</w>": 7888,
      "orabbin</w>": 7889,
      "Arizona</w>": 7890,
      "CERCLIS</w>": 7891,
      "Ireland</w>": 7892,
      "Zodiac</w>": 7893,
      "circuit</w>": 7894,
      "ldwide</w>": 7895,
      "COSPAR</w>": 7896,
      "abbreviation</w>": 7897,
      "Circumstances</w>": 7898,
      "169</w>": 7899,
      "176</w>": 7900,
      "271</w>": 7901,
      "233</w>": 7902,
      "236</w>": 7903,
      "375</w>": 7904,
      "354</w>": 7905,
      "362</w>": 7906,
      "5000</w>": 7907,
      "76": 7908,
      "95": 7909,
      "Ash": 7910,
      "Aca": 7911,
      "Ben</w>": 7912,
      "Ceased</w>": 7913,
      "Del": 7914,
      "Dual</w>": 7915,
      "FL": 7916,
      "Fer": 7917,
      "Fem": 7918,
      "Fum": 7919,
      "Gl": 7920,
      "Hoo": 7921,
      "Hay": 7922,
      "Hind": 7923,
      "Jac": 7924,
      "Lor": 7925,
      "MS": 7926,
      "Murray</w>": 7927,
      "Ni": 7928,
      "Ol": 7929,
      "Ofsted</w>": 7930,
      "Port</w>": 7931,
      "Rang": 7932,
      "Rally</w>": 7933,
      "Sci": 7934,
      "Sports</w>": 7935,
      "Sche": 7936,
      "TO": 7937,
      "Tickets</w>": 7938,
      "Thai</w>": 7939,
      "U15</w>": 7940,
      "Wy": 7941,
      "Will": 7942,
      "Yellow</w>": 7943,
      "afc</w>": 7944,
      "aaron</w>": 7945,
      "bah": 7946,
      "began</w>": 7947,
      "ces": 7948,
      "call": 7949,
      "dame</w>": 7950,
      "dor</w>": 7951,
      "dinal</w>": 7952,
      "dall": 7953,
      "em</w>": 7954,
      "eway</w>": 7955,
      "fl": 7956,
      "fon": 7957,
      "gt</w>": 7958,
      "gio</w>": 7959,
      "hd</w>": 7960,
      "hill": 7961,
      "irit</w>": 7962,
      "jur": 7963,
      "ken": 7964,
      "kelly</w>": 7965,
      "mick": 7966,
      "mich": 7967,
      "mstrong</w>": 7968,
      "nm</w>": 7969,
      "nig": 7970,
      "nment</w>": 7971,
      "numbers</w>": 7972,
      "po</w>": 7973,
      "pal</w>": 7974,
      "pet": 7975,
      "pha": 7976,
      "pict": 7977,
      "pical</w>": 7978,
      "pren": 7979,
      "rams</w>": 7980,
      "sou": 7981,
      "sel": 7982,
      "sley</w>": 7983,
      "sburg</w>": 7984,
      "tf": 7985,
      "tu</w>": 7986,
      "tch</w>": 7987,
      "use": 7988,
      "vi</w>": 7989,
      "ving</w>": 7990,
      "wick</w>": 7991,
      "writ": 7992,
      "war</w>": 7993,
      "wich</w>": 7994,
      "ypt</w>": 7995,
      "zen</w>": 7996,
      "zimbabwe</w>": 7997,
      "inth": 7998,
      "inum</w>": 7999,
      "ear</w>": 8000,
      "ente</w>": 8001,
      "enham</w>": 8002,
      "enberg</w>": 8003,
      "anes</w>": 8004,
      "anthony</w>": 8005,
      "onent</w>": 8006,
      "arkansas</w>": 8007,
      "lakers</w>": 8008,
      "rik</w>": 8009,
      "rison</w>": 8010,
      "ribu": 8011,
      "Reference</w>": 8012,
      "aldi</w>": 8013,
      "reser": 8014,
      "1910</w>": 8015,
      "1900</w>": 8016,
      "1914</w>": 8017,
      "1919</w>": 8018,
      "1905</w>": 8019,
      "1907</w>": 8020,
      "ille</w>": 8021,
      "ilian</w>": 8022,
      "iley</w>": 8023,
      "icans</w>": 8024,
      "Placings</w>": 8025,
      "lew": 8026,
      "left</w>": 8027,
      "letter</w>": 8028,
      "leeds</w>": 8029,
      "chell</w>": 8030,
      "chie": 8031,
      "olation</w>": 8032,
      "uled</w>": 8033,
      "mbar</w>": 8034,
      "ppers</w>": 8035,
      "Loan</w>": 8036,
      "uns</w>": 8037,
      "irm</w>": 8038,
      "rah": 8039,
      "thompson</w>": 8040,
      "ionall": 8041,
      "Attribu": 8042,
      "verty</w>": 8043,
      "India</w>": 8044,
      "vik</w>": 8045,
      "lock": 8046,
      "mas</w>": 8047,
      "map</w>": 8048,
      "Dep": 8049,
      "Details</w>": 8050,
      "pos</w>": 8051,
      "sep</w>": 8052,
      "semi</w>": 8053,
      "gaz": 8054,
      "gala": 8055,
      "Conf</w>": 8056,
      "Congress</w>": 8057,
      "gues</w>": 8058,
      "haas</w>": 8059,
      "idad</w>": 8060,
      "Seed</w>": 8061,
      "porter</w>": 8062,
      "rowhead</w>": 8063,
      "eddie</w>": 8064,
      "eduled</w>": 8065,
      "marl": 8066,
      "184</w>": 8067,
      "Casualties</w>": 8068,
      "users</w>": 8069,
      "fect</w>": 8070,
      "perth</w>": 8071,
      "Form</w>": 8072,
      "Canton</w>": 8073,
      "Material</w>": 8074,
      "mans</w>": 8075,
      "mania</w>": 8076,
      "Output</w>": 8077,
      "bruce</w>": 8078,
      "boy": 8079,
      "ability</w>": 8080,
      "gover": 8081,
      "annon</w>": 8082,
      "itute</w>": 8083,
      "157</w>": 8084,
      "159</w>": 8085,
      "ops</w>": 8086,
      "Started</w>": 8087,
      "Starting</w>": 8088,
      "angle</w>": 8089,
      "prolonged</w>": 8090,
      "Letter</w>": 8091,
      "crystal</w>": 8092,
      "forms</w>": 8093,
      "Gene</w>": 8094,
      "Genes</w>": 8095,
      "burb</w>": 8096,
      "Available</w>": 8097,
      "medi": 8098,
      "Box</w>": 8099,
      "iang</w>": 8100,
      "Rush": 8101,
      "available</w>": 8102,
      "Featur": 8103,
      "Nordic</w>": 8104,
      "stanley</w>": 8105,
      "Score": 8106,
      "Commander</w>": 8107,
      "lines</w>": 8108,
      "just</w>": 8109,
      "council</w>": 8110,
      "Ski</w>": 8111,
      "panelists</w>": 8112,
      "atti</w>": 8113,
      "down": 8114,
      "cla</w>": 8115,
      "Guard</w>": 8116,
      "players</w>": 8117,
      "Address</w>": 8118,
      "knicks</w>": 8119,
      "Valley</w>": 8120,
      "Judges</w>": 8121,
      "whit": 8122,
      "compet": 8123,
      "Presentation</w>": 8124,
      "Phil</w>": 8125,
      "coul": 8126,
      "hunter</w>": 8127,
      "celt": 8128,
      "qualifier</w>": 8129,
      "Portu": 8130,
      "santiago</w>": 8131,
      "Elimination</w>": 8132,
      "olympi": 8133,
      "bulls</w>": 8134,
      "curtis</w>": 8135,
      "dones": 8136,
      "Semifinal</w>": 8137,
      "tyr": 8138,
      "nik</w>": 8139,
      "dentials</w>": 8140,
      "northern</w>": 8141,
      "performer</w>": 8142,
      "kraine</w>": 8143,
      "label</w>": 8144,
      "Malayalam</w>": 8145,
      "dependence</w>": 8146,
      "penn</w>": 8147,
      "palmer</w>": 8148,
      "dnf</w>": 8149,
      "Recipients</w>": 8150,
      "canadian</w>": 8151,
      "falcons</w>": 8152,
      "Archite": 8153,
      "supporting</w>": 8154,
      "Explor": 8155,
      "motorsports</w>": 8156,
      "Economic</w>": 8157,
      "Civil": 8158,
      "meters</w>": 8159,
      "Donald</w>": 8160,
      "malaysia</w>": 8161,
      "Cleveland</w>": 8162,
      "Delivery</w>": 8163,
      "Effic</w>": 8164,
      "pedro</w>": 8165,
      "candidates</w>": 8166,
      "ková</w>": 8167,
      "ssex</w>": 8168,
      "website</w>": 8169,
      "Oliver</w>": 8170,
      "ketball</w>": 8171,
      "mixed</w>": 8172,
      "Sudamericana</w>": 8173,
      "schumacher</w>": 8174,
      "Arabic</w>": 8175,
      "animous</w>": 8176,
      "Portrayed</w>": 8177,
      "Gordon</w>": 8178,
      "Spacecraft</w>": 8179,
      "nashville</w>": 8180,
      "wegian</w>": 8181,
      "oregon</w>": 8182,
      "Prefix</w>": 8183,
      "Horizontal</w>": 8184,
      "Females</w>": 8185,
      "ionalliga</w>": 8186,
      "Attribute</w>": 8187,
      "1d": 8188,
      "171</w>": 8189,
      "168</w>": 8190,
      "177</w>": 8191,
      "218</w>": 8192,
      "224</w>": 8193,
      "226</w>": 8194,
      "228</w>": 8195,
      "269</w>": 8196,
      "242</w>": 8197,
      "243</w>": 8198,
      "257</w>": 8199,
      "319</w>": 8200,
      "327</w>": 8201,
      "342</w>": 8202,
      "303</w>": 8203,
      "350cc</w>": 8204,
      "410</w>": 8205,
      "4000</w>": 8206,
      "491</w>": 8207,
      "625</w>": 8208,
      "77": 8209,
      "Ala": 8210,
      "BC</w>": 8211,
      "BB</w>": 8212,
      "Bus</w>": 8213,
      "Bay": 8214,
      "Bang": 8215,
      "CA</w>": 8216,
      "Coo": 8217,
      "Cmp</w>": 8218,
      "CPU</w>": 8219,
      "DX": 8220,
      "De</w>": 8221,
      "Dru": 8222,
      "FR</w>": 8223,
      "Fil": 8224,
      "Gary</w>": 8225,
      "GPU</w>": 8226,
      "Ima": 8227,
      "Joh": 8228,
      "KA</w>": 8229,
      "Kan": 8230,
      "Kle": 8231,
      "Kno": 8232,
      "Lun": 8233,
      "Manu": 8234,
      "Mus": 8235,
      "On": 8236,
      "Pak": 8237,
      "Pho": 8238,
      "Pages</w>": 8239,
      "PGA</w>": 8240,
      "Riv": 8241,
      "Spa": 8242,
      "Sample</w>": 8243,
      "Satellite</w>": 8244,
      "Seans</w>": 8245,
      "TC</w>": 8246,
      "Ton</w>": 8247,
      "Une": 8248,
      "Way</w>": 8249,
      "ae</w>": 8250,
      "ax</w>": 8251,
      "action</w>": 8252,
      "bt": 8253,
      "cas</w>": 8254,
      "canucks</w>": 8255,
      "dv": 8256,
      "dr</w>": 8257,
      "dent</w>": 8258,
      "danny</w>": 8259,
      "ech": 8260,
      "esta": 8261,
      "fro": 8262,
      "gn</w>": 8263,
      "gr</w>": 8264,
      "gam": 8265,
      "good</w>": 8266,
      "glas</w>": 8267,
      "growth</w>": 8268,
      "hamp": 8269,
      "hood</w>": 8270,
      "hampton</w>": 8271,
      "ih": 8272,
      "jenn": 8273,
      "jazz</w>": 8274,
      "kk": 8275,
      "kh</w>": 8276,
      "kota</w>": 8277,
      "kov</w>": 8278,
      "mg</w>": 8279,
      "mon</w>": 8280,
      "mers</w>": 8281,
      "nar": 8282,
      "notes</w>": 8283,
      "omb": 8284,
      "ode": 8285,
      "pg</w>": 8286,
      "pi</w>": 8287,
      "pes</w>": 8288,
      "pga</w>": 8289,
      "rb</w>": 8290,
      "sp</w>": 8291,
      "sound</w>": 8292,
      "sch</w>": 8293,
      "sus</w>": 8294,
      "spor": 8295,
      "sell</w>": 8296,
      "tor</w>": 8297,
      "tun": 8298,
      "tonnes</w>": 8299,
      "ucla</w>": 8300,
      "va": 8301,
      "vy</w>": 8302,
      "vance</w>": 8303,
      "vine</w>": 8304,
      "vas": 8305,
      "will</w>": 8306,
      "wta</w>": 8307,
      "ways</w>": 8308,
      "wisconsin</w>": 8309,
      "xemb": 8310,
      "yo</w>": 8311,
      "yi</w>": 8312,
      "yang</w>": 8313,
      "zone</w>": 8314,
      "tax</w>": 8315,
      "inches</w>": 8316,
      "atta": 8317,
      "atlético</w>": 8318,
      "ences</w>": 8319,
      "eneu": 8320,
      "ori": 8321,
      "ora</w>": 8322,
      "oran</w>": 8323,
      "ania</w>": 8324,
      "erg</w>": 8325,
      "eria</w>": 8326,
      "oun</w>": 8327,
      "rin</w>": 8328,
      "issu": 8329,
      "Post": 8330,
      "alty</w>": 8331,
      "alberto</w>": 8332,
      "replaced</w>": 8333,
      "roo": 8334,
      "rober": 8335,
      "roma</w>": 8336,
      "roll</w>": 8337,
      "1911</w>": 8338,
      "1906</w>": 8339,
      "ilo</w>": 8340,
      "ild</w>": 8341,
      "church</w>": 8342,
      "children</w>": 8343,
      "chevrolet</w>": 8344,
      "oline</w>": 8345,
      "olution</w>": 8346,
      "stick</w>": 8347,
      "stown</w>": 8348,
      "ppe</w>": 8349,
      "ppa</w>": 8350,
      "irwin</w>": 8351,
      "eli</w>": 8352,
      "thing</w>": 8353,
      "thor</w>": 8354,
      "ssels</w>": 8355,
      "apr</w>": 8356,
      "Count</w>": 8357,
      "def</w>": 8358,
      "design</w>": 8359,
      "ety</w>": 8360,
      "eton</w>": 8361,
      "Indoor</w>": 8362,
      "shin": 8363,
      "short</w>": 8364,
      "Div</w>": 8365,
      "cular</w>": 8366,
      "Going</w>": 8367,
      "cola": 8368,
      "cosponsored</w>": 8369,
      "rus</w>": 8370,
      "seum</w>": 8371,
      "Composition</w>": 8372,
      "istics</w>": 8373,
      "ifer</w>": 8374,
      "ott</w>": 8375,
      "guins</w>": 8376,
      "hay": 8377,
      "Security</w>": 8378,
      "ported</w>": 8379,
      "Clay</w>": 8380,
      "mark": 8381,
      "totals</w>": 8382,
      "Cast": 8383,
      "Art</w>": 8384,
      "Made</w>": 8385,
      "ptions</w>": 8386,
      "moorabbin</w>": 8387,
      "casey</w>": 8388,
      "Spar": 8389,
      "Sprint</w>": 8390,
      "Meet</w>": 8391,
      "Medium</w>": 8392,
      "Media</w>": 8393,
      "berta</w>": 8394,
      "enger</w>": 8395,
      "14th</w>": 8396,
      "Regionalliga</w>": 8397,
      "mix</w>": 8398,
      "til</w>": 8399,
      "Prest": 8400,
      "Great</w>": 8401,
      "spir": 8402,
      "winners</w>": 8403,
      "Private</w>": 8404,
      "colour</w>": 8405,
      "abeth</w>": 8406,
      "annels</w>": 8407,
      "akh": 8408,
      "norate</w>": 8409,
      "profess": 8410,
      "Ander": 8411,
      "Genitive</w>": 8412,
      "Disco": 8413,
      "aston</w>": 8414,
      "step</w>": 8415,
      "Orbital</w>": 8416,
      "Assist</w>": 8417,
      "Charlotte</w>": 8418,
      "thorpe</w>": 8419,
      "Raceway</w>": 8420,
      "Manchester</w>": 8421,
      "jul</w>": 8422,
      "Minor</w>": 8423,
      "hout</w>": 8424,
      "bec</w>": 8425,
      "derick</w>": 8426,
      "matthew</w>": 8427,
      "appro": 8428,
      "grade</w>": 8429,
      "scorers</w>": 8430,
      "track</w>": 8431,
      "trail</w>": 8432,
      "onso</w>": 8433,
      "cessor</w>": 8434,
      "Greg</w>": 8435,
      "Published</w>": 8436,
      "Rankings</w>": 8437,
      "umbus</w>": 8438,
      "kee": 8439,
      "Whit": 8440,
      "defending</w>": 8441,
      "Accola": 8442,
      "denis</w>": 8443,
      "space</w>": 8444,
      "Tropical</w>": 8445,
      "Netherlands</w>": 8446,
      "Dublin</w>": 8447,
      "transfer</w>": 8448,
      "Tail</w>": 8449,
      "throw</w>": 8450,
      "righton</w>": 8451,
      "anderson</w>": 8452,
      "alem</w>": 8453,
      "velocity</w>": 8454,
      "depth</w>": 8455,
      "reas</w>": 8456,
      "Wheels</w>": 8457,
      "Hanzi</w>": 8458,
      "Pass</w>": 8459,
      "Turn": 8460,
      "balle": 8461,
      "jackie</w>": 8462,
      "Alex</w>": 8463,
      "UTR</w>": 8464,
      "half": 8465,
      "umed</w>": 8466,
      "Battle</w>": 8467,
      "hamburg</w>": 8468,
      "stop</w>": 8469,
      "stock": 8470,
      "memphis</w>": 8471,
      "Brazil</w>": 8472,
      "Miller</w>": 8473,
      "ineering</w>": 8474,
      "salary</w>": 8475,
      "times</w>": 8476,
      "Louis</w>": 8477,
      "damon</w>": 8478,
      "silver</w>": 8479,
      "ological</w>": 8480,
      "bayern</w>": 8481,
      "hind</w>": 8482,
      "bolton</w>": 8483,
      "fiji</w>": 8484,
      "Half</w>": 8485,
      "equivalent</w>": 8486,
      "Function</w>": 8487,
      "campbell</w>": 8488,
      "62mph</w>": 8489,
      "furt</w>": 8490,
      "gonz": 8491,
      "corporation</w>": 8492,
      "village</w>": 8493,
      "feder": 8494,
      "Campus</w>": 8495,
      "Larry</w>": 8496,
      "Payload</w>": 8497,
      "Receipts</w>": 8498,
      "desliga</w>": 8499,
      "ographer</w>": 8500,
      "Quarterfinals</w>": 8501,
      "miguel</w>": 8502,
      "morgan</w>": 8503,
      "ymn": 8504,
      "oreographer</w>": 8505,
      "Navy</w>": 8506,
      "Upstream</w>": 8507,
      "ity²</w>": 8508,
      "nicklaus</w>": 8509,
      "Probability</w>": 8510,
      "lynn</w>": 8511,
      "Conductor</w>": 8512,
      "Firefox</w>": 8513,
      "remaining</w>": 8514,
      "Virtual</w>": 8515,
      "Liter": 8516,
      "Dutch</w>": 8517,
      "pennsylvania</w>": 8518,
      "Mexico</w>": 8519,
      "expec": 8520,
      "emperature</w>": 8521,
      "inthians</w>": 8522,
      "Explorer</w>": 8523,
      "Image</w>": 8524,
      "eneuve</w>": 8525,
      "174</w>": 8526,
      "230</w>": 8527,
      "21st</w>": 8528,
      "235</w>": 8529,
      "245</w>": 8530,
      "248</w>": 8531,
      "260</w>": 8532,
      "252</w>": 8533,
      "263</w>": 8534,
      "250": 8535,
      "3T": 8536,
      "330</w>": 8537,
      "346</w>": 8538,
      "307</w>": 8539,
      "360</w>": 8540,
      "58": 8541,
      "68": 8542,
      "69": 8543,
      "640</w>": 8544,
      "667</w>": 8545,
      "AM": 8546,
      "Aired</w>": 8547,
      "Access": 8548,
      "Awar": 8549,
      "Back</w>": 8550,
      "Bishop</w>": 8551,
      "Ch</w>": 8552,
      "Cert": 8553,
      "Dre": 8554,
      "DCS": 8555,
      "EE": 8556,
      "Fis": 8557,
      "Fam": 8558,
      "Fut": 8559,
      "Five</w>": 8560,
      "Four</w>": 8561,
      "GR</w>": 8562,
      "Gla": 8563,
      "Giles</w>": 8564,
      "HA</w>": 8565,
      "HP</w>": 8566,
      "Hard</w>": 8567,
      "Hamilton</w>": 8568,
      "Is</w>": 8569,
      "INT</w>": 8570,
      "Icel": 8571,
      "Jor": 8572,
      "Jess": 8573,
      "KIN": 8574,
      "L3</w>": 8575,
      "Liga</w>": 8576,
      "My": 8577,
      "MJ</w>": 8578,
      "Mbit</w>": 8579,
      "NS</w>": 8580,
      "Pens</w>": 8581,
      "Par</w>": 8582,
      "SE</w>": 8583,
      "Same</w>": 8584,
      "Sel": 8585,
      "Sav": 8586,
      "Song": 8587,
      "Side</w>": 8588,
      "Saskatchewan</w>": 8589,
      "Tr": 8590,
      "Tex": 8591,
      "UN": 8592,
      "UCI</w>": 8593,
      "Var": 8594,
      "Wisconsin</w>": 8595,
      "XI</w>": 8596,
      "aj": 8597,
      "ao": 8598,
      "ax": 8599,
      "bou": 8600,
      "bes</w>": 8601,
      "bel</w>": 8602,
      "blues</w>": 8603,
      "browns</w>": 8604,
      "cbr": 8605,
      "cise</w>": 8606,
      "carter</w>": 8607,
      "dat": 8608,
      "dell</w>": 8609,
      "driv": 8610,
      "digital</w>": 8611,
      "ef": 8612,
      "fan</w>": 8613,
      "founded</w>": 8614,
      "gill": 8615,
      "gates</w>": 8616,
      "giro</w>": 8617,
      "grizzlies</w>": 8618,
      "hr</w>": 8619,
      "hom": 8620,
      "high": 8621,
      "hew": 8622,
      "hand": 8623,
      "io": 8624,
      "jeld</w>": 8625,
      "kel": 8626,
      "kha": 8627,
      "kas": 8628,
      "kinson</w>": 8629,
      "lu</w>": 8630,
      "mob": 8631,
      "more</w>": 8632,
      "ns": 8633,
      "nad": 8634,
      "nova</w>": 8635,
      "nipeg</w>": 8636,
      "ob</w>": 8637,
      "ois": 8638,
      "pn</w>": 8639,
      "ply": 8640,
      "petro": 8641,
      "rh": 8642,
      "rn": 8643,
      "rural</w>": 8644,
      "sn": 8645,
      "sat": 8646,
      "sad": 8647,
      "sav": 8648,
      "tz": 8649,
      "wen</w>": 8650,
      "wag": 8651,
      "ware</w>": 8652,
      "wrex": 8653,
      "yk</w>": 8654,
      "yards</w>": 8655,
      "zam": 8656,
      "zers</w>": 8657,
      "zhou</w>": 8658,
      "°c</w>": 8659,
      "μg</w>": 8660,
      "tar</w>": 8661,
      "tak</w>": 8662,
      "into</w>": 8663,
      "independent</w>": 8664,
      "atian</w>": 8665,
      "encing</w>": 8666,
      "itial</w>": 8667,
      "eric</w>": 8668,
      "ars</w>": 8669,
      "arch": 8670,
      "lade": 8671,
      "riders</w>": 8672,
      "Religion</w>": 8673,
      "Reporters</w>": 8674,
      "Poor</w>": 8675,
      "albert</w>": 8676,
      "allen</w>": 8677,
      "rez</w>": 8678,
      "rom": 8679,
      "rob</w>": 8680,
      "robin</w>": 8681,
      "1913</w>": 8682,
      "1923</w>": 8683,
      "1902</w>": 8684,
      "ctural</w>": 8685,
      "chip</w>": 8686,
      "Playoff</w>": 8687,
      "irk</w>": 8688,
      "elia</w>": 8689,
      "thard</w>": 8690,
      "ssed</w>": 8691,
      "tta</w>": 8692,
      "Research</w>": 8693,
      "debut</w>": 8694,
      "Cham": 8695,
      "Choreographer</w>": 8696,
      "ources</w>": 8697,
      "verstone</w>": 8698,
      "luigi</w>": 8699,
      "Ense": 8700,
      "Entre": 8701,
      "shoo": 8702,
      "shau": 8703,
      "stad</w>": 8704,
      "stakes</w>": 8705,
      "master</w>": 8706,
      "cowboys</w>": 8707,
      "Promot": 8708,
      "palace</w>": 8709,
      "pablo</w>": 8710,
      "ationship</w>": 8711,
      "10s</w>": 8712,
      "Sea</w>": 8713,
      "immer": 8714,
      "porary</w>": 8715,
      "advent": 8716,
      "elen</w>": 8717,
      "Compre": 8718,
      "tern</w>": 8719,
      "termin": 8720,
      "Marqu": 8721,
      "Marathon</w>": 8722,
      "edish</w>": 8723,
      "marc": 8724,
      "marin": 8725,
      "audi</w>": 8726,
      "1857</w>": 8727,
      "egjeld</w>": 8728,
      "leader</w>": 8729,
      "Masters</w>": 8730,
      "ently</w>": 8731,
      "usk": 8732,
      "movies</w>": 8733,
      "ensen</w>": 8734,
      "cardin": 8735,
      "berger</w>": 8736,
      "Finalists</w>": 8737,
      "Austin</w>": 8738,
      "Registered</w>": 8739,
      "Modern</w>": 8740,
      "mika</w>": 8741,
      "brussels</w>": 8742,
      "esi</w>": 8743,
      "Roy</w>": 8744,
      "Rock</w>": 8745,
      "bug": 8746,
      "bumped</w>": 8747,
      "spr": 8748,
      "spa</w>": 8749,
      "winnipeg</w>": 8750,
      "asaki</w>": 8751,
      "coli</w>": 8752,
      "coliseum</w>": 8753,
      "example</w>": 8754,
      "athens</w>": 8755,
      "tana</w>": 8756,
      "tancy</w>": 8757,
      "emporary</w>": 8758,
      "gets</w>": 8759,
      "crats</w>": 8760,
      "skins</w>": 8761,
      "Intergiro</w>": 8762,
      "green": 8763,
      "ennett</w>": 8764,
      "Ordinary</w>": 8765,
      "singapore</w>": 8766,
      "airing</w>": 8767,
      "cancell": 8768,
      "tees</w>": 8769,
      "Assumed</w>": 8770,
      "avor": 8771,
      "syracuse</w>": 8772,
      "publication</w>": 8773,
      "Norwegian</w>": 8774,
      "ashi</w>": 8775,
      "borg</w>": 8776,
      "link</w>": 8777,
      "linton</w>": 8778,
      "anufacture</w>": 8779,
      "lane</w>": 8780,
      "barry</w>": 8781,
      "dered</w>": 8782,
      "derby</w>": 8783,
      "appearance</w>": 8784,
      "gram</w>": 8785,
      "lorenzo</w>": 8786,
      "CAL": 8787,
      "Sweden</w>": 8788,
      "itation</w>": 8789,
      "Televotes</w>": 8790,
      "valencia</w>": 8791,
      "clif": 8792,
      "Launches</w>": 8793,
      "alab": 8794,
      "scri": 8795,
      "Mount</w>": 8796,
      "holm</w>": 8797,
      "Floor</w>": 8798,
      "ghes</w>": 8799,
      "Edmonton</w>": 8800,
      "kees</w>": 8801,
      "warr": 8802,
      "805": 8803,
      "Credentials</w>": 8804,
      "rating</w>": 8805,
      "Stephen</w>": 8806,
      "Asts</w>": 8807,
      "Driving</w>": 8808,
      "hunt</w>": 8809,
      "Isolation</w>": 8810,
      "Completion</w>": 8811,
      "Webcast</w>": 8812,
      "Hangul</w>": 8813,
      "Headphone</w>": 8814,
      "GTO</w>": 8815,
      "Subject</w>": 8816,
      "kraft</w>": 8817,
      "iness</w>": 8818,
      "based</w>": 8819,
      "mployment</w>": 8820,
      "Russia</w>": 8821,
      "ducati</w>": 8822,
      "Archive</w>": 8823,
      "motorsport</w>": 8824,
      "LMP": 8825,
      "receipts</w>": 8826,
      "Earth</w>": 8827,
      "figure</w>": 8828,
      "Defensive</w>": 8829,
      "Jason</w>": 8830,
      "Plant</w>": 8831,
      "Technical</w>": 8832,
      "hurric": 8833,
      "analys": 8834,
      "Delivered</w>": 8835,
      "Queens</w>": 8836,
      "murphy</w>": 8837,
      "Giant</w>": 8838,
      "vinyl</w>": 8839,
      "Viewing</w>": 8840,
      "Organization</w>": 8841,
      "Distribution</w>": 8842,
      "Shutt": 8843,
      "ilippines</w>": 8844,
      "Acres</w>": 8845,
      "trevino</w>": 8846,
      "Relationship</w>": 8847,
      "enditure</w>": 8848,
      "icrosoft</w>": 8849,
      "FSB</w>": 8850,
      "currently</w>": 8851,
      "czech</w>": 8852,
      "hattan</w>": 8853,
      "Weapon</w>": 8854,
      "involved</w>": 8855,
      "Lawrence</w>": 8856,
      "wednesday</w>": 8857,
      "Secondary</w>": 8858,
      "pictures</w>": 8859,
      "preneur</w>": 8860,
      "mediate</w>": 8861,
      "coulthard</w>": 8862,
      "Rivers</w>": 8863,
      "Unemployment</w>": 8864,
      "Prestegjeld</w>": 8865,
      "keeper</w>": 8866,
      "expectancy</w>": 8867,
      "Accession</w>": 8868,
      "Awardee</w>": 8869,
      "DCSF</w>": 8870,
      "Jordan</w>": 8871,
      "wrexham</w>": 8872,
      "Ensemble</w>": 8873,
      "Entrepreneur</w>": 8874,
      "cardinals</w>": 8875,
      "04": 8876,
      "05": 8877,
      "2T": 8878,
      "219</w>": 8879,
      "267</w>": 8880,
      "265</w>": 8881,
      "322</w>": 8882,
      "328</w>": 8883,
      "3000</w>": 8884,
      "369</w>": 8885,
      "368</w>": 8886,
      "372</w>": 8887,
      "335</w>": 8888,
      "302</w>": 8889,
      "304</w>": 8890,
      "353</w>": 8891,
      "440</w>": 8892,
      "406</w>": 8893,
      "456</w>": 8894,
      "481</w>": 8895,
      "5km</w>": 8896,
      "505</w>": 8897,
      "562</w>": 8898,
      "87": 8899,
      "99": 8900,
      "978</w>": 8901,
      "997</w>": 8902,
      "AD": 8903,
      "AP</w>": 8904,
      "BS</w>": 8905,
      "Bre": 8906,
      "Bay</w>": 8907,
      "Bun": 8908,
      "Band": 8909,
      "Beg": 8910,
      "Cli": 8911,
      "Catholic</w>": 8912,
      "DC</w>": 8913,
      "Ed</w>": 8914,
      "Ever": 8915,
      "Eric</w>": 8916,
      "Euro</w>": 8917,
      "Fel": 8918,
      "Fif": 8919,
      "FLaps</w>": 8920,
      "FLap</w>": 8921,
      "Flight</w>": 8922,
      "Firm</w>": 8923,
      "Gil": 8924,
      "Gau": 8925,
      "Giro</w>": 8926,
      "Kann": 8927,
      "LNER</w>": 8928,
      "Me</w>": 8929,
      "MC</w>": 8930,
      "MI</w>": 8931,
      "Mau": 8932,
      "Mid</w>": 8933,
      "Morg": 8934,
      "NA</w>": 8935,
      "N°</w>": 8936,
      "Ov": 8937,
      "Oy": 8938,
      "Obla": 8939,
      "Pal": 8940,
      "Pun": 8941,
      "Pion": 8942,
      "Peter": 8943,
      "Qata": 8944,
      "Rad": 8945,
      "SL</w>": 8946,
      "TT": 8947,
      "Tar": 8948,
      "Tas": 8949,
      "Ticket</w>": 8950,
      "Ven": 8951,
      "WNBA</w>": 8952,
      "avi": 8953,
      "ase</w>": 8954,
      "aired</w>": 8955,
      "br</w>": 8956,
      "bf</w>": 8957,
      "bin": 8958,
      "bag": 8959,
      "beng": 8960,
      "bits</w>": 8961,
      "bility</w>": 8962,
      "cz": 8963,
[...]
