#version: 0.2
Ġ S
l e
Ġ t
Ġ =
Ġ W
Ġ F
a b
ab le
Ġt able
E C
O M
ĠS E
ĠF R
EC T
L ECT
ĠFR OM
ĠSE LECT
E R
H ER
ĠW HER
ĠWHER E
Ġ A
o n
e r
i n
ĠA N
ĠAN D
a t
Ġ C
e n
Ġ 1
a n
o r
a m
Ġ P
a r
Ġ T
Ġ 2
a l
Ġ D
Ġ R
Ġ M
i t
i on
s t
e s
o u
at e
Ġ (
Ġ L
Ġ N
Ġ s
l a
e am
c or
i c
en t
0 0
Ġ >
o m
Ġ <
e d
Ġ G
Ġ c
Ġ O
ĠD ate
ĠP o
c e
r i
Ġ H
Ġ m
r e
ĠC O
U N
at ion
ĠCO UN
ĠCOUN T
Ġ p
o l
i s
cor e
Ġ 3
ou n
Ġ b
am e
i l
Ġ1 9
e ar
in g
Ġ Y
a s
Ġ E
Ġ d
o t
Ġt eam
ĠP la
Ġ B
c t
e l
ĠY ear
Ġ f
e t
r o
a y
c h
ĠR e
u l
t s
Ġ n
v er
Ġ2 00
Ġ 4
Ġ o
Ġ V
i r
Ġ a
I N
p p
u n
ĠM IN
ĠPla y
u e
ĠM A
ĠMA X
b er
ĠS core
ĠT eam
g e
ĠL o
om e
u m
i g
t h
an d
it ion
Ġ 5
Ġ w
Ġ 6
i m
â Ģ
s s
ĠPlay er
r a
in ts
ĠN ame
Ġ I
it y
ĠO pp
ĠH ome
âĢ ĵ
an k
o d
Ġ g
on ent
ĠOpp onent
Ġo f
ĠW in
u r
oun d
en d
Ġ 7
a d
ĠS t
Ġ 0
ĠA V
ĠAV G
Ġ h
Ġ2 0
oun t
i st
Ġ j
w ay
er s
ĠPo s
e m
an ce
r y
ĠPo ints
U M
Ġ in
ĠS UM
ĠR ank
a p
ar t
ot al
cor d
t t
ĠPos ition
ĠR es
ĠA way
ig h
ĠRe cord
ĠC ount
ĠT otal
ul t
Ġ v
en ue
i d
Ġ r
u b
it le
Ġ 8
ou r
in al
ĠV enue
end ance
ic k
Ġ st
ĠA tt
n er
Ġ l
ĠRes ult
e e
u s
ĠAtt endance
ĠC h
ĠLo c
Ġs core
ĠS e
Ġ J
im e
Ġ20 1
Ġ 9
i e
Ġ k
ĠLoc ation
ĠI n
ĠCount ry
il l
i a
a in
c k
as on
Ġ1 0
o w
ar d
ĠR ound
Ġ19 9
a g
h e
ĠT ime
ĠT itle
Ġ #
e st
Ġ U
al l
a ge
our n
u p
ĠE n
i es
i p
ee k
Ġb y
i f
ĠN o
o al
le s
l ub
ĠW eek
u t
Ġ1 2
Ġ1 1
r ic
od e
o s
la ss
p e
Ġ e
ĠG ame
ĠG oal
ar y
i v
z e
Ġc h
en s
ol d
o ol
ĠN ation
ion s
um ber
i an
ĠT o
ĠSe ason
ĠC om
Ġ1 8
ch ool
i re
a st
ĠC ol
is h
Ġ )
ĠL e
em ber
ĠP ro
am ent
ri ver
ct or
Ġ re
ri g
a ce
ourn ament
ĠB r
ri d
ct ed
Ġ1 4
ĠGoal s
ĠC on
Ġp ar
ĠP art
ap s
o v
igh t
1 0
Ġ1 5
a c
Ġs e
ra w
ĠWin s
or t
n ing
Ġd e
ĠH igh
Ġ1 3
ĠP ick
Ġt he
Ġ K
am p
as s
ĠD e
r u
ĠS chool
an t
ĠT ournament
on g
ĠD ist
ĠO rig
ct ion
in e
ro w
q u
Ġ19 8
a k
m ent
Ġ1 6
g ain
t er
ĠL aps
er ies
ĠPla ce
ĠOrig inal
ĠD raw
ĠC lass
gain st
Ġ le
ĠD ire
le ge
e y
Ġf or
f f
r it
ĠD river
ĠCom p
ĠE v
Ġ un
at es
ĠCol lege
ow n
ie w
p ul
Ġ y
d u
on ze
ĠG old
ĠBr onze
es s
ric t
u d
il ver
ĠG rid
1 1
2 0
n d
ĠC ity
Ġp o
ĠS ilver
ĠLo ss
al ity
ĠDist rict
Ġd ate
or m
Ġ "
pul ation
ir st
ĠR un
ĠIn c
i um
an s
um b
l and
Ġ200 8
ĠEv ent
Ġ $
u st
ĠN umber
ĠH e
ĠC row
Ġ1 7
an g
ag ue
ĠCrow d
e w
ĠPo pulation
ĠC lub
ĠWin ning
Ġ and
or y
p is
ĠM ar
ĠWin ner
a v
h ip
00 0
ĠF irst
1 2
y pe
t on
iew ers
am es
c y
' s
ĠEn g
u g
an u
umb ent
i o
p h
ĠW rit
on d
ĠInc umbent
Ġn o
p t
f er
Ġa ir
ĠRe g
1 9
ĠE pis
Ġ19 7
s e
l o
Ġ2 5
Ġm ar
en ce
ic h
it ed
e b
p ort
et ition
ĠNation ality
at ch
1 4
Ġ2 2
Ġ201 0
1 3
ĠPlay ed
ĠA r
Ġ2 4
ic e
re a
ri l
ĠLo st
a ck
is ion
ĠComp etition
Ġpo ints
Ġ /
i k
o g
ĠPro du
o st
Ġ200 9
Ġ200 7
t en
ĠEpis ode
ĠA rea
Ġ201 1
ĠS eries
ver age
o p
i al
Ġ2 1
Ġc ode
ĠT ype
ĠLe ague
ĠA gainst
ad ium
o c
Ġ2 3
ĠO ver
Ġ Q
k m
iv e
ĠP er
ic ation
o h
ou th
en g
ar e
Ġt itle
Ġ ro
ĠV is
r om
a ch
Ġun ited
ĠPart y
o ber
m ill
Ġ %
ĠDire cted
l y
ĠWrit ten
en cy
it e
ĠVis it
ĠS ur
Ġ la
or k
at h
Ġ19 6
f ace
Ġ +
ĠOver all
Ġ3 0
p ril
s on
ĠA l
ĠO ut
ir ed
ĠYear s
Ġf inal
el d
Ġw in
ot es
ĠCh amp
ĠCon st
ĠProdu ction
an n
Ġ2 7
ĠR ace
Ġ200 6
ig n
ol l
a le
el l
1 5
Ġt o
if ication
ĠSur face
ĠC up
ĠT h
Ġe le
ĠG r
t e
w ard
ĠF re
i er
ĠA verage
2 00
Ġn ame
u it
ct ober
i ver
r es
or d
f t
is s
Ġ201 2
ĠSt ate
1 6
2 5
er n
Ġg r
Ġ2 6
om in
ist s
ĠLoss es
c c
as e
a ct
Ġ2 9
ĠS h
m ber
a w
ĠRun ner
ce mber
Ġp er
ĠVisit or
Ġ ra
ir c
3 0
Ġn umber
od el
Ġ19 5
an e
m an
et ired
c ome
l ish
Ġv iewers
ĠHe ight
Ġ al
ions hip
ĠTo p
ate d
oh n
Ġ at
ĠM atch
v al
on t
anu ary
ĠA pp
en n
or s
ĠG ames
Ġ2 8
R etired
u il
or th
ĠF in
Ġs h
fer ence
C lub
la y
el b
ĠQ u
ĠDraw n
2 8
ĠE le
Ġ ar
on s
ĠR o
and id
ĠReg ion
it h
ĠM on
et h
Ġn ov
ĠU n
l d
r ans
1 7
ourn e
r d
ĠEng ine
1 8
ru ary
ĠDire ctor
eb ruary
Ġ or
elb ourne
g ory
p en
ĠC o
qu ency
i eld
ĠC irc
pt ember
d e
er v
Ġa gainst
Ġele cted
ĠFre quency
p er
le n
ĠC andid
g in
ĠCount y
ass is
ri es
Ġa pril
ĠC ap
an ge
ate gory
Ġc lass
un e
u re
ĠCh assis
Ġse ason
ĠF orm
Ġ200 5
Ġs eries
ĠA ir
in t
o k
Ġc ar
i x
ĠF inal
ĠCirc uit
ĠP ri
7 0
in a
an c
or n
Ġst ates
Ġs outh
ĠOpponent s
b ound
le r
ou p
ĠRe le
le y
Ġt h
Ġnov ember
Ġ -
Ġn ew
ĠConst ru
o od
Ġs p
Ġ200 4
o b
bound s
ic t
ĠOut come
ĠS p
ĠC ar
ĠP re
et s
mill ions
a h
on e
Ġle g
2 7
f orm
ou b
Ġm elbourne
6 8
5 0
Ġf r
2 9
Ġm ay
ĠFin ish
Ġo ctober
Ġo val
id er
ĠDe c
6 9
or e
ĠL ab
m er
at al
ĠM odel
ul y
r al
ĠRe p
e le
ĠE x
t r
e ight
ĠDraw s
ĠAr t
Â ²
Ġpar k
ug ust
ĠCandid ates
c ot
ĠSt adium
v in
at us
ĠT ie
Ġ200 3
ĠIn ter
i or
ri s
Ġse ptember
c ed
oub les
7 3
A A
at ing
ĠG en
ĠB uil
ĠT rans
as h
c ent
n e
ĠS et
7 1
7 2
ĠConstru ctor
0 5
k e
at s
ĠC ategory
ĠRele ase
l ic
Ġ ass
Ġ &
or ld
Ġa d
Ġw on
ĠArt ist
ĠC atal
Ġc om
ĠChamp ionship
ĠForm at
2 4
ent er
Ġ200 1
iver s
ĠT ra
il m
iv ision
ĠCatal og
Ġp ro
Ġ3 8
a x
i b
ation al
ad e
ĠC all
Ġclass ification
ĠR ider
ĠL ane
0 6
ĠT ries
ĠV iewers
ĠLab el
2 3
i le
at t
ĠSt atus
ĠMon ey
Ġde cember
ĠEng lish
ĠS ong
it al
Ġre bounds
ĠN et
Ġ3 4
ĠLe ad
ud e
e g
ĠN otes
il le
ard s
0 9
2 6
ĠU S
ĠPart ner
Ġmar ch
Ġass ists
Ġ us
Ġ3 5
Ġs ing
Ġ3 1
r at
Ġ ,
ĠEn tr
2 2
ĠA v
l l
n ers
o ck
r ess
it ude
g o
Ġt ime
ĠA ss
ar k
es e
Ġj ohn
a il
d s
g h
7 4
Ġ as
ĠS pe
Ġf ebruary
Ġ â
Ġ200 0
ĠEntr ant
Ġ âĢĵ
Ġst adium
ĠW om
ĠL a
6 6
ir th
id e
ĠMar gin
ivers ity
at or
i z
Ġc ap
ĠF ilm
on y
Ġ200 2
ĠNo v
e v
ĠN ew
q ue
u th
Ġc ol
F L
i am
ĠM an
ĠM eth
ou se
Ġd oubles
ĠSt art
Ġj anuary
ĠMatch es
0 4
Ġ z
al if
0 7
a z
ĠApp s
le t
in s
ber t
ens e
ĠA th
ĠA ward
ĠMeth od
o ot
ĠF or
ound ed
Ġv ict
c o
ĠL ong
ub lic
d er
ĠN ick
ac ity
n ame
ur r
2 1
e x
w er
Ġ i
Ġg re
ut ion
4 9
c ond
la ce
0 8
a u
Ġb r
ick et
3 3
7 5
er m
om et
un ior
ik e
Ġa ugust
ĠA n
Ġm an
ust ral
n es
Ġ qu
ĠF ast
Ġn orth
ir d
ĠSt age
ĠAv g
Ġ am
Ġ ge
Ġ1 00
Ġj une
o ff
Ġ199 9
ang u
b y
l in
Ġ u
Ġst ate
% )
Ã ©
le te
ou s
Ġc ity
Ġ [
Ġ19 4
Ġr ound
ĠP l
Ġ3 2
b ur
Ã ¡
Ġp ri
Ġj uly
c ing
ĠW eight
Ġ201 3
if ference
vin ce
6 7
ĠP r
ĠH omet
ĠHomet own
en a
ic ip
ĠO ff
Ġm ill
Ġk m
f act
r am
st it
em oc
anu fact
3 4
a i
v el
ĠO th
Ġw est
ĠCh ar
ag er
Ġch amp
Ġc on
ri st
Ġ199 8
angu age
3 5
6 5
d ay
h am
ur er
ĠNick name
k i
r oll
ic ense
ĠSt ation
ou t
ĠPo wer
Ġp h
Ġ4 0
mill ion
ĠCap acity
am il
ic al
ĠO pen
Ġgr and
m p
ĠD ivision
ĠR ac
il d
ĠLo s
ĠAth lete
d ate
p s
w ork
ĠF A
er man
Ġc o
Ġ3 3
ann el
Ġsing les
m ond
ĠR ating
anufact urer
l or
Ġr un
os ition
6 4
in c
an y
ĠSe g
erv ice
ĠFast est
a j
ĠPo le
ing s
ro ad
Ġ4 5
Ġ5 4
ning s
H L
Ġm c
ĠE ar
Ġn omin
Ġ199 6
emoc rat
0 3
c ast
y d
ĠF ounded
an ad
9 5
ing ton
Ġr ich
ĠJ o
iss ion
roll ment
u al
v ille
Ġ eng
ĠN omin
ĠIn stit
ĠSeg ment
0 2
m m
er al
Ġd av
ĠJ anuary
ĠEn rollment
9 8
ĠM ed
Ġ( %)
Ġ3 6
Ġ4 4
ĠPer cent
ĠQu al
u ro
Ġm ade
re e
ĠGr and
urr ent
e ct
n ational
on us
in d
Ġf rom
4 4
H z
at ur
at ive
ĠM anufacturer
ĠB irth
Ġ5 0
Ġ199 4
ĠNov ember
ĠInstit ution
A T
w ood
ĠS cor
ar i
ĠL anguage
Ġr ank
m i
s h
Ġ q
Ġ3 9
ĠB est
Ġw ith
eng th
ĠL ength
Ġd river
ue st
Ġin d
ill iam
ĠDe cember
3 8
D P
Ġs ign
Ġb ar
ĠRe port
Ġo pen
un icip
ĠPer form
7 7
a les
Ġ ed
it a
ap an
uth or
0 1
a ul
t ain
Ġc lub
Ġp lay
ĠJ ohn
8 5
ĠD ifference
ens ity
it t
re et
ĠChamp ion
ĠNet work
n ey
r en
el s
Ġ4 2
f ord
l im
ĠM c
ĠL ast
ĠN HL
ot e
Ġ4 8
Ġ6 8
Ġof f
Ġ199 7
ĠCom m
ĠPro vince
ele v
k g
u ck
al s
un ch
Ġ6 9
ĠCon ference
o y
Ġ on
ĠM ember
ĠO w
Ġ4 9
Ġ7 0
Ġ199 0
or g
ro ss
Ġa pp
ĠEn ds
ĠEvent s
pt ion
e ak
ĠA g
Ġs chool
Ġh aw
Ġy es
ĠGr oup
4 5
ĠT own
ĠM ov
Ġc up
Ġm in
Ġn ot
7 6
v i
Ġ Z
Ġs u
ra ft
Ġt icket
in ed
it z
ĠH ost
ĠB ar
e c
Ġ Â
ĠS ite
et ro
Ġ199 3
os e
ĠWrit er
ĠTrans fer
Ġâ Ī
ublic an
) -
er r
at er
ĠD ay
ĠO ctober
re w
a el
b um
Ġ x
ĠF rom
in o
ĠD is
it s
Ġ4 1
ĠSe cond
ĠOth er
3 1
3 6
8 4
Ġt ype
ĠM en
ĠM unicip
Ġ4 6
Ġy ear
am a
ĠD emocrat
ĠB y
ount ain
Ġ199 5
5 5
i la
k a
m ier
ĠG DP
Ġw orld
ĠDist ance
ĠW on
ot h
ul ar
our ce
ĠHe ad
ĠUn iversity
3 9
i ed
ĠS ing
ĠT V
ĠT he
Ġs ite
00 00
Ġg u
ĠMar ch
ĠEar nings
f ield
ĠS w
ĠA d
Ġ5 5
ra d
ill ion
ĠClass ification
ĠTh ird
Ġvict ory
ustral ia
C A
a f
ĠT elev
Ġc ount
Ġcar l
7 9
ĠA uthor
ĠC ode
an a
or ts
ou is
Ġm on
Ġp r
Ġb e
et t
Ġ7 1
Ġ199 1
ric e
ĠLa unch
a ir
o x
Ġ ol
ou gh
cc ess
ĠTra ck
Ġchamp ionship
i ze
p art
u ss
Ġ @
ĠM ens
st on
ĠG re
ĠE d
ĠMar k
Ġwin d
u ts
ĠS u
ĠC urrent
ĠM in
ĠO r
Ġb onus
Ġ199 2
Ġe x
Ġra cing
o int
ĠP ar
ĠD es
ĠL at
Ġs an
la s
la ck
Ġc anad
Ġ4 3
ss ue
ens us
ak e
ĠPri x
ĠWom en
ĠOw ner
ĠMunicip ality
7 8
s c
ĠS outh
ĠA ctor
ĠA pril
20 11
Ġcom p
r ay
y l
Ġt otal
ĠF ebruary
ĠM as
Ġs l
lo ck
anc es
ĠBuil t
3 2
ĠD av
Ġs cor
Ġm e
ot a
et er
ag o
Ġch ar
ich ael
ĠDec ision
road cast
8 9
m ph
ĠN orth
and ing
ĠCh annel
ĠEle ction
Ġman ager
v e
v iew
ĠM Hz
ĠM ountain
ĠG e
il la
ul l
ver s
Ġh e
ĠMas cot
4 0
b all
h a
r ed
ĠT or
Ġs ervice
Ġp re
Ġ3 7
Ġre cord
Ġy ork
Ġmill ions
k s
t ra
ĠS port
ĠW orld
ER P
al d
Ġs w
em e
Ġl icense
Ġ198 7
ĠRac es
2 000
m in
an i
Ġp art
ul ts
od es
Ġg ame
4 8
i j
Ġ ab
Ġ ERP
ic a
ĠO rd
ĠV al
un d
ist er
ĠHe at
ĠSpe ed
5 9
Ġ cor
ĠS em
ĠS hip
ĠP h
ar a
ar s
ĠM ay
Ġc oll
ĠPo les
Ġp m
Ġv otes
ĠJ une
ĠAl l
ĠPercent age
1 00
3 7
Ġ an
ĠF lo
ĠF ield
ĠC FL
ĠL ap
Ġb est
20 10
ĠRep ublican
go ing
le x
er em
ĠT erm
Ġs c
ic o
ic ago
ĠPo d
ĠY ards
Ġw h
Ġwin ner
c lub
o ss
y n
ĠS ource
at i
ĠO per
Ġ4 7
ian a
ant ity
ĠAl bum
ĠOut going
res ent
ĠCo ach
U S
Ġt or
ĠC uts
ĠG P
Ġg oal
ers on
Ġ198 9
ĠGr ound
act er
ont o
ĠPri ze
Ġrich mond
AT A
9 9
j unior
Ġt ournament
la ced
Ġp osition
Ġf oot
Ġa ward
and er
end on
Ġh ill
id ent
6 2
8 8
u el
á ĥ
Ġt om
ĠW est
ĠA s
ĠR oll
ĠM e
ĠM us
Ġm odel
ĠI D
Ġ7 2
art er
ĠDec ile
Ġpri x
m e
y le
ĠP ts
Ġv al
Ġst reet
Ġgr oup
ĠAir port
ĠBuil der
ash ington
lim in
ĠTelev ision
o ice
ĠS k
on a
am b
Ġp l
ay s
un g
ĠCon t
ĠGen re
ĠMov ing
6 0
b ut
as ed
Ġ5 8
ĠI ssue
id a
ost on
ons or
uro pe
5 8
Ġ âĢ
on es
ĠC ensus
ic s
il i
Ġ6 0
Ġ6 7
Ġch ange
Ġde f
ĠLead ing
Ġrun ner
CA O
ĠPod ium
c er
f l
l ing
y a
an cy
ĠP eak
Ġs cot
ĠO b
Ġ5 1
Ġ6 6
Ġin ter
ow er
Ġre p
ĠRo le
ĠSpe c
ĠBy es
5 7
g ram
j ect
y st
Ġ el
Ġ ess
ĠC enter
ro y
th orn
Ġg erman
Ġh ard
u es
Ġ Ð
ĠPo ll
ĠB e
Ġ5 2
Ġ7 3
9 6
in ese
an o
ĠT y
ol ina
Ġ6 5
ĠRes ults
up er
Ġ198 3
Ġ198 6
ĠInter view
ĠWom ens
alif y
off s
ĠJo ined
ĠDemocrat ic
4 6
T he
Ġ is
at io
an el
Ġs ub
Ġb u
Ġb el
ĠWin ners
ur ation
ĠQu antity
ĠAss ists
9 4
k o
le d
Ġt own
er ry
an ia
ĠP ass
ĠT ry
el ong
Ġa ustralia
ĠI ATA
Ġj ack
us h
ĠRun s
ĠSh are
Ġnomin ation
ĠPerform er
H S
g er
l ot
Ã ¼
Ġc l
Ġp at
is e
ame ter
ĠE st
Ġ5 3
ĠI CAO
ĠSt ar
Ġj un
ĠGen eral
amil y
Ġcarl ton
ĠFlo ors
Ġgoal s
Ġess endon
$ )
9 0
b ack
Ġ end
Ġus ed
Ġapp oint
Ġhaw thorn
part ure
e ff
n g
ĠW h
ĠF r
ĠA nd
ĠR ate
it u
ic an
Ġc ent
Ġa f
Ġ5 7
Ġ6 3
Ġ6 4
ĠI HS
ĠIn d
are er
ĠTh eme
yd ney
ĠOrd er
b o
o o
ĠF L
Ġp lace
ĠI s
Ġch icago
ĠLe ft
ĠComp any
ĠEle v
ĠUS D
ĠPodium s
Ġappoint ment
8 2
i ro
ĠA ge
on n
en ing
ĠT ou
al t
ic les
ation s
Ġb ill
Ġd es
Ġf in
ur al
Ġ7 4
Ġj o
ers ey
ĠJ uly
ĠReg ular
Ġra ce
ix ed
orn ia
ĠInter national
alif ornia
ex as
ĠAg g
ĠIHS AA
b r
b illion
m y
p m
Ġc lay
un s
ĠRank ing
ric a
os ing
Ġ198 8
ĠChar acter
ĠLos ing
vi ous
Ġcanad a
8 0
A tt
b in
ĠS oc
ĠW ork
ĠC y
Ġm il
Ġp aul
ĠV ers
Ġ5 9
ur es
Ġj im
Ġv ac
ĠSe ats
ans as
are a
200 9
Ġge elong
Ġdav id
Ġoff ice
ĠSw im
erem ony
5 4
e ch
k y
Â °
ĠA ug
or ia
ĠD ensity
om as
ĠG ross
ĠB roadcast
Ġf ri
ur s
Ġ7 5
Ġr ed
ĠJ apan
Ġun iversity
ĠLong itude
c ri
d el
h old
k W
m a
y ear
ĠA mer
er e
ĠM ax
ĠTeam s
Ġ5 6
Ġw illiam
ĠSt ud
Ġh ouse
Ġ198 5
Ġle ague
ph ia
ĠRep laced
ĠEx tra
etro it
sc ray
u c
ĠD ates
ing wood
end er
Ġh igh
ĠCh inese
Ġmar k
ĠOff ic
cri ption
9 1
b or
c es
g ar
i od
i ameter
m on
Ã Ń
Ġ est
Ġ area
ĠA ugust
ĠP res
Ġb oston
ĠB ow
ir t
Ġr es
Ġl ouis
Ġair date
Ġwest ern
ĠLat itude
Ġcoll ingwood
Ġfoot scray
5 6
8 7
B A
a ff
r on
z z
ĠS ub
it ch
ĠB ill
ur n
ph y
Ġ ]
Ġ à
ĠA AA
an ts
ĠL and
Ġb ay
Ġb ob
ot o
Ġf ee
Ġin come
Ġ8 0
ard en
Ġ198 4
own s
ĠRun ners
ler s
ĠPre mier
ock ey
lor ida
ĠÂ £
ĠAuthor ity
Ġgerman y
. )
4 2
c l
o ver
er land
Ġc d
ĠPlay offs
Ġ6 2
est er
rid ge
ĠConst itu
az z
ild a
itz roy
ila del
Ġvac ancy
ĠConstitu ency
iladel phia
8 6
9 2
h t
m ary
m ith
p l
Ġ all
ĠP at
ĠT ro
Ġ6 1
od y
ount ry
Ġk ing
if inal
Ġ198 0
ĠCall s
Ġcap ita
4 7
L e
b an
n a
ĠS er
ĠA b
ĠL i
Ġs pe
Ġm atch
Ġm ont
ĠB l
ĠRe v
Ġl oc
ĠVisit ing
ev e
Ġscor er
c on
f c
m ing
ĠS an
ĠP enn
ĠM iss
Ġm art
Ġm ag
Ġ7 6
us e
Ġk ilda
Ġla p
nes ota
ĠNomin ee
ĠâĪ ļ
ĠMountain s
ĠOffic ial
i i
Ġ X
Ġ ital
ĠW eb
er t
ĠP ort
ĠD uration
Ġc enter
ot t
ĠOpp osing
ĠRo ck
ĠScor ed
Ġtournament s
ĠSk ip
ĠSoc ial
Le ague
5 00
d ition
e h
g r
p lace
Ġ em
Ġ art
in ce
ri e
ĠH or
ĠV otes
Ġg en
ĠSt e
ĠIn t
if f
ĠHigh est
Ġ198 1
Ġ198 2
Ġat l
Ġpro du
ĠDav id
ĠStar ts
ĠCalls ign
5 1
T V
n y
q mi
er rit
ou l
Ġp ort
oun g
Ġf itzroy
Ġw ashington
ĠRound s
Ġch rist
Ġ$ )
ĠEle ctor
Ġfr ance
ĠVal ue
m ission
y mp
ĠP rice
ĠR om
ĠM ixed
st er
Ġs ch
Ġm as
Ġm ember
is on
Ġb uil
ĠE l
ot s
Ġf err
ir gin
im es
ĠDe ath
ĠEpis odes
ĠPre vious
Ġgre en
ĠOff ice
Ġnomin ated
ĠPass eng
ĠVers ion
Ġfri end
ĠJapan ese
Ã ¶
Ġt rans
ĠA ct
in ation
ĠP anel
ĠN FL
ent s
Ġm ast
re ak
ch d
ĠV ol
Ġw al
ad o
Ġj ames
ick ets
ĠCh ange
ĠEv ening
op er
ĠAir date
ĠPl at
Ġwind ow
9 3
C ountry
g ate
v a
ĠS uper
ĠA ff
or ge
al le
ĠL ist
ĠG uest
ĠPo p
ĠH ouse
ber g
Ġw ar
Ġh ar
ĠEn d
ĠPro d
Ġfor m
Ġ197 9
Ġvict oria
ccess or
Ġtor onto
ĠMus ic
J unior
f a
u k
Â ·
Ġ Ã
ĠS c
Ġt ra
Ġc ategory
Ġm ot
Ġm ike
Ġb l
Ġb en
Ġd ensity
ĠRe c
ĠRe bounds
Ġ7 8
Ġh c
ĠSe ptember
ĠJ ersey
Ġk W
os ed
Ġe ast
Ġde ath
Ġde parture
ale n
ĠRo ad
bur g
ĠMc C
Ġgu ard
Ġol ymp
yl v
6 3
C eremony
b s
o le
Ã ³
ã ģ
ĠC aps
ri an
Ġb lack
Ġf t
ĠV ac
our se
Ġk n
all y
ant a
row n
erv ed
ustral ian
Ġqu alify
Ġeng land
ĠTor que
ĠTou chd
Ġferr ari
5 3
6 1
9 7
g s
s uit
Ġ *
ĠS en
le ment
ĠP rom
al o
ĠD raft
ĠM il
Ġd ivision
ĠRe ason
pp er
ur y
Ġ0 8
em p
id d
Ġr ate
ĠCol or
ĠBr anding
Ġwin s
ĠCap tain
ced ed
Ġmc g
ĠGre en
ĠSwim suit
8 3
k es
o f
t y
Ð ¾
Ġ .
in i
ĠC ent
ĠP ur
ĠL icense
ĠN e
il ity
as k
ĠE limin
Ġd etroit
ĠB lock
ch e
ur t
Ġst ro
ov a
Ġde c
Ġ197 4
Ġ197 7
Ġla ke
ĠMan ner
ĠâĪ Ĵ
Ġinter national
ĠSpec ies
Att endance
ĠStud io
a e
l ation
p end
u la
Ġ ant
ĠS un
ĠW illiam
ĠA c
ĠP il
ĠD iameter
it ies
la ide
Ġm us
Ġp ol
Ġd en
Ġf l
Ġa ct
and ard
Ġj apan
Ġ9 0
os h
Ġ197 1
de x
de laide
Ġcap tain
org ia
Ġfriend ly
ĠTouchd owns
g a
Â ¹
Ð °
Ġ en
ĠW he
Ġs ize
Ġc ont
Ġm or
Ġm ichael
Ġb ru
ĠRe act
Ġa lex
Ġg old
art icles
Ġst e
Ġe v
ens ive
ĠDe but
Ġ197 0
op a
Ġ196 6
lish ed
enn ess
anc is
Ġsp ain
ĠCatalog ue
Ġph iladelphia
ĠDes ign
yst em
ĠPlat form
Ġhc ards
8 1
O T
Å į
à ®
ĠS ol
ĠC l
ĠG ender
re al
ear ances
un t
Ġst art
ow s
ian s
Ġro bert
ord er
ĠCap ital
ĠRep resent
ĠTra in
let ed
Ġsl am
ister ed
ĠRev enue
errit ory
enness ee
4 3
b it
k er
l b
o or
s en
z a
Ġ ri
Ġ ann
Ġt r
er g
at a
Ġc al
ri a
ĠE ast
ĠE urope
Ġn ick
Ġa g
Ġv s
ĠNation al
ond a
Ġ197 8
Ġor ig
ĠCandid ate
ĠChampionship s
ĠRac ing
aj or
vers ion
ili ation
over n
Ġart ist
irgin ia
r ick
Ġ ry
Ġ ze
Ġt ig
ĠF amily
er b
an ing
al and
ĠM al
it er
st r
ĠL ar
Ġc le
Ġd id
ĠB B
ct ric
Ġf re
ur ch
ĠU nd
amp le
ment ator
Ġ197 6
Ġeng ine
c a
d om
p lay
s ite
u ra
Ġ er
Ġ ath
Ġ out
ĠW ater
ĠF C
in y
or ial
ĠP ark
ĠM ain
ĠN at
Ġs a
Ġs un
Ġm ed
re st
Ġp eter
Ġb rit
Ġd al
Ġa v
Ġa verage
um e
ig an
ĠI t
Ġg ra
Ġg len
ĠU p
Ġro y
aw a
Ġsh are
Ġpart y
Ġjun ction
ĠElev ation
5 2
b e
g et
i les
k n
o len
w o
w ick
w est
w eight
Ġ å
Ġ rid
in n
Ġb irth
ĠY ork
Ġd el
Ġf c
ch ester
Ġw at
Ġg ames
ĠEn ter
Ġch annel
Ġun ion
ang ers
ĠAr ena
Ġyear s
ĠSing les
ĠLaunch ed
ĠSem ifinal
Ġmast ers
ylv ania
c m
f inal
i pp
o pp
o ft
à ´
Ġ es
Ġ im
ĠS ervice
ĠS ize
ĠA m
ĠC areer
ĠC ourse
ĠD oubles
ĠM ichael
ĠN ames
Ġm en
Ġm ad
Ġm ich
ir a
Ġa c
ie f
Ġch ris
ens ion
ĠDe vel
ust in
ĠWinning s
Ġ25 0
Ġ196 7
ĠAn n
ĠNomin ated
Ġaf rica
Ġital y
ĠElimin ated
4 1
P P
g an
i et
k w
s ylvania
w e
y s
Ġ æ
ĠF le
in k
al len
ĠR atio
ĠG T
ĠG ar
ĠH D
Ġm a
Ġd u
ĠB ike
Ġf e
Ġf irst
Ġn or
Ġa ctor
pp ort
ig a
Ġ5 00
Ġw ood
Ġg uest
Ġ7 9
Ġr uss
ĠJ ockey
if e
ter n
ond on
ĠEle cted
oup le
Ġfr ank
Ġam er
ĠMed ian
Ġmin nesota
Ġpre mier
A R
F inal
e cted
h z
j i
m en
r s
ĠS cot
ab lished
ĠT D
ĠR ober
om a
ĠG ain
ri val
Ġp e
Ġp an
ol f
Ġb ra
ĠV illa
Ġ7 7
Ġh eld
Ġ8 8
Ġe pis
ĠPro gram
av e
Ġ197 3
ĠPer iod
ĠApp earances
ĠCo ast
Ġad min
att le
bur gh
ĠPerform ance
Ġchampionship s
Ġscot t
Ġmont real
kn own
ĠEnter ed
S I
j a
m s
y m
ĠF l
Ġ1 000
ĠT exas
om ing
ed en
Ġc alifornia
Ġp al
Ġp rice
ol og
Ġf m
ge st
Ġl u
ĠLoc al
Ġ9 7
ak er
Ġle e
Ġpo int
ĠClub s
Ġ196 4
ĠMan ager
Ġplay ed
oth er
ĠPasseng ers
ĠAff iliation
S t
U p
d ress
o en
t a
Ġ version
ĠS ch
ĠF our
ĠF all
ĠA f
ĠC or
ĠP ct
ĠR d
ĠM ot
ic le
Ġc he
Ġm er
Ġp ower
Ġf at
Ġf ield
ro ok
Ġn ational
Ġg ar
ad a
est ant
ĠCon ceded
Ġun known
Ġ196 8
Ġfr ed
Ġmill ion
ĠPres ident
imes lot
ĠList ed
a o
f e
g ers
h io
n s
w in
Ġ enter
ĠS n
ĠF oot
in es
en z
an ic
am s
ĠP ack
ĠT om
ĠR ich
st e
Ġs im
Ġs mith
la st
Ġb re
Ġb ack
ĠY oung
ĠE p
Ġd ay
ĠB lack
Ġf lorida
Ġn e
im b
Ġh onda
Ġ8 9
Ġl ist
ĠJ ud
Ġ9 5
Ġ9 8
Ġ9 9
Ġk ar
ĠU K
if ied
ĠPro f
Ġre g
ĠInc ome
Ġ197 5
Ġ196 9
Ġar ena
Ġcar olina
ĠPri mary
Ġpro f
ino is
Ġpr inc
Ġwind y
Ġwilliam s
Ġze aland
ĠFle et
d en
d raw
l ov
r ban
Ġ one
Ġ que
ĠC le
ĠT on
ĠM L
ĠM elbourne
ra g
Ġh ost
ap ol
Ġ9 3
iv al
Ġre le
rig ht
ĠBr it
ĠConst ell
200 2
Ġ195 0
ĠAss ets
ani el
ĠAmer ican
ĠConstell ation
G C
c ial
h ab
o on
s k
Ġ iv
Ĥ ¬
Ġt est
ĠF e
in ence
ĠC ouple
ĠD en
ĠR ed
ĠM ake
it ts
st ru
ou ston
Ġs ydney
Ġc os
Ġm em
Ġp et
ĠPla cing
ĠB el
ber al
ĠSt yle
Ġv an
Ġ8 1
Ġl os
Ġ10 2
ĠSeason s
Ġre t
ĠOrig in
ff alo
ĠProdu cer
ĠFre e
Ġper form
ĠUn it
ĠCo ver
ĠOpen ed
ĠSu ccessor
ĠTy re
Ġhouse hold
ĠProm inence
oen ix
ĠFoot ball
f old
l ication
m un
ã ĥ
Ġ ir
Ġ ange
Ġ arden
Ġ order
ĠS im
ĠS atur
Ġt im
er ati
ĠP aul
ar ian
ĠL ouis
la h
ĠG ra
ĠE con
ĠB all
ĠB ody
Ġo ver
um p
ĠOpp osition
Ġ0 9
Ġr ay
Ġ8 4
Ġst eve
Ġl ost
ĠJ azz
Ġ9 1
Ġby e
ĠWeek ly
ut es
Ġ12 5
Ġch ina
ĠCon dition
Ġ197 2
ĠAr ch
Ġro ck
ath er
Ġ196 1
Ġ196 5
ĠSh irt
ĠEx p
ĠBuil d
ex ico
ĠOth ers
Ġind ian
ose ph
ĠCy ril
Ġspe ed
ĠHor se
Ġolymp ic
ancis co
ĠDevel oper
Ġprinc es
A M
E S
I I
I n
c ons
l i
o la
r ing
v es
w ell
Å ¡
ĠS ign
ĠS ydney
ĠA ustralian
en e
ĠP ub
ĠT ies
ĠR nd
Ġ( Â
Ġs he
la d
ĠG overn
Ġc red
ĠH and
Ġm y
Ġm ax
ear s
ro p
ul gar
Ġw e
ĠI d
Ġg ian
ĠSt reak
Ġh en
Ġv ote
Ġ8 2
Ġ8 3
Ġ8 5
our s
Ġl oss
ĠCh urch
Ġ10 1
ip i
ĠCom b
ov e
ĠK ick
Ġle ad
Ġpo pulation
200 5
Ġ195 8
ĠRele ased
Ġsp onsor
ele cted
Ġjohn son
ĠMark et
Ġchar les
ĠCenter fold
ĠEst ablished
ĠIs land
Ġrace way
ech n
Ġbuil t
Ġstro kes
Ġadmin istered
itts burgh
ĠCyril lic
A L
a a
c os
h an
s hip
Ð µ
ĠW ickets
ĠD est
ĠD own
ĠM ission
Ġc ons
ĠE qu
Ġd on
ĠB o
ĠB le
ĠB as
ĠB ob
et res
ro du
ĠSt reet
Ġ0 7
Ġj ones
em b
ult ural
ĠJ im
ĠJ ack
Ġk e
Ġ10 7
if ic
lo y
ach t
ĠChamp ions
200 6
200 8
Ġth omas
ĠConstru ction
ĠCar olina
ĠSet t
ĠMed al
atur al
uck land
Ġhaw ks
ĠSem i
aff ected
erland s
ĠSer ial
Ġloc al
ĠSocial ist
Ġmas erati
ĠVac ator
iny in
ĠPack age
Ġrele ase
I S
S h
a ug
m ark
p g
p ut
r ation
v ent
Ä ĩ
Ġ ver
ĠA delaide
ĠC anad
am ed
ar m
ĠR ight
Ġ( $)
ĠN on
Ġs am
la v
ĠG u
ch a
Ġh o
Ġh am
Ġj an
art ers
id th
Ġr atio
ag es
ary land
Ġch oice
Ġair port
op le
200 7
enn y
eth erlands
ĠSp onsor
Ġcom mentator
iam i
Ã¡ n
Ġcon stru
ĠOb ama
Ġking dom
E O
c om
d y
l ine
r pm
u tt
w are
à ¤
Ġt v
Ġt op
ĠC rew
ĠP et
ĠP inyin
ĠD ance
ĠM em
ĠL ine
ĠN or
Ġs k
ed ing
ĠG own
ĠG erman
Ġc r
Ġm al
re l
is p
Ġb er
Ġd own
el son
ro s
ĠSt olen
id ers
Ġr angers
Ġl ab
ĠCh rist
Ġ10 5
he ad
ip al
pe ct
Ġe urope
Ġde v
ment s
Ġ195 5
Ġ195 9
ĠFinal s
ĠPr inc
ĠPr oto
vel and
ĠComm ission
ĠEd ition
Ġbel g
mon ton
place ment
ĠIt al
ĠScot t
Ġange les
ĠBle eding
k ee
m itt
n et
r ange
s qmi
z il
Ã ¸
ĠS ki
ĠS ales
le ans
ĠF uel
ar n
ĠT our
ĠT onn
ĠD on
ĠD el
ĠR ad
ĠM ass
ou ver
Ġs um
ce l
ri zz
Ġm i
Ġd an
Ġd ie
ĠB ack
ĠV ote
ra c
ĠI S
ad or
Ġj e
Ġl ar
ĠCh ief
ow ard
ard in
ard inal
ut ch
Ġ11 3
ak i
du st
20 12
land o
ĠTh urs
Ġ195 6
enn is
Ġar g
ok e
anc ouver
Ġth is
cent age
ĠRating s
ĠHead qu
ĠDes cription
ĠPremier e
ĠPenn sylvania
Ġmart in
Ġatl anta
ĠMcC ain
ĠSen ior
ĠLar gest
draw n
ĠSett lement
ĠTonn age
T eam
c s
f m
i us
i lers
l ies
p or
r as
t o
v en
w orth
Ġt ri
ĠW ith
er o
ĠC opa
an ch
am ie
ĠP e
ĠP eter
al f
ĠR el
ĠM et
ĠM art
Ġ( $
ĠL ate
ĠN GC
Ġs ant
Ġc as
ĠH ar
Ġm iss
Ġb o
ay ne
ay lor
ig ital
Ġw il
Ġw eek
ss on
ĠSt andard
Ġh a
ist an
Ġj u
Ġ8 7
Ġst an
ill ions
Ġ10 3
ard o
ĠK n
Ġro ad
Ġla ps
Ġgr ound
Ġper centage
Ġclass ic
ĠPre f
ren ch
0000 0000
ĠâĢ Ķ
ĠElector ate
ĠkW h
Ġrid er
apol is
ĠBrit ish
ĠDest ination
ĠPrinc ipal
T C
b a
c ar
f o
r ol
v ed
Ġ ang
Ġt ur
Ġt exas
ĠW ed
ĠF ound
ĠF em
ĠA irc
er a
ĠC ast
ĠC alifornia
en ch
ĠT ues
ĠM a
Ġs and
ĠG EO
Ġc c
Ġp res
Ġb rown
Ġd em
Ġf a
Ġn y
ĠV eh
Ġa p
Ġa ut
Ġ0 6
Ġr ome
Ġr fc
Ġ9 2
ĠIn dex
ag les
ĠU rban
ĠTo ok
ĠBr and
Ġse ats
ĠDe b
ĠDe f
ĠMar ri
ach e
Ġla w
Ġ196 0
Ġ196 3
ĠTh omas
ĠSh ow
Ġ195 4
mer cial
Ġpro gram
Ġas c
Ġgre g
ild ren
ĠLos er
aj i
uck y
oy s
ĠLat in
Ġme aning
Ġrecord s
Ġsw eden
Ġis land
ĠPur se
Ġdal las
ĠEcon om
ĠId ent
rizz lies
ĠHeadqu arters
ĠAirc raft
O ption
e es
g es
o ph
r an
Ã ¤
Ġ Î
Ġ ent
le ss
er ia
in ing
ĠT ur
ĠM int
st ed
ĠL y
ĠN um
Ġs ur
Ġc b
Ġc areer
ĠO ct
Ġm ac
Ġm cc
re y
Ġp eak
Ġp ittsburgh
ĠB in
ĠB ig
ĠB onus
Ġf if
Ġ0 5
Ġj eff
Ġl i
ĠJ eff
Ġ9 4
Ġ9 6
Ġk im
ĠWeek s
Ġ12 0
Ġ15 0
ĠK e
20 13
Ġro b
ĠFin ale
ĠUn ited
ah a
Ġad dress
att ing
Ġcol or
Ġqu al
bur y
Ġph oenix
amil ton
ree k
Ġcount y
Ġwh ite
Ġaward s
ĠCont ent
ĠCont estant
Ġdef ensive
Ġscot land
ĠWhe el
ĠSn atch
Ġ(Â £
Ġconstru ctor
b re
c us
g y
g ary
i as
k ansas
t itude
u ri
y r
Ð ½
à ¦
ã Ĥ
Ġ ay
ĠS a
ĠS m
ĠW e
ĠF rench
ĠA cc
in as
an z
an ish
ĠT ar
ĠT imeslot
al a
ion al
ĠN atural
ent ucky
Ġc urrent
ri ots
re tt
re gate
Ġb b
Ġb roadcast
ĠY acht
Ġd is
Ġd ifference
Ġd ays
ĠB ush
Ġf amily
un a
th ony
im ate
Ġg ain
Ġh ome
igh ts
Ġv ancouver
id ence
Ġr om
Ġ8 6
Ġst age
ain t
ĠLe vel
Ġre port
ĠCon s
qu es
ak a
Ġy am
umb ia
av y
ack le
ĠQ uest
Ġro d
rom b
ach us
200 3
Ġra d
ĠFinal ist
ĠPre limin
ris h
iz ation
ram a
ĠJo e
ĠÂ °
Ġcount ry
ĠTor onto
Ġval ue
Ġcent re
Ġjo e
Ġmot ors
opp osed
ĠFour th
ardin ia
ĠMint age
Ġqual ification
U K
c ats
l ist
s p
u ch
à ¸
ĠS C
ĠS am
ĠS ack
Ġt er
Ġt ony
Ġt ennessee
Ġt ackle
ĠC ross
ĠP itch
ĠM ag
it es
ĠL M
ĠN BA
Ġs f
la ps
Ġc ast
ĠO n
ĠO ne
Ġm at
Ġm el
Ġm ap
re t
ol i
ol ong
Ġb orn
ĠE mp
Ġd emocrat
ĠB atting
et te
ay a
Ġw ork
ra ig
ĠWin d
Ġv illa
ĠCh ris
ĠJ ames
ĠIn dust
ow a
est ival
ĠEn t
ĠPart ial
Ġse cond
Ġfor d
Ġat t
ĠQu arter
ĠEx ample
ock et
Ġcap ital
Ġcol lege
Ġi i
ĠDis placement
ĠOr lando
Ġjack son
lot te
ĠBow l
ĠWeb site
Ġgen eral
ĠDeath s
ĠRepresent ative
Ġorig in
ĠBB C
allen ge
ĠRober t
ĠVilla ge
ĠVeh icle
Ġcolor ado
ĠQuest ions
olong ed
G S
T erritory
i en
m it
p ool
u j
Ä ģ
Ð ¸
à ²
Ġt ak
Ġt erm
ĠF ri
ar io
al i
ĠR uss
ĠM ost
st one
ou g
Ġs em
Ġs port
Ġm exico
Ġm pg
Ġp enn
Ġb rad
Ġb illion
ĠB en
ĠB or
Ġf ree
Ġ4 00
âĢ ²
âĢ Ļ
Ġj ul
Ġj ac
Ġl o
Ġl ong
Ġk ardinia
ip s
ut e
pe c
iv il
ian o
Ġre ce
ĠK ar
Ġfor ward
ĠDriver s
pul ar
ach er
Ġ196 2
Ġ195 1
Ġ195 7
ĠRo y
ĠMon th
de pend
erv ative
Ġfr ench
Ġus a
Ġgre at
Ġqu arter
Ġu k
Ġu fc
ĠPl ate
Ġrich ard
ĠMe et
Ġbu ffalo
Ã¼ r
ĠFr ank
ĠAgg regate
ĠWork s
bor ough
alen t
ĠPil ot
Ġry an
Ġmich igan
ĠAnn ual
ĠGar field
ĠProgram ming
Ġgian ts
isp anic
range ment
Ġsum mer
A r
E ng
R eg
f or
h l
i ence
k ov
m o
x x
Ġ up
ĠS T
Ġt e
Ġt al
Ġt re
Ġt ro
ĠW al
ĠA ustralia
ĠA uckland
ĠP en
ĠT echn
ĠD igital
st ic
es p
ou te
Ġs ky
Ġs qmi
ĠO ld
Ġm att
ĠY ES
Ġd am
Ġd ick
et ts
ro vince
ch er
Ġn amed
ĠV erb
un c
and o
Ġw ing
im al
im ore
ist rat
ist ration
Ġj er
Ġv fl
Ġl y
Ġ10 6
Ġ10 8
ire land
ish op
ĠDe le
ĠTh ree
Ġ195 3
ĠApp ar
Ġseason s
Ġsp orts
ĠLead er
Ġge orge
Ġge orgia
Ġchamp ion
Ġco ach
Ġdav e
ĠMed als
ĠComm un
Ġsu pport
ĠAd min
ĠOper ator
ander ers
ĠAs ian
led on
Ġcent ral
Ġdes ign
ĠBow ling
ĠRock ets
ĠSte als
Ġbl ue
ĠCent ral
ĠBlock s
imb ledon
ĠJud ge
ĠComb ined
Ġprogram s
Ġasc ension
Ġfif a
achus etts
laps ed
istrat ive
E T
M W
R ank
S P
b ane
c le
c al
i y
k lah
m el
p et
p orts
Ã ±
Ñ Ģ
Ġ river
ĠS y
ĠS ocket
Ġt s
ĠW ashington
ĠF lorida
ĠA lex
in ch
at ure
ĠC ost
ĠT wo
ĠD et
ĠM ich
ĠM ike
Ġs en
Ġs al
Ġs ystem
om ot
Ġm iami
Ġd a
Ġd ar
Ġd rama
el la
el lo
el ly
ĠRe al
ĠV irginia
ome stic
Ġw ill
ur g
Ġ0 1
Ġh y
Ġh ol
Ġh ouston
Ġst ar
Ġl in
Ġk ore
ĠIn v
Ġ11 2
Ġe uro
Ġe agles
10 1
ĠK it
ang er
Ġro s
iver y
ĠUn opposed
Ġth romb
ĠCar l
Ġfr ancisco
ris bane
ĠTrans lation
Ġâ Ĥ¬
Ġq f
ĠBar ang
ĠDay s
ĠMin ister
ĠMin utes
Ġcomp etition
ĠGe orgia
ĠOb ject
alify ing
Ġpat riots
alt imore
uns wick
ĠTro phy
ĠInt rodu
Ġtrans lation
ĠVol ume
Ġdeath s
Ġtig er
Ġruss ia
ĠKick off
Sh are
Ġdemocrat ic
klah oma
2 11
L aps
M E
b ar
c ia
h o
h p
p ar
p son
u z
} }
Ä į
Å «
Ġ '
Ġ eth
ĠS ab
Ġt ech
ĠW il
ĠW ord
at o
ĠC ru
ĠC ivil
ĠT ri
ĠD o
ĠM or
es h
Ġs er
Ġs ong
ĠPo st
ri er
Ġm ost
Ġp s
Ġp ass
Ġ3 00
oun c
ĠE r
ĠB and
Ġf ern
Ġf ox
Ġw eb
Ġw ales
im um
Ġg er
Ġg ary
ĠSt eve
Ġ0 4
Ġh old
Ġin v
Ġv ol
Ġk ansas
if ier
Ġ11 1
os c
os er
Ġ18 0
ĠCol ors
ĠLe gs
amp a
ff ield
ĠComp leted
Ġand rew
ph en
fer rie
ĠAr rival
ik a
og ra
op s
ĠPer th
rom bin
ath an
ann y
ell s
Ġele ctric
Ġ195 2
lish er
Ġal bert
Ġar rangement
ĠForm ula
ĠPartner ing
ail able
ĠLa id
let ic
nes day
ĠPr oth
Ġph il
Ġplay er
ĠTown land
Ġmon ey
ĠGe orge
ĠâĢ ¢
ĠPoll ing
Ġsub ject
Ġsub mission
ĠLi beral
ĠÃ Ĺ
urt is
Ġant on
Ġmus ic
Ġact ress
ĠDesign ation
str eam
ĠUnd er
Ġglen ferrie
Ġamer ican
ĠML S
ĠCommission ed
Ġdie go
Ġyam aha
ĠEmp loy
ĠAdmin istrative
ĠProth rombin
3 00
A C
A N
F A
F S
R T
S pec
V D
c u
d a
e ast
h ar
h aw
i Äĩ
k in
n ic
o z
p in
u y
u ff
w au
Å Ĥ
ĠS ystem
ĠS ave
ĠA A
ĠA t
on i
or a
ĠT im
ĠD omestic
ĠR iver
it an
Ġ( /
ĠL u
ĠN C
om inal
Ġc a
Ġc y
Ġm et
Ġd i
Ġd raw
ĠB ats
Ġf ed
ch en
Ġa cc
um an
im a
ra in
ĠI ll
od d
Ġg arden
ĠSt ory
ap ore
Ġv irginia
Ġl ine
Ġl ondon
ĠJ amie
Ġk en
Ġ10 9
he im
ĠCom mercial
ĠLe g
10 3
Ġle ng
14 0
ier re
ĠForm er
Ġcom mun
ĠNet fl
ille d
ĠAss ist
ev a
Ġbr unswick
Ġ194 8
ĠLos es
ĠBirth place
itt le
ĠTown ship
itz erland
Ġex p
Ġmag n
gr ound
Ġprodu ct
ĠRom aji
idd le
Ð¾ Ð
Ġcle veland
Ġepis ode
ste in
Ġhousehold s
ĠSatur day
Ġcons ervative
ĠTar get
omot ive
wau kee
Ġleng th
ĠNetfl ix
2 10
A ge
F C
G N
M Hz
O L
b ast
h ill
n al
o a
à ¯
Ġ É
Ġ 00
Ġ ill
Ġ ireland
ĠW k
ĠW ar
ĠF ire
ab ility
ĠC ele
ĠP M
al am
ĠD r
ĠR ange
ĠM ac
ĠM etro
it ation
st all
st anding
om en
ed u
ĠG rizzlies
ĠO f
ĠPo int
Ġm ov
Ġp i
is m
Ġ3 50
Ġb or
Ġb ank
Ġb ud
ot us
ĠB ra
el le
Ġn ations
Ġn etherlands
Ġo ak
ue fa
ber s
Ġh er
Ġh ours
Ġj on
Ġin fo
Ġl p
Ġl ions
ip ts
ip inas
Ġ11 0
Ġ11 7
ric an
ast er
ĠPro v
10 5
ac o
amp ton
ug h
ug u
lo ss
op last
ann e
Ġele ctor
cc up
ĠSh oot
ix on
oub le
Ġad am
ail s
Ġas ian
Ġ194 3
inc inn
ĠScor es
Ġind ia
ĠAg ric
ĠZ one
ĠDis c
af s
air s
ĠEd ward
Ġval ley
ays ia
ĠTy res
Ġdes cription
ĠRec ipi
ĠPil ipinas
Ġbrit ain
Ġwat son
ĠSemifinal ists
ĠLouis iana
Ġindian apolis
Ġhen ry
ĠItal ian
ĠRad io
ĠWith drawn
ĠDeb t
ĠIdent ifier
ĠLy ric
ĠPitch er
Reg ion
ĠInv est
Ġthromb oplast
incinn ati
Ġthromboplast in
) ,
c ur
d on
d ie
h h
j e
k ins
l s
u i
u ki
Ã £
Ġ ur
Ġ iss
Ġt ou
Ġt ko
ĠW C
ĠF t
ĠF ar
ĠF ac
ab ama
ĠA ud
ĠC amp
ĠP ublic
ar ch
ĠT ennessee
ĠD iv
ĠD VD
ĠM ult
it ants
ou ri
ĠL ee
ĠN ot
Ġs i
Ġs qu
Ġs erved
ic i
ent ial
ĠG o
Ġc amp
ri z
ri al
Ġm id
ol n
is a
is ed
Ġb and
Ġb ur
ĠE ff
Ġf ar
ĠRe ce
ĠV ict
ĠV oice
ig ion
ig ures
th ers
th ew
Ġw ild
Ġw anderers
ad ion
ad em
ist rict
Ġj ason
Ġj ets
Ġin t
Ġin stall
Ġl or
ĠCh art
ĠJ un
Ġ201 4
ĠIn nings
ies el
Ġre m
10 2
row s
ak h
Ġle on
ust ria
oc i
ĠAl bert
ord an
iss ipp
omin ation
ĠSh ort
Ġper iod
Ġal fa
28 0
ĠRo b
anc er
ib le
Ġbr on
Ġman chester
ĠChar les
ĠNomin ation
Ġdav is
ind i
Ġed monton
vi ation
Ġsu ccess
ĠPar ish
Ġrep ublican
bo ard
ĠAAA AA
ĠBl ue
ĠPenn ant
ĠRom an
Ġbuil d
Ġform al
Ã³ n
Ġqualify ing
Ġcal gary
Ġout standing
Ġpremier e
enz o
hab itants
mitt ed
ĠThurs day
ĠBor ough
ounc il
osc ow
Ġinstall ation
issipp i
4 00
C L
O A
O N
V A
a un
a ut
d i
h ib
l ie
n ip
o is
p o
s y
s er
u art
u zz
Ġ uefa
ĠA st
on z
an et
am o
ĠP ict
ar at
ĠT est
ĠT ied
ĠM y
ĠM od
ĠM ale
ĠM att
ĠM aryland
it o
st al
Ġ( -
ĠN m
Ġs m
ri k
ri but
ĠH ard
Ġm ajor
Ġp av
Ġb rook
Ġd er
Ġd aniel
ĠB ud
ĠB orn
ct ure
Ġo ct
Ġo hio
ig i
th e
and ro
Ġw imbledon
Ġg i
Ġin dex
ĠRes idence
Ġv ia
Ġ8 00
Ġl im
Ġk o
Ġ10 4
ĠTitle s
ip e
Ġ12 2
Ġ11 6
os a
Ġre l
Ġ14 0
10 6
Ġ13 0
Ġ13 6
ĠK erry
ĠDe parture
12 5
se cond
13 8
ĠAr ab
ly n
ĠAl tern
Ġal bum
ĠApp oint
enn a
Ġar iz
len e
Ġsouth ern
ris m
ide o
Ġi owa
lin ation
Ġ194 0
ena ult
inc oln
Ġrank ing
ĠGre g
ĠWest ern
Ġbill s
br ity
Ġmil ler
pl ified
ĠAc qu
Ġmus ical
Ġbru ins
ĠSol o
ĠTrain er
Ġtig ers
ĠFC C
Ġnor way
Ġray mond
Ġshe ffield
ĠGovern or
ĠMem ory
Ġarg ent
ĠPlate let
Ġtro phy
ĠDele gate
Ġkore a
ĠBarang ay
Ġill inois
ĠProv ider
Ġariz ona
. (
6 00
G A
N one
Q u
h ard
h ang
i ens
m w
m ar
n ess
p ol
s ide
s ki
v ate
y ota
Ã §
Ã º
á Ł
Ġ ash
ĠS ets
le tt
Ġt ar
Ġt el
ĠW or
ĠW ood
ĠW icket
ĠW rest
ĠF a
ĠA C
ĠC an
ĠC art
ĠC ant
ĠP ap
ĠP BA
ĠT ier
ĠR ail
ĠM ajor
ion e
ĠL aw
ĠL ink
ĠL ondon
Ġs y
Ġs ab
Ġs uper
Ġs aint
ed y
Ġc f
ĠO l
ĠO ccup
ri ke
ĠH ill
Ġm ass
Ġp ac
Ġp unt
ol ph
ol ved
Ġb al
Ġb ol
Ġb us
il ing
ĠE du
Ġd f
ĠB ank
ĠB ulgar
Ġf lo
Ġf ilm
ver t
ver y
ĠV ess
ir k
Ġa uthor
ĠLo west
Ġw omen
ra ight
ĠWin ter
Ġh p
ist a
Ġj oseph
ĠRes erved
Ġv el
Ġv ik
id s
Ġr ub
Ġr ating
ick s
Ġst andard
ĠCh e
ow ers
est yle
if t
Ġ12 3
Ġ11 5
ze ch
Ġre al
Ġ14 5
10 4
ac on
Ġse attle
Ġ13 5
ĠK ing
ĠK illed
ant ic
ĠGold en
11 5
ĠInc oming
ans k
Ġmar io
14 1
ath on
Ġth ird
ĠSp r
ĠSp ace
ĠLab or
atur ated
ĠScor ers
Ġed ward
ĠComm on
org an
af e
Ġscor ed
ili pp
Ġcl ark
back er
ĠWh ite
ĠAnd rew
Ġfin ish
ĠAAA A
ĠLi bert
ĠBl ank
Ġprodu ced
Ġpol and
Ġorig inal
Ġroy al
Ġac res
Ġbra zil
Ġepis odes
olog y
Ġmem orial
ĠPub lisher
Ġcred its
Ġcr icket
ĠSki pper
ĠMass achusetts
cel ona
ĠPref ect
bre viation
Ġelector ates
cur ity
nip eg
1 10
B N
D R
S U
c raft
g en
g ress
l ar
l ow
l ier
m ad
n i
n o
n am
r ome
s l
t v
u a
w ich
Ã ¥
Ã ¨
Ã Ĺ
Ð º
Ñ Ĥ
Ġ et
Ġ ut
Ġ ott
ĠS o
ĠS at
ĠS um
ĠS oft
ĠS lov
ĠS ansk
Ġt w
ĠA uth
ĠC lock
or ies
ĠP A
ĠP C
ar o
ar on
ar es
ĠT e
al yst
al cons
ĠR a
ĠR oute
Ġ( Â°
ĠL ive
ĠN ord
Ġs ource
00 8
ed o
Ġc la
Ġc andid
Ġc raig
ĠO ly
Ġp ack
ol ic
Ġb ridge
Ġb rian
ot ed
ĠB u
ĠB ase
ĠB road
Ġf em
ro e
ch i
Ġn a
Ġn orm
ĠV irt
ue z
Ġw eight
Ġg al
ur d
Ġh ockey
Ġh amilton
ance l
id ed
Ġr u
Ġr en
Ġr pm
our t
Ġst ud
Ġst ew
Ġl anguage
Ġl ove
Ġl incoln
ĠSe at
ĠJ ew
ia c
ck s
ow b
ens on
ĠPro b
Ġ14 8
ĠCon ne
ĠK enn
row th
Ġun affected
Ġy ou
11 2
anu el
ĠProdu ct
Ġro bin
ell i
ern ie
Ġar rival
ĠInter net
Ġad mitted
Ġgre e
Ġbr m
Ġ194 1
Ġpri ze
ĠStation s
ĠOpen ing
sh ire
ĠBar rel
ĠSing le
Ġres ult
ĠTro fe
dition al
Ġchrist ian
final s
ĠMot ors
Ġsim on
ĠDen omination
ĠBody weight
ĠBuild ing
ĠCanad ian
ĠBack ground
rac use
Ġwil son
ĠMarri age
Ġrad io
ĠPrelimin ary
Ġjer k
ĠAppar ent
ĠIll inois
ĠCele brity
ĠAgric ultural
Ġsuccess ors
hib ition
ĠAppoint ed
ĠSansk rit
ĠOly mp
Ġstew art
ĠTrofe o
8 00
8 06
D S
D river
I ssue
P ar
_ {
a ver
b ell
b ital
c i
c ess
c ont
l iter
m outh
n um
p a
p rovince
r m
r ong
v is
w a
Ñ ĥ
Ġ it
Ġ ear
Ġ ot
ĠS l
ĠS mith
Ġt y
ĠW ill
ab y
ĠA ut
ĠAN SI
at in
ĠC a
ĠC r
ĠC al
ĠC re
ĠC ore
ĠP resent
ĠT amil
ĠD am
ĠD ar
ĠD omin
ĠD rop
ĠR id
ĠL ind
ĠN T
ĠN ight
Ġs ol
Ġs hip
ent h
Ġc ensus
Ġc incinnati
ĠO d
ĠO hio
ĠH o
ĠH ol
ĠH ot
ĠH oward
Ġm o
Ġm and
Ġm ck
re g
Ġp ub
is ation
is cons
Ġb la
Ġb ears
Ġb risbane
Ġb altimore
Ġb mw
ear ch
ear ance
Ġd n
Ġd ances
el f
el ine
Ġf ort
et ter
et work
Ġn ak
ver se
Ġo ilers
ĠV ice
Ġa ustralian
and a
and s
ĠI m
ĠI rish
Ġ0 3
Ġh ung
Ġj os
Ġj ud
Ġj ust
Ġj ustin
ry stal
Ġv enue
ub lin
ĠCh ildren
Ġk ings
ia go
ck er
ĠNo s
Ġ11 4
Ġe qu
iv id
Ġre c
rid ay
Ġ14 7
ĠCon f
Ġ15 5
Ġle vel
ud eria
11 7
20 8
13 9
Ġtitle s
te gr
200 4
ĠQu alifying
ĠRegion al
Ġor leans
Ġapril ia
Ġth ree
ob ile
ĠSp ike
27 9
ĠTrans mission
ress ure
Ġcol ts
Ġcol umbia
Ġi ii
Ġchamp ions
amil ies
Ġco ast
ĠComm ander
Ġsu ccessor
ater ial
Ġcarl os
ĠMin nesota
ĠOr gan
Ġcanad iens
ĠSouth ern
Ġcomp any
Ġsw itzerland
ij ing
Ġsc uderia
ĠOper ating
Ġrep lay
ĠWh o
Ġjim my
bor o
Ġmot or
Ġdec ision
ĠWilliam s
ĠMal ay
Ġsa ints
Ġbrit ish
PP P
Ġamer ica
ĠProf its
Ġprof it
ĠCle an
ĠTon nes
Ġcos p
Ġke vin
ĠIS BN
ĠMart in
Ġju an
oph er
ĠIntrodu ced
ogra ph
Ġanton io
Ġacc ident
Ġline backer
Ġoak land
Ã£ o
Ġbron cos
pol itan
ĠEdu c
Driver s
iscons in
2 13
A way
C S
C ards
E D
E P
L oss
P M
Y ear
c ol
d art
e z
g i
h i
l iga
m ath
m ann
s u
u ed
w en
Ġ ou
Ġ core
Ġ ian
ĠS al
ĠS id
Ġt a
Ġt ax
Ġt ampa
ĠF un
ĠF igures
ab ham
er ing
at re
at ors
ĠP an
ĠT r
ĠD etroit
ĠR ap
ĠM at
ĠM ad
it ary
it ive
Ġs o
Ġs ilver
Ġs Spec
ic es
om b
ĠG al
Ġc an
Ġc ro
Ġc ardinal
ĠH all
ĠCO N
Ġp a
Ġp anel
Ġb ulgar
Ġ19 29
Ġd rag
ĠB lo
ĠB rown
el t
et a
Ġn on
Ġa way
Ġa ud
Ġa delaide
Ġw r
ra el
Ġg il
ĠSt ates
ĠSt anding
Ġh ay
Ġj erry
Ġv ot
Ġst raight
ĠAtt emp
Ġl otus
ĠSe pt
Ġ12 8
ens ions
Ġ18 7
ĠPro ject
rig h
ĠCon tr
Ġpar ish
10 9
ĠK h
ĠK ansas
ant e
Ġle afs
ĠComp oser
Ġy oung
11 4
Ġpo pular
ond ay
ĠReg istration
19 91
Ġmar ia
13 4
ĠAr kansas
ĠQ ue
oh a
ĠAl titude
ann a
ord on
28 8
ĠEle ctric
ĠUn affected
ĠCap ita
ĠSp ouse
ĠDec lination
ib ining
ĠAss emb
ail ures
ĠAn ge
Ġ194 2
Ġ194 6
Ġbe ijing
ĠOper a
ĠMe aning
ise um
Ġfin ale
Ġmatch es
ĠHouse hold
ĠNe ut
pend it
Ġden ver
Ġalex ander
Ġwood s
ĠMot or
Ġcos worth
ĠBall s
Ġbelg ium
ĠLate st
ĠFem ale
ĠTues day
Ġrome o
Ġent ries
ĠBin ibining
Ġmap le
Ar t
ĠCru de
Ġfern ando
Ġcommun ity
Ġmagn itude
Ġsqu are
ĠRail way
ĠAuth ors
liter ation
ĠOd ds
ivid ual
math rm
ĠAttemp ts
' t
G P
M ark
T M
T otal
U TC
b i
b al
d ale
f all
k ers
l an
n ik
p al
p ts
p ose
r n
u ins
u ji
y y
à ¥
Ġ IN
Ġ id
Ġ old
ĠS P
Ġt on
Ġt elev
Ġt ower
Ġt alle
ĠF S
ĠF ate
ĠF ed
er ic
ĠC la
ĠC urr
ĠC ardinal
ĠP R
Ġ2 10
al ph
ĠD u
ĠD aniel
ĠR y
ĠR owers
ĠM S
ĠM id
ĠM ont
Ġs s
Ġs old
la g
Ġc art
Ġc irc
Ġc lim
ĠH aw
ĠH ispanic
Ġm ount
Ġm ain
Ġp ed
Ġb a
Ġb as
Ġb ul
il s
Ġ19 34
ĠE uro
ĠE lapsed
Ġd o
Ġd iameter
Ġd iesel
ĠB ul
ĠB us
ct ic
ĠRe a
ĠRe m
ĠRe st
Ġn i
Ġn etwork
ir m
Ġa aa
Ġa ustria
ig uel
th ur
Ġw c
Ġw y
Ġw ed
ĠI mp
ĠI TV
Ġg t
Ġg own
ĠSt rike
Ġ0 2
Ġh all
Ġh ale
Ġh Cards
Ġj ersey
em an
ĠCount ries
Ġv en
Ġv ij
Ġv alen
Ġst ation
Ġst orm
Ġl b
ĠCh ap
ĠCh icago
ĠJ ul
ĠJ oseph
ag ed
Ġ12 9
Ġ11 9
ric h
iv ity
Ġch el
ĠPro hibition
Ġre st
rid e
ĠPart icip
Ġ15 00
Ġ13 2
Ġ13 9
ĠDe v
ud a
11 3
11 6
ew an
Ġand y
atch ewan
13 7
ost er
oc ity
ĠSur name
Ġto yota
ĠFre q
iver se
iver pool
ĠMon arch
ob a
eg an
Ġsing le
Ġjohn ny
Ġbr abham
ĠAn thony
Ġpri mary
Ġrun s
Ġind iana
Ġbar celona
ĠJohn son
ĠSing er
Ġmon th
Ġol iv
ĠSu pport
Ġhe ad
Ġab out
Ġcor io
ĠOper ation
áĥ Ĳ
ĠâĢ ł
Ġbill y
ĠCy cl
ĠAmer ica
Ġbob by
Ġprodu ction
ĠPasseng er
Ġform ula
ĠCent re
ĠPur pose
ask et
ask atchewan
Ġen erg
Ġann a
Ġroy als
ĠHD TV
Ġfe et
ĠRich ard
ĠFound ing
ĠEconom ic
depend ent
ĠCommun ity
ĠEmploy ees
ĠShoot er
ĠRecipi ent
uzz le
second s
ĠWor st
ĠWrest ler
ĠBulgar ian
Ġpack ers
owb oys
ĠContr ol
Art icles
Ġtalle st
ĠCurr ency
Ġvij ay
) /
1 20
2 12
7 00
C h
G ames
M etres
T own
c d
d o
e ased
g u
h ou
i ent
i os
j o
l it
m hz
n ed
o j
p le
p th
r um
s a
v ey
Ð »
Ñ Į
Ġ Ò
Ġ ç
Ġ els
ĠS ail
ĠS ince
Ġt our
Ġt wo
Ġt aylor
ĠF ore
ĠF estival
ab el
in ter
an ja
or f
ĠP al
ar ies
ĠT ig
ĠT urn
ĠT ally
al th
ĠR R
ĠR en
ĠR ay
ĠR ush
ĠM er
ĠM ole
st ra
ou d
ate ll
ĠL ife
ĠL OA
Ġs ar
la us
ed s
Ġc am
Ġc ub
Ġc ost
ĠH ay
Ġm ail
re as
Ġp as
Ġp ay
ol y
Ġb t
Ġb ry
Ġb art
Ġb ell
Ġb ern
Ġ19 39
ĠY es
ĠE T
ĠE m
ĠE ll
Ġd ire
Ġd istrict
ĠPla ces
ĠB P
ĠB R
ĠB ox
ĠB oston
Ġf ight
Ġf lor
Ġf ull
ro ke
ch an
ch ar
Ġn c
Ġn ight
Ġn one
Ġo per
Ġa z
un ter
ĠLo w
ig ner
Ġw ord
Ġw ide
Ġw ater
âĢ ³
ra v
ra ine
ad er
Ġh on
Ġh ong
Ġh eight
Ġh oward
Ġh alf
Ġj ay
ers hip
ap on
Ġv ill
Ġr ab
ick er
Ġst ee
Ġst atus
Ġl q
Ġl ight
Ġl ittle
ee p
ĠCh oice
Ġk u
Ġk az
Ġk entucky
ain ing
ag u
ag le
ĠU t
Ġ12 1
Ġ12 4
Ġ12 6
Ġ12 7
ian g
ian t
ĠPro cess
Ġre que
Ġ14 3
Ġpar is
ov iet
Ġ15 1
Ġ15 2
Ġ15 3
Ġse p
ort on
ĠK il
ĠTournament s
ak es
ak ia
ĠRun ning
ang a
pis ode
ĠEng land
ph a
19 96
se a
se ason
14 3
14 4
op ment
ĠOver s
Ġgr ass
act ers
Ġra iders
ĠApp lication
Ġsh ot
Ġar sen
Ġor eg
ĠCo verage
len g
ĠSp ok
ĠCar go
29 2
ĠFinish ed
ĠLab our
ib a
ĠUS A
Ġsing h
Ġâ Ĩ
au er
ĠAn ton
ird ate
Ã© t
Ġco ed
cast le
Ġbar b
ĠMov ie
Ġbe ach
Ġol iver
ĠOr leans
ĠDav is
ull s
US D
Ġfoot ball
Ġaward ed
Ġcl ar
Ġend ed
ĠInd iana
Ġfin land
ky o
ĠAb br
ĠMiss ouri
ĠAct ual
Ġwal ker
ĠSc re
Ġkn ows
ĠUnd ec
Ġath letic
Ġgra ham
Ġes p
ĠAf ter
Ġque ens
ĠML B
Ġcred it
ĠCanad a
Ġeurope an
ĠPe ople
ĠEconom y
Ġ(Â£ )
ĠSack s
Eng lish
ĠPen alt
Ġdesign ation
ĠMetro politan
ĠFac ility
ĠOccup ation
Ġvik ings
_{ \
ĠAnge les
Mark et
atell ite
Ġstee lers
Ġreque sted
Ġoreg on
) "
2 15
B C
C ity
E pisode
O P
a pp
b ot
c lass
d t
e en
e an
g ame
h ouse
l ia
m et
m und
r ence
r ats
t ime
t ies
t own
v o
w is
w eg
y e
Ñ ģ
à ±
Ġ !
Ġ \
Ġ è
Ġ é
Ġ UN
Ġ les
ĠS amp
Ġt odd
ĠF ord
ĠF atal
ĠF riday
ĠA U
on ia
in z
in ent
in ner
in son
ĠC P
ĠC am
ĠC as
ĠC ultural
ĠC ache
am i
ĠD ie
ĠR h
ĠR ain
ĠR og
ĠR etired
ĠM uzzle
it or
it iz
Ġs g
Ġs n
Ġs ince
ic c
ĠG ood
ĠG reek
Ġc ur
Ġc zech
ĠPo lish
ri b
ĠH am
Ġm ir
Ġm od
Ġm ur
Ġm ah
Ġm unicip
Ġm ales
Ġm aryland
Ġm oscow
re ll
Ġb ang
Ġb ase
Ġ19 0
Ġ19 26
ing ham
ĠY ou
Ġd in
Ġd ouble
ĠB a
ĠB ay
ĠB rook
Ġf le
Ġf our
ro let
Ġn s
Ġn ik
Ġn ico
ĠV ideo
ir ming
ir ls
Ġa le
un n
um ent
um acher
and le
Ġw ol
Ġw ells
Ġ6 00
ĠI V
ĠI ce
Ġg ri
Ġg as
end o
ad s
Ġh u
Ġh art
Ġj unior
Ġj ose
Ġj ordan
ap e
ĠRecord ed
Ġr ange
Ġr enault
ĠAtt ribut
Ġl and
Ġl ock
Ġl yn
ĠCh allenge
ard i
Ġe p
iv an
Ġre v
ĠBr anch
Ġ14 1
Ġ15 6
Ġse ated
Ġse cs
Ġ13 1
ĠK en
ĠK entucky
ru ck
Ġle v
ĠComp let
11 8
av i
av en
av ier
12 3
ph is
ph one
oc al
Ġro ss
ach ine
Ġla s
ath olic
25 0
Ġal b
Ġal f
28 1
Ġar m
Ġar row
ĠPri me
ley ball
ĠSp orts
ĠSp anish
ced es
cent s
ĠTra ditional
ev en
Ġbr and
bur n
ĠPr olonged
day s
ual ties
tain ment
ĠAd am
Ġpr olonged
ĠSu pp
ĠPar ent
ĠDav e
Ġchar gers
Ġchar lotte
Ġpart ners
ĠPh iladelphia
Ġtor que
Ġpat rick
ĠInd ian
ĠElev ated
ĠTou rism
Ġmil an
Ġres erv
Ġlouis iana
Ġà ®
ĠX I
ĠPort ray
Ġatl antic
ĠMil waukee
ĠMil itary
Ġstro ke
Ġden mark
ĠEurope an
orial s
ĠSemifinal s
Ġdu ke
Ġmer cedes
Ġenter tainment
Ġque en
ĠFe atur
ĠPlacing s
Ġperform er
Ġlar ry
ĠWed nesday
ĠFem ales
Ġli beral
ĠLM S
ĠIndust ry
ĠIndust rial
ĠEnt re
ĠRuss ian
Ġsem ifinal
ĠRoy al
ĠTechn ology
ĠDet ails
ugu ese
ici ency
oci ation
ĠPict orials
Ġargent ina
áŁ ł
vert ed
ĠVess el
Ġott awa
ĠSo ap
Ġcandid ates
ĠBroad way
Ġnorm an
Ġarrival s
ĠOlymp ics
Ġhung ary
ĠMalay alam
ĠEduc ational
Ġbulgar ia
Ġtelev ision
ctic ut
Ġchel sea
asket ball
Ġarsen al
ĠSpok esp
ĠAnton io
ĠFatal ities
irming ham
ĠAttribut e
. $)
1 000
7 50
B S
C I
M A
a irdate
e k
f an
f ed
f urt
h ol
h ood
j u
j un
j eld
m son
n ominal
p i
s ion
t age
v g
v ia
w all
z y
z en
Å ¾
â Ĥ¬
Ġ om
Ġ il
Ġ row
Ġ áĥ
Ġ right
ĠS qu
le ague
ĠW y
ĠW idth
ĠF I
ĠF M
on en
er y
in ary
at ory
at ial
ĠC atch
ĠC op
or i
or es
or pe
ĠP F
ĠP ay
ĠP age
ĠP ak
ĠP SI
ĠT DP
ĠT aylor
Ġ2 20
al om
ĠD T
ĠD im
ĠD ur
ĠD iff
ĠD utch
ĠR u
ĠR et
ĠR ivers
ĠM ade
ĠM ile
st ances
ou ld
ĠL iter
ĠL etter
ĠN O
ĠN i
Ġs oc
Ġs erg
Ġc ache
Ġc reek
ĠPo ly
ri son
ri ors
ri me
ĠH en
ĠH ang
ĠH yd
ĠH ouston
ĠH alf
Ġm f
Ġm ick
Ġm itch
Ġm iguel
re ased
ol o
ol ation
is ition
Ġb ad
Ġb reak
Ġ19 20
as m
ĠE th
Ġd omin
Ġd ancer
ĠB ec
ĠB rian
ct ions
Ġf ab
Ġf ra
Ġf ly
Ġf estival
ro x
ch ie
Ġn elson
ĠV o
ĠV iew
Ġa ug
um stances
Ġw he
ĠI I
ĠI P
od iac
Ġg ood
Ġh al
Ġh ur
Ġh unt
Ġj oh
em ent
em pt
Ġin c
Ġv oice
Ġst yle
Ġl ow
Ġl iverpool
us k
ĠSe ans
Ġk y
Ġk ong
Ġk enn
ĠIn habitants
ĠU pper
Ġ11 8
iv ing
Ġch ildren
ĠCom mentator
Ġse at
Ġ13 3
Ġ13 8
ĠK ore
ant o
Ġ16 6
ĠOriginal airdate
ĠDire ction
Ġun der
Ġy ard
20 7
Ġ17 9
anu cks
19 95
lo ad
Ġ25 5
ĠAr g
og s
op en
Ġwin ter
ale m
Ġto kyo
Ġele ction
ont al
ĠQu ad
28 4
28 7
ĠUn iverse
ĠCirc umstances
per ty
Ġcar pet
Ġsp ir
ĠSp an
ĠPre mi
27 4
27 7
ĠEx t
ĠGen es
ĠGen itive
ĠTrans literation
ax y
ark s
iz ontal
Ġcap acity
ony m
ĠFor ward
urr ay
ex t
Ġ194 7
aj a
ĠBirth date
ĠScor ing
Ġind oor
Ġopen ed
Ġplay ers
ote in
ĠZ odiac
ĠOr bital
Ġcomp leted
ij i
Ġan thony
ĠMus ical
ĠSk y
onsor ed
ĠSpec ial
ĠInd ia
ĠMax imum
uc a
ĠBill s
Ġloc ation
Ġital ian
ĠRock et
Ġact ive
Ġgold en
Ġstart ed
ĠRepresent ed
Ġmed al
Ġmad rid
Ġmad ison
Ġpan thers
ĠSch edu
ĠRich mond
Ġret ired
Ġover all
ĠArch ite
Ġlab el
ador es
Ġje an
por ation
Ġmiss issippi
Ġreport ers
ĠLM P
Ġrece iver
ĠMeet ings
Ġeth nic
à¯ į
ĠBra zil
Ġjon athan
ĠDisc ip
adem y
Ġrem aining
ĠAltern ate
ĠAcqu isition
olph ins
Ġvel ocity
ĠPrefect ure
Ġut ah
ĠProb ability
Ġgree ce
ĠSl alom
Ġjos Ã©
tegr ated
Ġcosp onsored
Ġpanel ists
ĠNeut ral
ĠRea ction
Ġenerg y
ĠFore ign
ĠUndec ided
ĠPSI P
# )
B I
B OL
E FA
F R
H A
J C
L oc
N m
P art
S ame
S im
b l
b ol
b ay
b ie
e ur
f ore
f amilies
h u
h er
h ampton
i ya
o el
p ren
r ough
s al
u x
u an
v et
v rolet
w ide
w idth
â Ĩ
Ġ ernie
ĠS R
ĠS ar
ĠS ud
ĠS ix
Ġt ier
Ġt ons
ĠF ive
ĠF IS
ĠA ccess
ĠA ustin
ĠA riz
er ick
in th
ĠC ash
ĠC red
ĠC ouncil
ĠC eased
en cing
am ar
ar us
ĠT ax
ĠT ickets
ĠT erritory
ĠD al
ĠD em
ĠD CS
ĠR on
ĠR ick
ĠM J
ĠM i
ĠM o
ĠM iles
ĠM onday
es liga
ou ts
Ġ( #)
ĠL in
ĠL ie
ĠL ake
ĠL ivery
ĠN etherlands
Ġs il
Ġs ir
Ġs amp
Ġs oviet
la ke
la ware
ic ros
00 3
om an
om pson
Ġc av
Ġc rystal
ĠO ber
ĠO tt
ĠO klahoma
ĠH any
Ġm m
Ġm u
Ġm ans
Ġm ale
Ġm anuel
Ġp ent
Ġp ly
Ġp ublic
ol ution
Ġb all
Ġb oy
Ġ19 2
Ġ19 36
Ġ19 32
Ġd x
Ġd et
Ġd iff
Ġd ennis
ĠB er
ĠB ishop
Ġf b
Ġf eb
Ġf ive
ro d
ch ange
ĠRe verse
Ġn g
Ġn um
Ġn ash
Ġo b
Ġo klahoma
ĠV an
ir on
Ġa st
Ġa ge
th a
th ard
and ra
Ġw ars
Ġw ta
im ir
im mer
âĢ ¢
ĠPlayer s
ra de
ĠI g
Ġg a
Ġg ear
Ġg overn
Ġg olf
ur b
Ġh orn
Ġh yd
Ġ20 4
Ġ20 5
Ġj ess
ĠRes earch
Ġv ic
Ġr b
Ġr on
Ġr am
Ġr and
ub b
our ces
Ġst ars
Ġl ie
Ġl ife
ĠLoc omotive
ĠSe curity
ĠJ ones
ill ip
ag a
ĠU CI
ĠU EFA
if er
if fer
Ġch allenge
Ġ18 5
ish er
Ġ14 4
Ġ14 9
ĠCon v
10 7
10 8
Ġ15 7
Ġde port
Ġde acon
ĠK ey
ĠDe part
ine es
ak ota
Ġ16 5
ĠClass ic
Ġle ft
pul sion
20 3
ust er
Ġ17 0
Ġ17 5
ĠMar athon
12 1
eb all
eb ras
Ġro ger
Ġla dy
ĠAl abama
Ġwin ners
Ġwin nipeg
ann on
ĠRace way
ign ed
15 0
Ġ29 7
ĠSh ot
aw n
Ġat p
28 5
Ġar kansas
Ġor gan
per ience
Ġth row
Ġnew castle
ict ion
ĠTrans cription
eg jeld
ners hip
iz ed
que st
ĠPl ant
emoc rats
ĠChar lotte
Ġcon ference
Ġcon ceded
Ġco ok
ĠScor er
ĠReport ed
Ġed die
Ġmin utes
Ġsu z
ĠDis co
ĠSing apore
Ġmon te
uss en
ĠSu ccess
Ġcanad ian
Ġsl ov
Ġpre vious
ald i
ĠVal ley
ĠPh on
ĠPh il
yn amo
Ġtom my
ĠAs pect
Ġpl at
ĠFr ancisco
ĠElev ator
ÃŃ a
ĠPat rick
ĠHor izontal
Ġtrans fer
ĠAct ive
ĠVol tage
Ġwal ter
Ġwar riors
Ġeast ern
che z
ĠSun k
Ġmor ris
Ġste phen
Ġfre ight
Ġfre estyle
Ġav ailable
ĠRober ts
ym n
Ġche vrolet
Ġenter ed
Ġperform ed
Ġperform ance
ĠSim plified
ĠBall arat
lav ia
ĠGu ard
Ġber lin
ĠMet ric
Ġstan ley
ĠPref ix
ĠFound ation
Ġisland ers
ĠKe vin
ĠWe apon
ĠAcc red
rett i
Ġbb c
Ġmotors port
Ġmotors ports
ĠWind ows
Ġatt endance
Ġrece ipts
Ġtal bot
unc an
Ġsupport ing
ME BOL
Ġinv olved
pin ion
Ġtou rist
Ġrel igion
ĠArab ic
ĠCant on
ĠOl iver
ĠSoft ware
ĠNord ic
Par ish
ĠCON MEBOL
ĠQue ens
pendit ure
ĠCardinal atial
Ġped ro
Ġvalen cia
ĠUt ah
Ã©t ico
rib ution
ĠEntre pren
ĠBec ame
ĠDiscip line
Loc ation
ĠAriz ona
ĠDCS F
ebras ka
ĠEntrepren eur
' m
. .
8 05
C ap
F M
H ispanic
I t
M et
M illions
P S
P rest
S e
T S
T rans
a ur
b le
b ox
c la
c ode
f eld
f ox
h ind
j an
l is
m iss
p ur
r Ã©
r ington
t il
z er
z ers
Ã ¬
Ä Ĺ
Ë Ī
Ð ²
å ¤
å ħ
Ġ :
ĠS I
ĠS r
ĠS ort
Ġt em
ĠW N
ĠW ang
ĠF if
ĠF ailures
ĠF irm
ĠA sh
ĠC OM
ĠC eremony
en es
ĠP a
ĠP ast
ĠP ione
ĠT en
ĠT ong
ĠT ele
ĠT ail
al k
ĠD X
ĠD rag
ĠR ally
ĠM el
ĠM ount
st an
st adion
Ġ( âĤ¬
ĠL ad
ĠL if
ĠN avy
Ġs us
Ġs ak
Ġs lo
Ġs erv
Ġs uns
la p
00 000
om inees
ed ed
ĠG iro
Ġc oul
Ġc anucks
ce ll
ri ve
ĠH C
ĠH al
ĠH amilton
ĠH anz
ĠH anja
Ġm un
Ġm ary
Ġm ile
Ġm anufacturer
Ġm idd
Ġm oor
ĠCO SP
Ġp la
Ġp age
Ġp ier
ol ine
Ġb ow
Ġb eng
Ġb road
Ġb urn
Ġb alle
Ġ19 19
Ġ19 30
Ġ19 28
Ġ19 05
Ġ19 35
ĠE U
Ġd ome
Ġd ur
Ġd est
Ġd ale
ĠB ear
ĠB ang
ĠB attle
el ty
Ġf el
Ġf ire
Ġf ounded
Ġf alcons
Ġo k
ĠV er
Ġa a
pp e
um a
um ed
um ph
th ous
ĠI r
Ġg ro
Ġg ir
Ġg ill
end ing
ĠSt rong
Ġh d
Ġh ugh
Ġ20 2
em a
ĠCount ies
id ad
Ġr ams
Ġst able
Ġl t
Ġl at
ĠCh arter
ĠCh rome
ĠSe ed
ĠJ ose
Ġk ang
Ġk elly
ia h
up s
Ġch ip
Ġch oke
ens en
ire ment
ĠCol our
ĠCol umbia
ĠPro pulsion
ac y
ac ional
Ġse c
Ġde pth
Ġ13 4
ĠK im
ĠK urs
ass i
ru cture
Ġ16 0
ter m
Ġle d
Ġun ivers
Ġy ards
20 9
land s
ĠNumber s
Ġand re
12 2
12 7
ond o
ĠReg istered
19 90
ik i
og a
og an
Ġ23 4
eng uins
Ġro se
Ġfinal s
Ġ27 4
ell ow
ĠTh rows
200 1
Ġ29 3
Ġper th
30 8
ane iro
28 3
ĠRo ss
len a
ĠPri vate
Ġsp ace
ĠPre c
27 8
ele ction
ile d
26 6
26 7
Ġus e
Ġus ers
ĠAv ailable
ĠNov elty
ĠMan chester
ĠStart ed
az ine
Ġbr onze
Ġnorth ern
Ġ194 5
ĠChar acters
lor er
Ġmc lar
ĠMed ia
mi les
ĠMember s
org en
Ġapp earance
Ġnot re
ĠDis p
oth ers
ĠAd dress
Ġcount ries
Ġpr ince
ĠEd monton
ĠMin or
Ġex pect
Ġme as
ull ivan
ald o
Ġcor ner
Ġan alyst
erem y
ĠTerm ination
ĠAs ians
Ġdef iciency
Ġrep ublic
Ġrep orts
Ġel im
Ġaf c
ĠFL ap
ĠFL aps
ations hip
uns aturated
Ġà ´
ĠTro p
ĠSte phen
Ġport land
ĠMil ler
emp le
ĠSun day
ĠWhe els
Ġbru ce
Ġev ans
à® ®
ĠSol ar
Ġnick laus
ĠMal aysia
Ġout put
Ġbirth s
Ġruss ell
Ġpal ace
olog ical
Ġprof ile
Ġret irement
Ġir win
ĠGra de
ĠArch ive
ĠExp lorer
In t
ĠBo ard
Ġsk ip
ĠDel ivery
Ġsant iago
Ġweek ly
00000000 00000
Ġfa ctor
Ġsur face
gy pt
Ġcurrent ly
Ġbb l
Ġmat thew
mit ter
Ġpenn sylvania
Ġlo an
Ġuk raine
Eng ine
kov Ã¡
ĠMich igan
Ġweb site
ĠFire fox
ĠLyric ist
ĠInvest ment
ĠDiv is
Ġwild cats
Ġlor enzo
Ġbuild ing
ĠSpace craft
ĠLibert adores
ĠBu ffalo
ĠVirt ual
atin um
ĠDomin ant
Ġpub lication
Ġcore y
ĠSid eline
Ġcirc uit
ĠBul let
ĠSupport ing
áĥĲ áĥ
Ġdire ctor
weg ian
ĠPortray ed
áŁł áŁł
ĠPoly unsaturated
ĠHen ry
ĠHang ul
ĠSchedu le
icros oft
ĠHany u
Ġnash ville
ĠDepart ment
ymn ast
Prest egjeld
ĠFif th
Ġcoul thard
ĠHanz i
ĠCOSP AR
ĠKurs k
Ġmclar en
2 14
6 25
B e
C om
F rom
G R
N ight
O y
O ce
P oly
R ating
T H
W eek
] ]
b c
b as
b and
b ank
b ec
c ury
d ers
f r
f ers
g il
g el
g iro
h r
h at
h ire
h ai
i u
i ance
i ors
j ust
k ey
l ian
m as
m ers
m aker
n ight
o ing
o ch
o las
p f
p ass
s q
s pe
s ville
t i
t el
u h
u v
u er
u ka
u ve
v or
v ik
w on
z i
½ ł
Â ½
Ã ł
Ä ±
Ð ´
Ñ Ĩ
à ³
á ŀ
ä ¸
Ġ if
Ġ ell
ĠS EC
ĠS he
ĠS af
ĠS ample
ĠS askatchewan
Ġt ul
Ġt erry
Ġt erritory
Ġt echn
ĠW at
ĠW SU
ĠF T
ĠF ort
ĠF ly
ab we
ĠA S
ĠA le
ĠA ired
ĠA AM
ĠA TM
er ation
in h
at ist
ĠC able
ĠC od
ĠC AL
ĠC ancel
en ko
an es
or age
ĠP ers
ar u
ar ia
ĠT er
Ġ2 13
ĠD id
ĠD FL
ĠD ual
ĠD oug
ĠD emocrats
ĠR U
ĠR am
ĠR ing
ĠR Att
ĠR angers
ĠM ir
ĠM oto
ĠM other
ĠM exico
ĠM aterial
it ans
it ial
ĠL L
ĠL or
ĠL ett
ĠL iga
ĠN elson
Ġs r
Ġs et
Ġs ox
ic ester
ĠG B
ĠG N
ĠG il
ĠG ary
Ġc oup
Ġc ob
Ġc urtis
Ġc elt
Ġc owboys
Ġc itiz
ĠO L
ĠH in
ĠH ear
Ġm ik
Ġm ob
Ġm ountain
Ġm iddle
re land
Ġp ist
Ġp att
Ġp ierre
Ġp ressure
Ġb ah
Ġb uck
il o
il t
Ġ19 00
Ġ19 10
Ġ19 14
Ġ19 23
Ġ19 07
as co
as aki
ĠE ric
Ġd ame
Ġd un
Ġd im
ĠB ur
ĠB urn
el ch
Ġf ig
Ġf ound
Ġf iji
et o
ch es
ĠRe mark
Ġn ig
Ġn ord
ver ty
Ġo s
Ġo w
ĠV ert
Ġa k
Ġa ff
pp a
ĠLo ve
Ġw a
Ġw isconsin
im ated
âĢ Ķ
ss els
ra k
ĠI ps
ĠI II
ĠI reland
Ġg ab
Ġg ul
Ġg onz
Ġg rowth
ĠSt an
ĠSt orm
ĠSt ock
ĠSt uart
Ġh s
Ġh el
Ġh amp
Ġ20 7
Ġj a
Ġj azz
Ġj osh
em ical
art ney
tt er
ĠRes erv
Ġv in
Ġv il
Ġv ari
Ġv iet
Ġr h
Ġr ud
Ġst r
Ġst ade
Ġl ib
us en
ĠCh ern
ĠJ ason
ĠJ ac
ĠJ ury
ĠJ ump
Ġk g
Ġk h
Ġk at
Ġk ot
Ġk ey
Ġk aw
Ġk raft
Ġk bit
ĠIn form
ĠIn ns
ag en
ag ar
ag ing
ag ues
age ment
ip ment
Ġe lapsed
iv en
Ġch ile
ĠCom ments
Ġ18 3
Ġ18 6
Ġ18 8
ĠCol l
ish i
ish ed
ĠLe agues
Ġre qu
ĠCon du
ĠCon gress
Ġ15 4
Ġ15 8
Ġse ve
Ġde but
ĠK ann
ĠK az
ĠDist ribution
Ġ16 1
Ġ16 00
Ġle h
Ġle eds
Ġy e
av a
12 6
12 9
ton nes
Ġair ing
Ġmar l
Ġmar co
Ġmar cus
Ġ22 9
13 0
13 6
Ġ24 0
Ġro vers
ĠAl pha
Ġele ct
Ġgr an
Ġnumber s
Ġal ca
Ġal titude
enn e
enn ett
enn ifer
Ġsh in
Ġsh ow
Ġsh oot
18 5
18 9
ĠAir line
ok u
Ġcar lo
ix t
27 2
29 0
ĠInter giro
ĠGen us
ĠTrans it
ash i
Ġpro p
Ġsing apore
rat or
ress ion
ress ed
ĠAss umed
Ġz imb
alif ier
ĠAth let
49 1
33 3
nes ian
ĠPl ural
ĠPr ince
ai ley
Ġco le
Ġrun ning
inc l
ĠEar th
eral d
Ġwith drawn
Ġind ividual
ĠReport ers
Ġed ition
itt ee
ĠMc G
ĠMc K
ĠMc N
Ġoff ic
ĠComm ittee
ĠMov es
err ick
ĠTelev otes
ĠActor s
Ġtotal s
Ġscor ers
Ġchar acter
ĠChannel s
Ġab breviation
und a
ĠBe gin
Ġjack ie
ĠAnd re
Ġaf ter
ĠIs olation
Ġbill ions
ĠSoc cer
year s
ĠStud ents
ĠSub ject
ĠBill board
Ġatl Ã©tico
Ġchrist opher
ster os
Ġsch umacher
ĠAct ress
Ġform at
Ġtra il
ãģ ®
Ġkn icks
ĠAc res
Ġbru ssels
à® ¿
Ġann ual
ĠEast ern
Ġath ens
ĠUp stream
à´ Ĥ
Ġpe ople
Ġpal mer
ĠAf rica
ĠCle veland
ĠFe ature
Ġmem phis
ĠBel g
ES T
II I
lad esh
ipi ents
Ġlead er
ĠDown stream
ĠEqu ipment
ĠNor wegian
ĠIS O
ĠRel ationship
00000000 0000
ĠMarri ed
less andro
ĠSm all
Ġrom an
ĠPrelimin aries
ĠEnt ries
à² ¨
ĠFri end
Ġjac ques
Ã± o
ĠKit maker
ĠTri m
ĠBats men
ĠOf sted
Ġmov ies
rican es
ĠAud ition
ĠGo ing
ĠEff ic
ĠRece ipts
Ġleon ard
Ġder by
Qu antity
ĠCart e
Ġsy racuse
Ġpac ific
Ġauthor ity
ĠSpr int
ilipp ines
Ġfem ales
ĠJew s
ĠDar ren
ĠFun ction
ĠMat thew
à¥ į
ĠFS B
ĠFed eral
Ġwed nesday
Ġoliv ier
ĠRush ing
ĠâĨ Ĵ
Ġqueens land
asm ussen
rox imate
ĠPremi ership
sal ary
inth ians
Ġsuz uki
Met ric
aur ant
miss als
ĠWN BA
Ġballe steros
Ġexpect ancy
ĠTrop ical
Oy ly
Poly nesian
ĠSaf ari
ĠATM s
ĠLett ers
Ġcoup les
ĠKann ada
Ġzimb abwe
) @
. /
/ (
2 17
2 70
2 68
3 50
A ct
C on
C old
D A
D ied
G erman
I ATA
I ON
M B
N C
P I
R et
S A
S E
S T
S W
T imeslot
W orld
a q
b us
c r
c ular
d r
d es
e au
g as
i h
j ur
k h
l on
m ir
m ig
n ell
p es
p unch
p erson
r r
r er
r in
r ank
r us
r one
s o
u en
u um
u ert
v ing
w w
Â ¢
Ã Ł
Ä «
Ä ĥ
× ķ
Ù ħ
à °
ä ¹
Ġ ul
Ġ other
Ħ ĸ
ĠS us
ĠS old
ĠS ant
ĠS ell
Ġt en
Ġt am
Ġt emple
ĠW ay
ĠW ars
ĠF is
ĠF el
ĠF ra
ĠF umb
ĠF eb
ĠF are
ĠF arm
ab lo
ab bin
ER CL
ĠA R
on ial
at y
at ic
at ian
ĠC F
ĠC ro
ĠC lay
ĠC ert
ĠC rime
ĠC ERCL
en ces
an im
an ner
am in
am eric
ĠP ens
ĠP ac
ĠP av
ĠT ot
ĠT ack
ĠT ale
ĠT err
Ġ2 14
ĠD rew
ĠD ublin
ĠR os
ĠR iders
ĠR FC
ĠM W
ĠM ap
ĠM ut
ĠM ath
ĠM bit
ĠM iami
ĠM iddle
ĠM EP
it oba
st ern
ou ch
ĠL ites
Ġs at
Ġs ound
Ġs av
Ġs ix
Ġs oft
cor por
ent e
00 2
om er
ed a
ed ish
ĠG len
ĠG ib
ĠG ordon
Ġc er
Ġc ard
Ġc arter
Ġc ouncil
ĠO s
ĠO ilers
ĠPo pular
ce pt
ĠH uman
Ġm b
Ġm all
Ġm ak
Ġm etro
Ġm ika
Ġm organ
re ad
Ġp ts
Ġp ur
Ġp rom
Ġp resent
ol len
Ġ3 18
oun s
Ġb ou
Ġb ig
Ġb ag
Ġb egan
il y
Ġ19 1
Ġ19 25
Ġ19 49
Ġ19 02
Ġ19 38
Ġ19 31
Ġ19 37
ĠY r
ĠY ield
as ia
ĠE P
Ġd ub
Ġd uc
Ġd oug
Ġd anny
ĠB ad
ĠB ry
el o
el and
Ġf er
Ġf itt
Ġf uel
et e
et y
ĠRe b
ĠRe ference
ĠRe bs
Ġn ich
Ġn otes
Ġn ominees
Ġ4 50
ĠV III
ir es
Ġa h
Ġa j
Ġa ction
Ġa ston
Ġa uckland
Ġa aron
pp ed
un o
ue la
ĠLo an
ig o
th er
and e
Ġw olf
Ġw idth
ĠSt one
ĠSt aff
Ġh i
Ġh or
Ġh our
Ġh ew
Ġh unter
Ġ20 6
em i
ĠRank ings
ap les
igh bor
Ġv i
Ġr ice
Ġr alph
Ġr asmussen
our g
ick ness
Ġst ad
Ġst uart
us a
ĠCh am
ĠSe ctor
ĠSe ction
Ġk as
Ġk enny
Ġk urtis
ĠIn jur
ill y
ain e
ain ed
ck out
ag g
ag ner
ĠU ser
all s
up iter
les br
ut en
Ġe ver
iv o
iv es
iv ities
iv alent
Ġ14 2
ov ic
ov Ã¡
Ġse a
Ġse oul
Ġse bast
Ġde ad
Ġ13 7
Ġthe atre
Ġ16 2
Ġ16 9
Ġle wis
Ġle icester
Ġfor e
ĠComp osition
ĠComp lement
Ġun it
Ġy ank
Ġy outh
ess ors
11 1
20 1
umb us
Ġ17 1
Ġand rea
Ġand retti
ĠMar cus
cy cle
ĠReg ions
19 99
Ġmar c
Ġmar ri
ich i
14 2
14 7
Ġ22 2
Ġ22 4
13 5
ril l
ik os
Ġ21 6
Ġro le
Ġla v
ath y
ath ina
Ġ30 5
ĠAl len
ĠOut put
Ġ27 0
Ġgr ant
Ġal an
Ġal abama
Ġ28 4
Ġsh ar
Ġsh ort
ons o
17 0
ok a
ok ie
ix els
Ġnew man
Ġsp art
ob yl
ĠPre game
ah l
27 3
27 5
50 5
Ġfr anc
29 1
ĠRep ublic
ĠEx ec
ĠGen e
Ġad v
Ġcom b
ĠCall ing
23 6
eg a
ress ive
ĠAss ociation
Ġâ Ħĸ
Ġcol our
Ġcol iseum
ĠAth letic
lace ment
Ġqu alifier
lin es
Ġu cla
Ġ194 4
ĠPl anet
ĠPr on
vel opment
Ġco y
Ġeng lish
ect ive
Ġbar ry
els en
ĠMc D
Ġmin ardi
ĠDis missals
ĠMunicip al
ĠSw eden
ĠTelev ote
Ġmon aco
ĠLaunch es
ĠGre at
Ġex ample
Ġme ad
ĠGe ograph
ĠOrd inary
ĠOrd ained
ĠFlo or
Ġwh it
oss e
áĥ ĺ
ĠAs ia
amb ridge
ĠBe at
Ġbel arus
ĠEst imated
ĠWh it
ĠAnd erson
Ġdes k
ĠAgg ressive
ĠVers us
kW p
ÃŃ g
ĠPres enter
ĠSub d
Ġà ¤
ĠAb breviation
use ppe
ĠPort uguese
Ġem erson
Ġport ug
ĠSen ator
ĠColor ado
Ġact ivities
Ð° Ð½
Ġri o
str ong
Ġer ic
Ġmed ia
be k
ipp ers
tern al
ym bol
ĠFl ight
Ġlu igi
St ate
ĠCor es
fe et
Ġenter ing
ĠJud ges
ĠProf ile
Ġque bec
Ġiv an
mun ist
arian t
ĠPub lication
lad imir
ĠDown hill
vent ion
utt le
ĠMem orial
Ġmal aysia
ĠChrist ian
ĠRel igion
ĠMet al
Ġcas ey
Ġstan ford
ĠMa id
Ġbrown s
Ġap r
Ġay r
ĠCons um
ĠQuarter finals
Ġsem i
Ġjac ob
ĠWal lace
Ġsen ior
ĠSab ha
ĠCivil ian
AC X
haw ks
ĠAt l
Ð¾Ð ²
ĠLyric s
Ġsm all
Ġgi useppe
lene uve
ĠAC C
ĠChe ckout
ĠSlov enes
Ġgal axy
ĠMotors ports
ĠAut om
ĠCre ator
ĠRid ing
Ġbla zers
ĠIm age
Ġcardinal s
Ġdrag ons
righ ton
ĠRest aurant
ĠParticip ants
ĠKil omet
à± ģ
ĠSamp les
ĠCP U
ĠRog er
Ġns w
Ġarrow head
ĠSpokesp erson
ĠCatch es
ĠPak istan
ĠKore an
ĠArchite cture
ĠAccess ion
ĠPione er
Ġmidd lesbr
Ġmoor abbin
ĠBang ladesh
orgen stern
Ġcorner back
Com munist
Oce anic
just ed
ĠHin du
ĠChern obyl
ixt ures
ĠAthlet es
uert o
ĠCERCL IS
anim ous
americ ana
ĠTack les
corpor ated
Ġduc ati
ighbor hood
ĠInjur ed
athina ikos
Ġmiddlesbr ough
* )
/ -
2 20
2 16
2 29
2 69
5 12
5 25
5 85
5 62
9 00
A B
A J
E A
E E
E x
F or
M R
O C
P rovince
R P
R e
R ec
S C
S core
S chool
S ong
T R
U R
U rban
[ |
b on
b ridge
c ul
d ome
f ol
f ig
f ect
f red
h m
i ge
i ques
j p
j Ã¶
j hl
k en
k hz
m g
m es
m etres
p ir
p ia
p op
p ension
r ants
s f
t z
v ement
w an
w ar
w eek
w ith
w ater
y ard
z bek
² ī
Ã «
Ä Ł
à §
à ½
ä ½ł
ì ŀ
ï ¼
Ġ ing
Ġ any
Ġ ana
ĠS L
ĠS ess
le ts
Ġt i
Ġt ight
ĠW S
ĠW ounded
ĠW right
ĠW ayne
ĠW immer
ĠF am
ĠF la
ĠF ur
ĠF ut
ĠF ight
ĠF iling
ab i
ab eth
on or
on ing
in os
in ated
at ia
ĠC A
en ia
or an
or ary
or ian
am ara
ĠP P
ĠP S
ĠP ld
ĠP AL
ĠP airs
ĠT em
ĠT OT
ĠT ao
ĠT uj
ĠT ruck
al la
ĠD er
ĠD ick
ĠD AR
ĠD uch
ĠR ub
ĠR ud
ĠR ose
ĠM ill
ĠM ah
ĠM obile
ĠM achine
st own
st roke
es a
ou x
ou ett
ate st
ĠL ed
ĠL ot
ĠL ines
ĠL ittle
ĠN S
ĠN ar
ĠN orm
ĠN ote
Ġs co
Ġs ett
Ġs ylv
Ġs afe
ic ans
ic ardo
om i
om es
ĠG rowth
Ġc m
Ġc ong
Ġc ond
Ġc rist
Ġc br
Ġc ourse
Ġc ancel
ĠO v
ĠO pinion
ri ers
ĠH a
ĠH ist
ĠH art
ĠH old
ĠH ong
ĠH ull
ĠH indi
Ġm ol
Ġm is
Ġm ult
Ġm ort
Ġm oh
Ġm ath
Ġm use
Ġm etres
re x
re ase
Ġp ors
Ġp ict
Ġp etro
Ġp erson
Ġp ride
Ġp enguins
Ġp ablo
ol ves
oun ced
Ġb c
Ġb at
Ġb ro
Ġb ass
Ġb ald
Ġb oys
Ġb ishop
Ġb ulls
Ġb asketball
Ġb irmingham
Ġ19 11
Ġ19 12
Ġ19 06
ear a
as y
ĠE k
ĠE ss
ĠE SP
Ġd r
Ġd w
Ġd od
Ġd ow
Ġd owns
Ġd olphins
Ġd uncan
ĠB og
ĠB ern
ĠB rad
ĠB ids
ct ive
el ia
Ġf is
Ġf ro
Ġf air
Ġf ury
Ġf arm
ch t
ĠRe y
ĠRe ign
ĠRe ader
Ġn ar
Ġn ative
Ġn ec
Ġn ebraska
ver hampton
Ġo d
Ġo x
Ġo z
Ġo il
ĠV ill
ĠV ariant
ir as
Ġa us
Ġa ve
ĠPlay off
ĠLo wer
ig gin
Ġw k
Ġw el
Ġw ard
Ġw ounded
Ġw ings
Ġw ayne
ss ible
ra ct
ĠI f
âĢĵ $
Ġg b
Ġg h
Ġg uil
Ġg pl
Ġg hz
Ġg rizzlies
ur u
ur ning
end a
end ments
Ġ7 00
Ġh ear
Ġh ot
Ġh end
Ġj ar
Ġj amie
ance ll
Ġin dependent
Ġin tegrated
tt on
Ġv a
Ġv e
Ġv ow
Ġv iew
Ġv irgin
Ġr ing
Ġr ick
ub e
Ġst ill
ĠCh allen
ĠLoc ale
ĠSe pal
ĠJ on
ĠJ an
ĠJ ay
ĠJ ess
ĠJ ob
Ġ9 78
Ġk ra
ĠIn g
ĠIn fl
ill o
ow ell
est ants
ĠEn rol
ip aldi
ut y
Ġch art
Ġch ief
ens es
umber land
ĠTo y
Ġ18 00
Ġ18 57
Ġ18 94
ĠCol t
ament o
Ġre cent
rid ers
ĠPart nership
Ġ15 9
ĠK cal
ĠK elly
ĠDe leted
ĠDe laware
ong ol
qu et
Ġ16 4
Ġle o
Ġfor ce
Ġfor est
ĠComp lete
ĠComp ression
Ġy i
Ġy oun
ud ing
Ġpo p
ans en
Ġ17 4
ang es
ew able
av es
ug g
ond er
ĠReg ul
19 60
19 92
lo bal
Ġmar sh
eb o
14 5
Ġ22 8
ik k
op he
Ġ23 5
ĠQ S
Ġla kers
Ġfinal ists
ign ment
15 2
ĠFre ight
iver ed
res h
16 2
25 5
Ġra f
Ġra h
Ġal onso
Ġ28 5
28 6
28 9
Ġar n
ĠMon ouns
Ġor an
int o
Ġsouth east
Ġsp a
Ġsp r
ĠSp oo
68 0
29 8
ĠFinish es
ĠEx perience
ĠEx ternal
cent er
Ġad ams
Ġcom mon
24 2
Ġpro v
06 0
att a
Ġ34 0
09 9
26 4
Ġus c
gh an
que e
uth er
Ġcol in
ĠMan ila
ĠStart ing
Ġz hang
let ics
ĠAward ee
Ġgre y
lin k
Ã¡ s
Ġpri vate
anufact ure
Ġco ver
ĠMed ium
AT ION
Ġwith out
Ġind ians
Ġoff ensive
Ġon ly
76 1
ĠZ e
ĠBar ry
36 2
ĠHead phone
rad ition
af rica
ett a
ough riders
ĠEd itor
ĠMin imum
Ġex t
ĠPar is
ĠNorth umberland
ve z
Ġhe avy
Ġpart icip
Ġab d
ĠVal id
Ġcor k
Ġcor poration
ĠPh oenix
ars ity
ĠAll iance
uel ta
ĠMus lim
amb ool
ones ia
ĠOb last
ĠÐ ³
ĠTy pes
ise ach
ĠEst imate
ĠWh ere
ĠAnd y
ĠIs rael
Ġjo ined
ĠCy lin
Ġmil waukee
Ġpaul o
Ġlouis ville
ĠSub urb
ĠLand esliga
cl osed
Ġspe c
Ġloc omotive
ĠMiss issippi
ĠWeb cast
Ġgen e
ĠVol leyball
alle l
Ġwar rn
ĠRec opa
emp orary
Ġden is
Ġfl ames
Ġcont rol
ĠCl osed
Ġtr in
Ġcal ler
ĠLar ry
ĠBB I
Ġengine ering
Ġer a
Ġath letics
Ġmed ium
west ern
Ġim mig
ĠAnn ounced
Ġma ur
Ġfe atur
Final ist
ĠVilla ins
ĠSch w
sk ins
Ġmem ory
ĠSatur ated
ĠExp orts
In ter
ola de
Ġsponsor ed
ĠBo ok
ĠJack son
Ġho les
Ġham burg
Ã¡n chez
ĠLine up
Ġdev ils
ĠScott ish
kee per
Ã¸ r
ĠDon ald
ĠDel ivered
car lo
Ġpres enter
ĠIdent ity
ĠBin ary
ĠAcc olade
ĠCons ort
Ġtak en
Ġbrad ley
Ã¼r gen
for ce
esp an
Ġdam on
Ġly on
ĠSy racuse
ĠMor ris
ĠPost season
Ġelectric ity
ĠÉ Ļ
Ġher bert
ential s
Ġcamp bell
ĠRoman ised
ĠAst s
Ġmajor ity
ĠFa ctor
ĠPap er
ĠLaw rence
Ġbol ton
Ġflo yd
ĠRa iders
urd ue
ĠCa use
ĠPresent ation
Ġjud ge
Ġvot ers
ĠElectric ity
ĠAssemb ly
ĠAssemb led
ĠMotor cycle
ĠPR R
ĠMS RP
Ġclim b
ĠRem ixed
ĠCycl ist
ĠTig er
ĠTurn out
ĠProcess or
Ġclar ke
ĠPenalt y
ĠRain fall
Ġmod ern
Ġwol verhampton
ĠComplet ion
ĠSupp lier
jun ctive
ĠSqu ad
Ġserg io
Ġmick elson
Ġmitch ell
ĠView ing
Ġkenn edy
Ġspir it
Sim plified
bay ern
âĨ ĳ
ĠSud americana
ĠDal las
Ġply f
Ġdet ails
ĠSort ed
thous ands
Ġlt d
ĠDivis ions
à³ į
Ġell is
ĠWat son
ĠCancel able
ĠMoto GP
ĠIps os
Ġrequ ired
ĠCondu ctor
ĠCert ification
Ġfitt ipaldi
ĠStaff el
Ġhew itt
uten ant
ÃŃg uez
zbek istan
ĠWimmer a
ĠTOT AL
ĠTao iseach
ĠTuj ia
ouett es
Ġcancel led
iggin s
Ġvow els
Ġchief s
ĠMonouns aturated
ĠSpoo fed
Ġwarrn ambool
Ġimmig rants
0 25
3 15
3 25
3 30
4 06
5 20
5 24
5 66
5 95
8 50
9 10
9 19
9 25
A vg
B n
B o
B oth
B illions
C C
D C
G E
G F
L ife
M S
M T
N et
O R
O ff
P ro
P lace
S u
V R
b en
b el
b ine
b org
b rew
c an
c ise
c ountry
c opa
c ret
d own
f rac
g g
g ie
g os
g io
g ree
h c
h att
h of
i w
i ate
i el
i que
i oli
j ack
k ova
k ollen
l j
l m
l u
l ary
l ight
l ice
m c
m ed
m ore
n on
o i
r ones
r ations
r amento
r ÃŃguez
s i
s ka
s emb
u pp
u ania
v iv
x is
y an
z h
³ ç
¿ ¥
Â Ń
Ã ¢
Ç İ
É ª
Ê ²
Ñ ĺ
Ó Ļ
à µ
á ¹
á ł
å İ
æ ĸ
æ ĺ
ï ¿¥
Ġ ~
Ġ ic
Ġ ens
Ġ ud
Ġ ug
Ġ ice
Ġ ont
į Ĺ
ĠS i
ĠS ound
ĠS av
ĠS ites
ĠS atellite
le z
le ction
Ġt un
Ġt way
Ġt ag
Ġt imes
Ġt ennis
Ġt yr
ĠW ild
ĠW isconsin
ĠF il
ĠF und
ĠF alcons
EC Net
ĠA I
ĠA k
ĠA lessandro
er on
in ct
ĠC u
ĠC at
ĠC oal
ĠC os
en ham
an ie
an ova
am as
ĠP un
ĠP erson
ĠP ages
ĠP ressure
ĠP TS
ĠT N
ĠT ill
ĠT erry
ĠT errit
ĠT reas
ĠT FR
al og
ĠD i
ĠD ru
ĠD iss
ĠD AT
ĠD ennis
ĠR B
ĠR F
ĠR i
ĠR AN
ĠR ECNet
ĠM ic
ĠM ast
ĠM illions
ĠM oz
ĠM oscow
ĠM urray
it i
st ad
st amp
ou k
ate ur
Ġ( '
ĠL A
ĠL is
ĠL im
ĠL ight
ĠL angu
ĠL ening
ĠN I
ĠN av
ĠN ico
Ġs b
Ġs on
Ġs ent
Ġs ay
Ġs up
Ġs ach
Ġs atur
Ġs ales
Ġs atellite
cor er
ic ia
ent ino
om s
om on
om mel
om bers
ĠG A
ĠG S
ĠG all
ĠG loss
ĠG iant
ĠG irls
Ġc all
Ġc ip
Ġc ru
Ġc ourt
ĠO m
ĠO x
ĠPo or
ĠPo lit
ce ler
ri ent
ĠH P
ĠH S
ĠH y
ĠH er
ĠH ow
ĠH onor
Ġm ix
Ġm ore
Ġm eg
Ġm icrosoft
re z
re ar
re cted
Ġp in
Ġp en
Ġp ate
Ġp ot
Ġp ir
Ġp ers
Ġp eg
Ġp ga
Ġp ayne
Ġp urdue
ol s
ol an
ol and
is en
is ch
Ġ3 10
Ġ3 000
Ġ3 12
Ġ3 25
Ġ3 33
Ġb ear
Ġb un
Ġb lock
Ġb ush
Ġb righton
il ion
ĠY our
ĠY ellow
as ure
ĠE s
ĠE agle
Ġd all
Ġd ates
Ġd ynamo
ĠB A
ĠB C
ĠB ab
ĠB ro
ĠB rig
ĠB urg
ĠB risbane
ĠB aby
el i
Ġf il
Ġf un
Ġf ang
Ġf av
Ġf und
Ġf aldo
et an
et ing
ro id
ch l
ch el
ch amp
Ġn ation
Ġn atal
Ġn orton
Ġ4 000
Ġo le
ĠV en
ĠV end
ĠV uelta
ir ling
un der
ber ts
ber ry
ĠLo k
ig ail
Ġw ad
Ġw rex
Ġ6 40
im on
ĠI ron
ĠI MR
Ġg p
Ġg an
Ġg im
Ġg amb
Ġg loss
Ġg ordon
ĠWin e
ĠWin chester
ĠWin nipeg
end y
end an
ad ing
ĠSt and
ĠSt amp
ĠSt ars
ĠSt ages
Ġh is
Ġh ap
Ġh ere
Ġh umph
Ġ20 8
Ġj i
Ġj in
Ġj aneiro
Ġj ennifer
em ents
Ġin du
Ġin stit
Ġin aug
Ġin ches
cord ia
Ġv ale
Ġv alent
id es
Ġr l
Ġr ou
Ġr us
Ġr ug
Ġr ash
Ġr ca
Ġr icc
Ġ8 50
Ġst ock
Ġst adion
Ġl ind
us er
ĠCh ina
ĠCh emical
ĠSe cret
ĠJ u
ĠJ er
ĠJ unior
ĠJ ordan
ĠJ ean
Ġk an
Ġk or
Ġk re
Ġk yr
ĠIn f
ĠIn dependent
ia cos
ow ed
est ed
ĠU l
ĠEn semb
Ġby ron
ut ler
ric ia
os p
os lov
Ġe k
Ġe ug
ĠGoal keeper
Ġch a
Ġch en
Ġch and
Ġch uck
ens hip
ens haw
Ġ18 66
Ġ18 98
Ġ18 84
Ġ18 97
ĠCol ours
ĠCol iseum
ĠPro perty
ĠBr u
Ġ14 6
ac ramento
Ġse qu
Ġse ville
Ġde an
Ġde pend
ĠK an
ĠK ong
ĠK ind
ak u
Ġ16 7
Ġfor sy
Ġy rs
ess ional
11 9
20 14
ĠSilver stone
ĠHe ir
ĠHe brew
Ġ17 6
ang o
ĠMar c
ĠMar quee
av ian
12 4
fer encing
Ġair craft
ĠReg ist
19 0
19 98
19 79
19 94
Ġmar in
Ġmar ine
Ġmar cel
Ġmar athon
14 6
14 9
Ġ22 5
13 1
13 3
ĠAr r
ĠAr thur
Ġ24 4
Ġ24 00
ik ata
og n
og es
Ġ21 7
Ġ23 1
Ġro gers
Ġro berts
rom a
ach ing
Ġ% )
Ġla d
Ġla ur
Ġ30 7
oll ar
ale z
ale rs
15 6
15 8
ĠFre estyle
ier i
uit ar
iss a
cc a
cc ane
Ġ29 6
ĠSh ell
ĠSh uttle
Ġal len
enn ai
Ġ28 8
uil t
ĠRo okie
ith uania
ĠMon aco
Ġnov a
ĠUn its
ĠUn til
18 0
pen cer
de z
per ature
len t
Ġcar s
ĠFinal ists
anc ock
ler mo
Ġth ompson
Ġsp ell
Ġsp ring
ĠSp ent
ĠCar s
ĠCar rier
Ġfr ances
Ġfr ancis
ĠDec ay
ore ograph
mer e
ĠEx change
vin o
05 4
05 6
Ġcom mission
24 0
ĠCall back
23 3
ail y
ail and
ĠSpe ct
iz on
iz abeth
ev es
Ġcol onial
Ġz amb
az ar
ĠAward s
ĠFor est
der land
49 9
erm ann
ĠAn ne
ĠAn alyst
Ġam endments
lin ton
Ġu zbekistan
ĠPl an
Ġmill wall
Ġcon ne
Ġco oper
64 3
64 5
cast er
ĠJo int
ind ian
Ġq ld
ĠJohn s
ĠOw ned
ĠAg st
45 1
45 6
ĠBar s
ĠÂ ½
Ġx ii
ĠSecond ary
ĠSing ular
Ġgu y
field er
79 6
Ġmon za
Ġpr ote
ĠTrack s
ĠDes igner
89 1
ĠGe ust
ĠGe org
ull ik
Ġhe id
48 1
ij ikata
Ġab igail
und y
Ġcor inthians
ĠPh ilippines
Ġcoll ins
ĠOper ational
Ġpl ur
ays ian
ung arian
ĠCont inent
ĠÐ ¡
Ã¼ n
Ġcl ippers
ĠFr ance
onn ie
ĠLosing Team
ĠSwim ming
Ġred skins
ere k
ere o
Ġest imate
Ġlouis e
ĠBill y
Ġà ¸
ott i
Ġchrist ophe
Ġmast er
ĠSuper copa
ĠAff airs
Ġtra ck
Ġtra vis
ĠMcC artney
Ġolymp iacos
emp loy
ĠElimin ation
osh i
Ġste fan
ĠPlatform s
Åį m
ĠCl ark
Ġri p
Ġcle an
Ġcle mson
Ġsun k
Ġsun derland
olen sk
Ġwat ts
Ġwat ford
Ġæ ľ
Ġfrank furt
Ġlu is
ĠAf rican
Ġche ster
ene z
ĠGovern ment
ĠBas in
ĠBob by
aug ht
ĠPet e
Ġlab or
ĠChrist opher
Ġbelg ian
Ġbelg rade
Ġlar edo
Ġsant os
Ġcas ualties
Ġha pp
ĠKn ights
Ġpres erved
Ġdem o
Ġdem and
ĠDef ensive
Ġent ry
ĠTur bo
ĠKe ith
Ġrob bie
à¦ ¾
ĠSa ints
ĠSm olensk
Ġrod rÃŃguez
Ġvilla ges
ĠQuarter final
ĠRuss ia
Ġsport ing
Ġjul ius
ĠKar l
ĠKar en
Ġtre vino
ĠTechn ical
ĠAppar atus
Ġdar ren
Ġros a
}} }
Ġser ie
Ġpass eng
ĠEr g
ĠBand width
Ġalbert o
ĠLu is
ĠAssist ant
Ġexp ress
nal ina
ĠPoint ers
ĠEdward s
ĠInvest ing
Ġur ban
Ġiss ue
Ġiss ued
ĠCamp us
Ġint rodu
ĠJun ction
akh stan
ĠMod ern
ĠAcqu ired
ĠGovernor ate
Qu alifying
Ġash ley
ĠCan al
Ġrating s
ĠSum mary
Ġstud ios
ĠConne cticut
ĠKenn el
Ġrobin son
Ġear ly
ĠCal gary
Ġmand atory
Ġdn p
ĠCommander y
ĠOrgan ization
ĠKh mer
ĠHousehold s
ĠImp orts
ĠChap ter
ĠCycl ones
ĠEll is
ĠScre en
ĠDie go
Ġmur phy
Ġmunicip ality
ĠBrook s
Ġfour th
unn el
Ġlyn n
Ġalb ion
ĠHyd ro
Ġbreak ers
ĠEth nic
Ġdomin ik
chie vement
ĠVo iv
Ġhur ricanes
ĠOtt awa
Ġpent ium
ĠIg nalina
Ġhyd ra
Ġorgan ization
ĠAccred itation
ĠDrag on
Ġbeng als
Ġhugh es
ĠGN IS
Ġvil leneuve
ĠInform ation
ĠPremiership s
Ġadv ance
ĠGeograph ical
ĠSubd ivision
Ġportug al
Rec ipients
Ã« l
Ġmuse um
ĠIf op
ĠChallen ger
ugg ets
Ġfeatur ed
åİ ¿
Ġont ario
ĠDAT E
ĠRAN K
ĠMoz illa
ĠLangu ages
ĠLening rad
ĠNico le
ĠPolit ical
Ġdall ara
ĠBurg lary
ĠVend or
Ġwrex ham
Ġhere ford
ĠEnsemb le
ccane ers
oreograph er
" )
. ,
0 27
0 33
2 25
3 10
3 27
3 72
5 28
5 71
5 78
A l
C ats
C mp
D ay
D ivision
G H
H igh
I AA
I CAO
J uly
J GP
M I
N A
N r
O ne
P C
P l
P GA
R k
R es
S L
S p
S ub
S outh
S lov
S ogn
T o
T radition
W ade
Y ds
a ult
a us
a he
b es
b is
b ra
b ian
b orn
c ce
c ro
c od
c ap
d d
d am
d river
f s
f ar
g or
h n
h art
i ab
j andro
k aya
k je
k avian
l ington
m l
m t
m il
m ont
m ole
m jhl
n at
n an
n ov
n ew
o e
o oster
p ri
p resent
p ics
q qu
r or
r ash
s ol
s ing
t ure
u et
u ke
v ation
v ens
v ine
v oc
v oy
v ador
w rit
y th
z ip
| |
± ±
Ä ħ
Ä Ľ
É ¯
É Ĳ
É Ļ
Ê ģ
Ì ĥ
Ñ Ī
Ñ ı
Õ ¡
â Ī
ä º
å ¹
ç ī
é ħ
Ġ ank
Ġ rig
Ġ 000
Ġ ib
Ġ Ã¡
Ġ vers
Ġ Å¾
Ġ others
Ġ ï¿¥
ĥ ħ
Ķ áĥ
ĠS M
ĠS ri
ĠS and
ĠS ag
ĠS ens
ĠS ide
ĠS afe
le ct
Ġt as
Ġt ot
Ġt ru
Ġt ele
Ġt au
Ġt urn
Ġt itans
ĠW u
ĠW ire
ĠW ales
ĠW onder
ĠF O
ĠF IN
ĠF err
ĠF ox
ĠF red
ĠF ather
ĠF resh
ab a
ab b
ab il
ĠA h
ĠA p
on o
on ian
er bury
in us
in ess
in burgh
in habitants
in ema
at an
at ar
at ine
at ics
ĠC H
ĠC ab
ĠC ra
ĠC ur
ĠC raig
ĠC itation
ĠC atholic
en er
en ame
en os
en nings
en heim
en roe
or is
am m
ĠP ress
ĠP inn
ĠP ittsburgh
ĠP ali
ĠP sy
ĠP ommel
ĠT re
ĠT orn
ĠT ony
ĠT icket
ĠT ech
ĠT ampa
Ġ2 11
Ġ2 12
al on
al ay
ĠD W
ĠD an
ĠD om
ĠD ra
ĠD ied
ĠD anish
ĠD anny
ĠD ouble
ĠD irk
ĠR od
ĠR io
ĠR ams
ĠR Åįm
ĠM ur
ĠM ary
ĠM ack
ĠM oon
ĠM organ
st ar
st ick
st ressed
ate c
Ġ( "
Ġ( %
ĠL E
ĠL N
ĠL ic
ĠL ank
ĠL ions
ĠL ike
ĠL yn
ĠL uc
ĠN ig
ĠN eg
ĠN ominal
Ġs d
Ġs v
Ġs om
Ġs ame
Ġs ud
Ġs af
Ġs oul
Ġs of
Ġs enna
ic ian
00 1
00 4
00 5
om y
ed onian
ĠG a
ĠG ill
ĠG lass
ĠG au
ĠG rad
ĠG iles
ĠG RT
ĠG onz
ĠG ymnast
Ġc able
Ġc re
Ġc ass
Ġc ant
Ġc ann
Ġc ross
Ġc air
Ġc andle
Ġc ambridge
ĠO P
ĠO t
ĠO il
ĠPo t
ĠPo ol
ĠPo verty
ri m
ri en
ri ed
ri el
ĠH K
ĠH ab
ĠH el
ĠH ad
Ġm n
Ġm s
Ġm ason
Ġm ess
Ġm ack
Ġm og
Ġm oss
Ġm iles
Ġm hz
Ġm other
Ġm Ã¥
Ġp or
Ġp il
Ġp ap
Ġp ress
ol ly
is k
is o
Ġ3 20
Ġb i
Ġb ac
Ġb ug
Ġb ath
Ġb ird
Ġb ox
Ġb ody
Ġb attle
il ia
il ian
il de
Ġ19 3
Ġ19 13
Ġ19 18
Ġ19 24
Ġ19 22
Ġ19 33
Ġ19 03
ing u
Ġd b
Ġd j
Ġd ig
Ġd ance
Ġd os
Ġd io
Ġd ive
Ġd ark
Ġd ata
Ġd ixon
Ġd erek
ĠB un
ĠB os
ĠB ell
ĠB ore
ĠB oy
ĠB aker
ĠB oys
ĠB altimore
ĠB ubb
ĠB ennett
el or
el is
el ley
Ġf w
Ġf en
Ġf ul
Ġf uk
ch o
ch air
Ġn ed
ver de
Ġo g
ĠV ic
ĠV ot
ĠV el
ĠV iv
ĠV oted
ĠV ocal
ir chen
Ġa or
un ion
ig ator
ig lia
and r
Ġw an
Ġw as
Ġw right
im os
im ajor
âĢ ł
ra ham
ank ton
od ie
od ium
Ġg o
Ġg w
Ġg ior
Ġg ib
Ġg rad
ur as
end ish
ad i
ad al
ĠSt op
ĠSt uff
ĠSt roke
Ġh ans
Ġh erman
Ġh err
Ġh indi
Ġh andle
Ġ20 3
ist on
Ġj ury
way s
ers burg
Ġin f
Ġin s
Ġin cl
Ġin depend
ap a
ap est
ĠRes igned
ĠRecord ing
Ġv on
Ġv is
Ġv as
Ġv ii
Ġv eh
Ġv ideo
Ġv ladimir
id o
Ġr s
Ġr t
Ġr ory
Ġr oma
Ġr oute
ub urn
Ġst on
Ġst em
Ġst ructure
Ġst irling
Ġl l
Ġl ud
Ġl ord
Ġl uc
ĠCh oreographer
ĠSe a
ĠSe x
ĠSe an
ĠSe qu
ĠJ a
ĠJ r
Ġk r
Ġk al
Ġk ent
Ġk el
Ġk un
Ġk ur
Ġk ap
Ġk id
ĠIn corporated
ill ips
ag an
ĠU s
all o
all an
ourn ey
Ġ12 00
ric ts
pe z
Ġe cu
Ġch inese
Ġch urch
ĠTo g
Ġ18 4
Ġ18 9
Ġ18 74
Ġ18 80
Ġ18 91
ĠCol on
ĠCol in
ctor y
Ġre lay
ĠBr other
rid ae
ĠGoals corer
ac a
Ġde b
ĠK le
ĠK ost
ction al
ak ers
Ġ16 8
Ġle n
Ġun stressed
Ġy v
Ġy ang
ess a
ud iant
20 6
Ġpo st
Ġpo hang
land ic
ang hai
pt ions
Ġair ed
19 1
19 70
19 84
19 88
se c
lo yd
Ġ25 1
Ġ25 6
ich el
Ġ22 7
13 2
ĠAr ound
Ġ24 8
op ed
op ot
oc a
Ġ23 0
ĠQ B
Ġla st
Ġla kes
Ġla ura
Ġ30 8
ĠAl b
Ġfinal ist
ĠConst ant
ale y
ell ing
ell ington
ĠTh em
ĠTh ai
Ġele vation
ier ry
res e
iss ue
iss ions
16 0
16 6
Ġ26 6
Ġ29 5
Ġra p
Ġra il
Ġat cc
ĠApp earance
ĠApp roximate
Ġ28 1
Ġsh ale
Ġsh arks
28 2
Ġar rows
ĠUn employ
17 7
Ġor ange
ĠCo le
ĠAir ing
int ing
int endo
ok i
ok n
Ġcar roll
70 7
anc a
anc ed
anc ial
ĠRele g
Ġth ous
Ġsp an
Ġsp anish
ah o
ah ir
ĠEx it
ĠEx ited
ĠEx penditure
ĠInter act
ĠInter nal
ĠTrans mitter
Ġad ult
Ġad vent
Ġcom mercial
24 8
ĠTra cy
Ġ38 0
ib be
06 5
06 6
23 1
att i
Ġ34 8
26 0
ĠEntr ants
22 1
22 2
ock enheim
ds ay
gh z
66 5
ator ial
ev ada
ev enson
Ġcol bert
04 0
alif ax
oot h
ĠFor ce
Ġbr ent
Ġbr anch
75 5
ĠAn g
ĠAn imal
Ġqu ick
Ġnorth east
Ġge off
Ã© bast
Ġ[ [|
Ã¡ nd
ĠPr otein
ai i
ai j
ĠChar ge
ĠChar lie
Ġcon stit
Ġcon quest
rist ol
Ġph r
64 0
Ġmc enroe
mm ol
ind on
Ġdriver s
Ġbar ber
Ġbar rich
Ġplay off
Ġplay offs
oy a
oy ama
Ġapp ro
Ġapp earances
ĠTown s
Ġmin ister
ĠZ ach
ĠBar ony
ec a
ĠDis cs
its u
36 0
ila s
ĠThe atre
ĠAd justed
ĠAd voc
orts mouth
Ġpr ed
ett i
air man
uss ia
ĠEd ge
ĠPar allel
sc ar
sc ri
Ġme chan
ĠGe off
ĠGe elong
Ġhe alth
Ġhe inz
ha user
odes hip
Ġab ove
ĠSpeed way
ĠSem imajor
ĠShip s
ĠPh ys
ĠMay or
Ġcoll ision
ĠAll owed
ĠField ing
ĠPod cast
Ġwh ich
Ġwh ere
99 7
Ġgroup s
amb a
Ġdef ence
Ġrep resent
Ġrep laced
ĠÐ Ł
Ġis rael
Ġsub junctive
Ġbu ccaneers
ĠShare hold
ĠFr ont
Ġcent ury
ĠInd ividual
bo ards
oo ch
ĠFL T
ĠWork ers
ĠSwim mer
Ġfri z
ĠAmer indian
Ġest ablished
Ġà ¦
Ġà ²
pl os
ĠPort fol
ott om
Ġem issions
iff e
Ġmember ship
Ġbl ues
ĠRec ap
ĠProm oted
ĠNe il
Ġfl at
Ġcont emporary
Ġmor a
ĠDesign ated
à® ´
Ġslam s
lb f
Ġann e
Ġfre leng
ca a
ĠNat ure
Ġsun day
Ġdal ian
Ġav enue
Ġglen n
Ġå ı
Ġdel ta
à´ ³
Ġim p
Ġac ademy
ĠHD R
Ġfrank lin
men kollen
ĠScot land
Ġpan athinaikos
ĠProgram me
ms lm
ĠAf ghan
ĠCor rected
Ġmer cury
ĠTom my
Ġbre tt
Ġne il
Ġne eded
Ġreg ion
ĠBrit ain
Ġret urn
ĠSim on
AM E
ĠEqu ity
Ġho ch
à¤ °
ĠPet al
ĠNor way
ĠGerman y
Ġlab our
Ġtri p
ĠMart y
Ġha as
Ġang le
Ġang els
Ġtur ner
Ġpres ident
Ġfa iled
Ġaut os
Ġcb f
ĠSm oke
ĠAcc ount
Ġreport er
ĠSam uel
ĠMag azine
Ġatt ack
Ġjackson ville
Ġjul ie
Ġquarter back
ĠMeet ing
for EE
Ġtal k
Ġdam aged
ĠAlex ander
Ġcompetition s
ĠWil son
ĠDo ctor
Ġpass ed
Ġvol ume
ogra phy
Spec ies
kin son
ĠWk ts
ĠDr um
ĠMac edonian
Ġmov ie
ĠRecipi ents
don ald
ĠAud ience
riz io
ĠVict or
ĠVict oria
Ġpav in
Ġbrook lyn
Ġlim it
ĠCart ridge
ĠPap al
Ġbol t
Ġrub ens
ĠChe f
ĠKing dom
ĠSpr ints
ĠPrefect ural
gress ive
Ġtw ist
Ġtw ins
ĠPC T
Ġcla ud
Ġfem ale
ĠConne ction
ĠLind a
enth al
ĠHol menkollen
Ġdn f
Ġrec ap
ĠPan thers
ĠRap id
ĠBlo c
Ġaud i
Ġvot er
righ ts
dale na
ĠIN T
ĠMont real
Ġcart ridge
ĠHaw ks
Ġbul lets
Ġmonth ly
ĠRen ewable
Ġbry ant
Ġoper ation
Ġhalf back
ĠPenalt ies
een ey
met ers
ĠCas ualties
Ġmunicip al
Ġnico le
ĠIce landic
endo za
ĠBranch es
Ġarm strong
ĠFeatur ing
hol m
ĠCop ies
ĠDim ensions
ould er
ĠLiter ate
ĠNi qqu
Ġsoc cer
Ġfly ers
Ġmedal ist
ĠSix th
ĠCred entials
ĠOber bayern
Ġmans ell
ĠDisco very
ĠRoberts on
Ġ(âĤ¬ )
ĠLif espan
Ġsus pension
Ġgill ingham
Ġunivers al
Ġanalyst s
Ġelim inated
Ġà´ ®
lian i
spe ed
ĠFly ers
Ġcelt ics
Ġpist ons
Ġfig ure
ĠRemark s
Ġnord iques
ĠVert ical
Ġhamp shire
Ġvin yl
Ġviet nam
Ġleh man
Ġmarl boro
Ġshoot ing
ĠMcN amara
Act ress
Ret urning
SE K
eau x
punch es
rer uns
rank ing
ĠFra ction
Ġcard iff
Ġmall ala
Ġdub ai
ĠBry an
ĠUser pics
Ġever ton
ĠMcD on
osse in
ĠMaid ens
ĠKilomet er
ĠWS OP
ĠFla gs
ĠFut ure
ĠOv rs
Ġpors che
Ġbald win
ĠEss endon
Ġwk ts
Ġguil lermo
Ġraf ael
ĠZe aland
Ġheavy weight
ĠCylin der
Inter national
Su ited
hatt an
med iate
Ġens ign
Ġtag liani
ĠCos ell
ĠTN S
ĠDiss olved
ĠMast ers
Ġhumph rey
Ġricc ardo
oslov akia
ĠBru ce
ĠKan ji
Ġforsy the
ĠRegist rations
ĠArr anger
Ġlad ies
Ġconne cticut
enez uela
ĠErg ative
Tradition al
Ġtas man
ĠWire less
ĠRÅįm aji
Ġcair ns
Ġcandle stick
ĠBubb les
ĠStuff It
udiant es
ĠUnemploy ment
Ã©bast ien
Ġ[[| ]]
Ġbarrich ello
ĠAdvoc ate
ĠSharehold ing
ĠPortfol io
forEE Z
ĠNiqqu d
. -
0 11
0 20
0 15
0 30
0 50
3 21
3 77
4 70
4 29
4 26
4 75
4 85
4 84
5 17
5 68
5 75
5 31
6 50
6 23
7 69
7 71
8 66
8 84
9 11
9 75
9 03
9 01
9 36
A K
A n
A ir
A ust
A nal
B GN
B BC
C K
C M
C l
E N
G ame
G leng
H O
H e
J upiter
K it
L E
L SI
M ar
N e
N umber
O ut
P E
P G
P L
P r
P re
R ed
R os
S an
S ec
S of
S okn
T h
T ime
T ahir
V P
W U
W inner
a ar
a els
b il
b ul
b ass
b ons
b ull
b ased
b rook
b illions
b ishop
b uilt
c ity
c ard
c umb
c lay
c onn
c ible
d h
d l
d v
e a
f ul
g re
g end
g art
g ow
g ates
g ood
h ot
h eng
h ail
i ation
i Ã¡n
j in
j ay
k k
k ing
k ok
l p
l io
l ana
l uc
l atest
m or
m al
m ans
m io
m ax
n m
o ir
p c
p oint
p ara
p osed
p ierre
p ads
p ixels
q v
r ate
s ch
s ong
t l
t ers
t otal
t ender
u ary
u ency
v y
v ar
v ale
w ig
w illiam
y ers
y ut
y ram
z c
z on
z hou
¤ à®®
¬ °
¹ ä¹
¼ åħ
Â ³
Ã °
Ä ĵ
Å Ħ
É £
Ñ ĩ
Ø ¨
Ø ±
Ù Ģ
à ¼
á Ģ
å ¥
å Ī
æ ľ
æ Ń
ç Ķ
Ġ Å
Ġ Ï
Ġ ×
Ġ ip
Ġ ong
Ġ ans
Ġ ond
Ġ ign
Ġ ord
Ġ ris
Ġ ita
Ġ ips
Į å
į æĸ
ĳ ¸
Ĵ éħ
Ĺ à¤°
ĠS S
ĠS erv
ĠS itu
ĠS FC
ĠS ullivan
le f
le nd
le man
le wood
Ġt x
Ġt at
Ġt an
Ġt ed
Ġt oll
Ġt roy
Ġt uc
Ġt bs
Ġt wick
Ġt unnel
ĠW es
ĠW ing
ĠW id
ĠW all
ĠW imbledon
ĠF K
ĠF ame
ĠF itzroy
ĠF lag
ab e
ab l
ER ATION
ĠA L
ĠA M
ĠA US
ĠA ustria
ĠA aron
on av
on te
on ne
in u
in ich
in der
at en
at as
at ivity
ĠC R
ĠC ard
ĠC ust
ĠC ann
ĠC ards
ĠC arter
ĠC ourt
ĠC owboys
ĠC ancell
en ario
an az
an Ã§
or il
or ity
or ite
am al
am ine
ĠP O
ĠP as
ĠP ad
ĠP ont
ĠP air
ĠP ya
ar h
ar ro
ĠT L
ĠT el
ĠT un
ĠT ub
ĠT ac
ĠT osh
ĠT alent
ĠT ext
al u
al ie
ĠD R
ĠD Y
ĠD j
ĠD ia
ĠD ata
ĠD oha
ĠD iffer
ĠR s
ĠR and
ĠR he
ĠR ide
ĠR ings
ĠR AM
ĠR enault
ĠR oughriders
ĠM om
ĠM ul
ĠM ans
ĠM ik
ĠM oh
ĠM eg
ĠM itch
ĠM VP
it te
it ational
st en
es ville
Ġ( âĢĵ
ĠL es
ĠL ang
ĠL AN
ĠL PGA
ĠN ou
ĠN ath
ĠN one
ĠN ixon
ĠN VR
Ġs q
Ġs or
Ġs ig
Ġs ee
Ġs ang
Ġs ets
Ġs ah
Ġs ara
Ġs anta
Ġs oph
Ġs Ã£o
Ġs askatchewan
Ġs Ã¡nchez
Ġs Ã©bastien
la go
ic it
ic ap
om ar
ed ers
ed ian
ĠG l
ĠG ab
ĠG ent
ĠG as
ĠG ir
ĠG od
ĠG ore
ĠG FL
ĠG olf
ĠG ullik
Ġc i
Ġc our
Ġc ag
Ġc ut
Ġc aps
Ġc ec
Ġc lock
Ġc eremony
Ġc bs
Ġc ouple
Ġc linton
ĠO ric
ĠO ak
ce y
ce ed
ĠH B
ĠH R
ĠH ur
ĠH amp
ĠH eld
ĠH onda
ĠH erb
Ġm om
Ġm ul
Ġm ach
Ġm ex
Ġm ind
Ġm yst
Ġm over
Ġm oon
Ġm orgenstern
Ġm anufacture
re b
re ct
re me
Ġp ain
Ġp ast
Ġp ine
Ġp ath
Ġp ale
Ġp au
Ġp laced
Ġp icc
Ġp uerto
ol t
ol la
ol os
is i
is an
is ia
is closed
Ġ3 19
Ġ3 70
Ġ3 69
Ġ3 22
Ġ3 74
Ġ3 77
Ġb s
Ġb it
Ġb our
Ġb os
Ġb old
Ġb og
Ġb ord
Ġb eth
Ġb ett
Ġb ert
Ġb aker
Ġb hp
Ġ19 27
Ġ19 04
Ġ19 21
Ġ19 08
ing er
ĠY ds
ĠY arn
ĠE ra
ĠE ner
ĠE agles
ĠE BI
ĠE gypt
Ġd l
Ġd ia
Ġd iv
Ġd ob
Ġd utch
Ġd ublin
Ġd akota
Ġd uty
Ġd ollar
ot i
ĠB Y
ĠB re
ĠB art
ĠB ass
ĠB eng
ĠB ridge
ĠB utt
ĠB rett
ĠB MW
ĠB egan
ĠB ulls
ĠB asketball
ĠB irmingham
ĠB ailey
Ġf k
Ġf la
Ġf res
Ġf ood
Ġf ps
Ġf amilies
Ġf ailures
et ic
et ime
ro om
ro verted
ay an
ch us
ch est
ch uk
ĠRe ed
ĠRe lay
ul i
Ġn u
Ġn an
Ġn as
Ġn os
Ġn av
Ġn ames
Ġn iss
Ġn atural
Ġn avy
Ġn acional
ver e
Ġ4 10
Ġ4 30
ĠV P
ĠV e
ĠV it
ĠV erm
Ġa ik
Ġa va
Ġa ustin
un k
un animous
ue b
ge e
ĠLo ans
um m
um n
ig or
th y
th orpe
Ġ5 72
Ġ5 60
Ġw i
Ġw ake
Ġw ickets
Ġw aver
im er
im en
im ent
ss en
ss ex
ss ued
ra ce
ra pped
ĠI ran
ĠI owa
ĠI ME
ĠI ssued
ank a
Ġg om
Ġg ay
Ġg un
Ġg iven
Ġ7 34
ĠSt em
ĠSt ake
ĠSt ump
Ġh an
Ġh ist
Ġh ud
Ġh ors
Ġh iro
Ġh ave
Ġh uman
Ġh ogan
Ġh alifax
ist ry
Ġj h
Ġj r
Ġj ob
Ġj oy
Ġj ama
Ġj ung
Ġj agu
Ġj eremy
Ġin itial
tt ir
igh th
ĠTotal s
ult ure
Ġr c
Ġr d
Ġr ico
Ġr ural
ub ishi
itle d
Ġst one
Ġst akes
Ġst even
Ġst atist
Ġst ereo
Ġl g
Ġl s
Ġl ut
Ġl ive
Ġl ane
Ġl anc
Ġl ink
Ġl iga
Ġl ola
Ġl anger
Ġl su
Ġl uca
Ġl ogan
Ġl ithuania
ĠCh en
ĠCh ip
ĠCh airman
ĠSe ven
ĠSe par
ĠJ e
ĠJ ar
ĠJ eremy
Ġ9 Â²
ie vers
Ġk ay
Ġk ad
Ġk ite
Ġk rist
Ġk err
ĠIn n
ĠIn aug
ill on
ill ies
ia k
ck o
est e
ĠU I
ĠU k
ĠU TC
up t
ut ions
ut ive
os es
os lavia
pe ople
Ġe g
Ġe ur
Ġe ff
Ġe pt
Ġe ach
Ġe con
Ġe gypt
Ġch i
Ġch em
Ġch eng
Ġch ennai
ens o
ens boro
ian e
ĠCom edian
Ġ18 73
Ġ18 72
Ġ18 65
Ġ18 76
Ġ18 60
Ġ18 58
Ġ18 53
ĠCol omb
ĠLe vin
ĠPro posed
ĠPro ceed
Ġre fers
Ġre issue
rig uez
Ġde velopment
ĠK K
ĠK R
ĠK o
ĠK at
ĠK as
ĠK ern
ĠK ings
ĠK arian
ass an
ĠSchool s
ant es
ĠDist ingu
Ġle x
Ġle ver
Ġle tter
ey er
Ġfor um
Ġun d
Ġun its
Ġy our
20 2
20 4
20 5
Ġpo ssible
ĠInc rease
ĠWinning Team
Ġand er
ug en
ug ht
ug oslavia
io la
ond e
ond s
ond uras
Ġno on
Ġair es
ĠReg iment
19 5
19 75
19 80
Ġ25 2
Ġ25 7
Ġmar gar
Ġmar iano
Ġ22 6
Ġ24 5
ik o
ten ham
op old
oc co
ĠQ ld
Ġro ost
Ġ+ /-
Ġ30 1
Ġ30 3
Ġ30 4
ĠAl an
ĠAl ison
ĠAl ignment
Ġwin ton
ann i
ann es
Ġ27 6
ĠTh rough
ĠTh ickness
ĠFre ed
ord in
16 4
16 5
16 7
25 6
Ġgr ay
Ġ26 0
Ġ26 8
Ġ29 4
ĠSh in
ĠSh ield
ĠSh ahe
aw ks
Ġper u
Ġper ry
Ġra chel
30 4
30 6
Ġal t
Ġal ouettes
ĠApp ro
Ġ28 9
Ġsh u
Ġsh er
Ġsh ore
Ġsh ide
Ġsh aun
ĠQu ality
ĠEle ment
Ġar c
ons ors
eth er
ld ogs
17 5
17 6
18 3
18 7
18 8
ĠCo ok
ĠCo ordin
de k
ok o
ok ing
Ġcar rier
Ġth at
Ġnew s
Ġsp ies
ict ed
ĠSp o
ĠCar mel
ĠPre t
ah n
ah u
Ġleg ion
27 1
50 6
29 3
29 7
ĠDec imal
ĠDec reased
69 5
ĠRep lacement
ele ctric
73 3
AA T
ne ider
ats u
24 3
24 5
ĠTra de
ĠTra iling
Ġpro vince
Ġpro perty
ib ility
ĠViewers hip
ĠNet t
Ġ34 2
09 6
26 1
26 3
Ġtime stamp
ail ure
gh er
Ġâ ī
66 7
iz a
iz ards
Ġcol umbus
ĠMan agement
ĠMan hattan
Ġz abel
let cher
ĠFor cible
wer p
08 1
08 8
75 6
Ã© d
Ã© n
Ã© s
ĠOff er
34 6
34 7
Ġcon na
Ġcon fig
Ġcon ferencing
35 5
65 4
65 8
Ġph illip
ĠDivision al
ps i
Ġ33 6
Ġ45 1
ĠEar ly
ĠEar pads
ual a
Ġdav ies
98 0
44 0
44 3
ĠBirth s
ari us
sh are
Ġ39 2
38 3
Ġed g
Ġed inburgh
ĠJohn ny
45 7
Ġnot ation
76 3
Ġsu won
Ġsu ssex
ĠBar b
Ġx i
ĠDis play
its ubishi
84 1
84 8
55 1
55 7
ĠSw itzerland
rad or
79 3
Ġbe j
Ġbe fore
ĠLaunch er
ĠOr th
Ġex penditure
ĠPar ameter
Ġcomp et
Ġcomp lex
Ġchar lie
ĠNorth ern
Ġhe ath
ha as
Ġpre ference
Ġrecord ing
Ġsw edish
Ġsw indon
Ġsw eeney
48 0
ij a
Ġab c
59 1
59 7
Ġcor rect
ĠAll ison
Ġsc ar
Ġsc ale
ĠGP U
88 0
áĥ ł
áĥ Ķáĥ
ĠMe an
Ġval para
Ġpl an
Ġpl ate
Ġpl ant
Ġpl ural
Ġpl atinum
ling er
ĠSpec ification
ĠSpec ific
Ġel izabeth
ĠBe hind
Ġbu enos
Ġtown sville
Ã¼ d
ĠWh ites
ĠFr ancis
ĠInd oor
ĠInd onesia
onn a
Ġfin ancial
Ġjo an
bin es
ĠCy cle
Ġvac uum
kW h
ĠStud ent
uc inich
ÃŃ n
Ġest onia
Ġres ults
ĠBill ups
cl iffe
azz oni
ĠPat ent
ĠPat tern
Ġspe cial
Ġmart y
ĠWeb M
ĠWeb Kit
ĠPort land
Ġem ma
Ġmas ah
Ã¶ n
Ã¶ r
Ġwal lace
Ġwindow s
Ġhar ry
Ġhar ris
ĠEnd ed
ĠÃ ·
Ġtra de
Ġolymp ics
Ã³ ttir
ãģ Ĩ
Ġblack pool
Ġkn own
Ġkn ights
ĠSen ate
Ð¾ Ð½
ĠNe on
ĠNe pal
Ġant werp
ĠAc ademy
Ġfl ight
Ð° ÑĤ
ĠWhe at
Ġcont estant
Ġmor ning
Ġste p
Ġev ent
Ġev icted
ĠCl ar
Ġag ent
str ument
ĠFC SL
Ġgra eme
Ġå įĹ
à´ ¯
à´ ¾
Ġes c
Ġim pul
ĠDevel opment
we en
ys vik
Ġæ ĺ
ĠGT C
Ġruss ian
AR B
Ġpan ama
ms by
ĠFl at
ĠFl Ã¸
ĠFl ights
St adium
ĠCor por
Ġfred erick
enz ie
ste p
ste ps
Ġbre ast
Ġbre men
Ġkar l
ĠProf it
ĠCle mson
apol i
Ġpet ersburg
ĠGra ce
ump ur
Ġrock ies
Ġrock ets
ather ine
ĠExp ress
Ġspeed way
li ance
li ament
ĠSign ed
ĠPub lished
ĠGovern ments
ĠHand icap
Ġgian carlo
ĠComb ativity
Ġlead ing
Ðµ Ð
ĠEqu ation
ĠEqu ivalent
ĠEqu atorial
ĠBas is
ĠBas eman
ĠBas eball
ĠJim my
Ġke ith
arm bar
com p
Ġsk ating
Ġsk inner
rel las
Ġber ger
Ġdev ice
ĠItal ia
Ġdan ilo
ĠChief s
Ġarg ument
ĠHar ry
ĠHar ris
Ġmiss ouri
Ġbo yd
Ġju vent
Ġtur bo
Ġtur key
Ġdem ons
Ġaut om
Ġlaw rence
ĠÎ ¸
ĠTur bines
ĠWheel chair
Ġdis placement
ĠMag n
Ġwork s
Ġvilla ge
à² ¤
Ġquarter finals
Ġtre vor
ĠWal ter
ĠWal ker
unc iation
ĠDele gates
ĠMich el
Ġsal vador
Ġsystem s
Ġwill ie
Ġhol land
Ġstar ts
ĠCarl ton
ME NC
ĠSab res
Ġser ver
Ġvol leyball
Ġalbert a
cu les
ĠAt om
Ġfed er
Ġfed ex
Ġken ya
Ġexp os
Ġbud apest
je ction
Ġiss ues
Ġtou rism
ĠFac ed
ĠMult ip
ĠEff ective
ĠVict ories
adem ic
Ġleon ardo
VA P
ĠPict ure
ĠTest s
Ġpav el
igi ous
Ġgi ov
Ġlim ited
ipe i
ĠAltern ative
ĠFa ith
Ġsab res
Ġmass achusetts
Ġbal let
Ġbus es
ĠVess els
Ġedward s
Ðº Ð°
ĠSoft ball
aro os
Ġren o
ĠJew ish
ĠKenn edy
ĠMotors port
wa it
ĠHo ops
Ġnak ed
col m
Ġta ipei
Ġaud io
Ġhay es
Ġid aho
ĠDu ke
ĠRy an
Ġbas eball
Ġwy oming
ĠParticip ation
ĠPal mer
ĠMole cular
Ġcub a
Ġbern ard
Ġbern hard
Ġfull back
Ġvill anova
Ġrab at
Ġkaz an
Ġesp n
ĠUN GE
Ġbang kok
Ġdin amo
Ġhu bert
Ġrev ival
ĠComplet ions
Ġross o
Ġalf ieri
Ġbrand on
ĠSupp ly
Ġreserv e
Ġreserv es
Ġà® ¤à®®
Ġsemifinal s
ĠPage ant
ĠDim it
ĠRet itled
empt y
Ġinc ident
ĠLie utenant
Ġcav endish
Ġhorn ets
Ġrand y
ĠSuccess es
ĠPhon eme
å¤ §
ĠCOM MENC
ĠPa id
ĠTong ue
Ġmun ich
Ġpier ce
Ġbow l
Ġkang aroos
ĠPrec inct
ĠDisp os
ĠDisp osition
fr ont
gil vy
ĠCod ing
ĠCAL LSI
ĠPers ian
ĠLor enzo
Ġcitiz enship
ĠHear t
ĠBurn ley
Ġgul f
Ġrud y
ĠJac ob
Ġkaw asaki
ĠColl ins
Ġoffic ine
ĠBelg ium
à²¨ à²
ĠSell out
Ġten ure
ĠWars hip
ĠFel ipe
ĠAR WU
ĠGlen n
Ġpresent ation
Ġaj ax
Ġsebast ian
Ġyank ees
ĠPron unciation
Ġà¤ Ĺà¤°
Ġayr ton
AJ N
ĠFam ous
ĠPP V
ĠTem perature
ĠDuch ess
Ġpict ures
ĠESP N
Ġox ford
ĠEnrol ment
Ġyoun ger
Ġarn old
Ġparticip ate
Ġmaur ice
rones ian
³ç ²ī
ĠWild cats
ĠLis cumb
ĠNav igator
ĠGall up
celer ation
Ġfang io
Ġgim n
Ġinstit ute
Ġinaug uration
Ġrug by
Ġkyr kje
Ġdepend ence
Ġplur ality
Ġpasseng ers
Ġintrodu ced
ĠVoiv odeship
PC GN
Pl atinum
cro ft
writ er
Õ¡ Õ
âĪ Ĵ
å¹ ¼åħ
ĠSens or
ĠPsy ch
ĠLN ER
ĠLuc as
Ġsof ia
ĠOP ERATION
ĠHab it
Ġmother well
ĠViv ian
ĠTog ether
ĠReleg ated
ibbe an
ockenheim ring
Ġconstit uency
plos ion
Ġtasman ia
Aust ronesian
Anal og
Gleng allan
Ros enthal
Sof res
qv ist
¬° å¹¼åħ
¹ä¹ ³ç²ī
įæĸ ¹ä¹³ç²ī
Ĵéħ įæĸ¹ä¹³ç²ī
ĠServ ices
ĠSitu ation
Ġtwick enham
ĠCann ot
ĠCancell ation
ĠTub es
ĠGullik sen
ĠOric on
ĠEner gy
ĠEBI T
Ġniss an
ĠSepar ate
ĠKarian ne
ĠDistingu ished
ĠShahe en
Ġconna ught
Ġconfig uration
ĠFlÃ¸ ysvik
ĠCorpor ate
ĠUNGE GN
ĠCOMMENC ED
ĠPrecinct s
ĠCALLSI GN
ĠOPERATION S
¬°å¹¼åħ Ĵéħįæĸ¹ä¹³ç²ī
) (
. ?
0 12
0 24
0 23
0 26
2 19
2 18
3 12
3 69
3 66
3 95
3 79
4 20
4 15
4 66
4 33
4 03
4 31
4 39
4 37
5 000
5 50
5 22
5 67
6 000
6 15
6 70
6 69
6 24
6 33
6 34
7 15
7 16
7 18
7 74
8 14
8 17
8 22
8 75
8 34
9 50
9 29
9 06
9 65
9 95
9 77
? "
A I
A P
A Z
A f
A ll
B rien
C D
D T
D ock
E n
E qu
G W
G old
G RT
G luc
H P
H ossein
I V
J anuary
J apan
L C
L Y
L Z
L u
M D
M on
N ame
O HL
O HA
O rient
P a
P e
P ts
P op
P lay
R em
S em
S DC
T A
T e
U n
U TR
W ay
W est
W AT
W JC
W GR
X TH
Y aar
] (
a ub
a qu
b j
b ins
c g
c at
c en
c ount
c ling
c imal
d al
d ing
d ot
d ated
d orf
e i
e j
e um
e ason
e ira
f i
f ri
f us
f ast
f air
g ra
h k
h ag
h ong
h unt
i Å¡
j ord
j ung
j amin
k c
k l
k las
k na
k usen
l at
l ative
l ift
m b
m od
m art
m ens
m ons
m oor
m obile
m aterial
n ia
n ian
n one
n ett
o anga
p b
p ing
p ro
p ine
p res
p ark
p laced
r ance
r ine
s mith
s pect
t n
t or
t ing
t op
u ction
u qu
u ence
v n
v od
v iron
w h
w i
w y
w agen
w chl
x le
x ade
x emb
y les
y lo
y Ã¼
z ig
¢ )
° ¤
± Ðµ
² à´¯
Ã ¦
Ã ´
Å ĭ
É ¡
É ¨
Ê ·
Ë ļ
Ø §
à ·
â ģ
å ±±
æ µ
æ Ī
æ Ĺ
æ ĥħ
ç Ī
Ġ ?
Ġ Ä
Ġ Ù
Ġ ì
Ġ raw
Ġ ons
Ġ err
Ġ urs
Ġ ãģ
Ġ Å¡
Ġ Ùħ
ķ à²¨
ĠS ax
ĠS anta
ĠS aint
ĠS aka
Ġt d
Ġt u
Ġt ank
Ġt od
Ġt ail
Ġt ram
Ġt ied
Ġt ake
ĠW as
ĠW ade
ĠW ings
ĠW yn
ĠW anderers
ĠW JC
ĠF ab
ĠF ans
ĠF av
ĠF ern
ĠF itz
ĠF ull
ĠF oss
ĠF ixed
ĠF encing
ĠF ixtures
ab ad
ab lish
ĠSE K
ĠA B
ĠA O
ĠA T
ĠA re
ĠA gain
ĠA FL
ĠA las
ĠA FC
ĠA po
ĠA chievement
ĠA xle
on au
er ial
er cise
in ol
in ition
in aw
in ki
at ore
at ari
ĠC N
ĠC er
ĠC urtis
ĠC incinnati
ĠC rystal
en ian
en berg
en hauser
an ov
am y
am an
am ac
am mer
am bert
ĠP ie
ĠP up
ĠP ly
ĠP ix
ĠP ull
ĠP PP
ĠP GA
ar p
ar an
ar as
ar ative
ĠT able
ĠT ip
ĠT au
ĠT ai
ĠT ask
ĠT win
Ġ2 19
al y
al ys
ĠD E
ĠD S
ĠD y
ĠD ig
ĠD ad
ĠD ub
ĠD ative
ĠD owns
ĠD ixon
ĠD ogs
ĠD olphins
ĠD ynamo
ĠR at
ĠR ear
ĠR osa
ĠR alph
ĠR icardo
ĠR IAA
ĠM U
ĠM X
ĠM es
ĠM ol
ĠM ort
ĠM ess
ĠM ous
ĠM ind
ĠM ales
ĠM ater
ĠM OA
it ter
ion ale
st ation
st ant
es on
es ity
Ġ( >
Ġ( Ëļ
ĠL B
ĠL F
ĠL ig
ĠL ith
ĠL iz
ĠL otus
ĠL isa
ĠL akh
ĠL ift
ĠL iving
ĠL HA
ĠL WAT
ĠN ow
Ġs as
Ġs el
Ġs ight
Ġs ack
Ġs ide
Ġs ony
Ġs ki
Ġs Ã¤
Ġs ullivan
Ġs acramento
Ġs pencer
la ir
cor n
cor champ
ic he
ent ry
om me
ed al
ed ith
ĠG V
ĠG ay
ĠG ian
ĠG ly
ĠG uns
Ġc j
Ġc ra
Ġc od
Ġc ad
Ġc raw
Ġc op
Ġc ase
Ġc ash
Ġc rew
ĠO F
ĠO I
ĠO S
ĠO st
ĠO WGR
ĠPo well
ce an
ce ph
ce ased
ri o
ri que
ĠH ul
ĠH end
ĠH em
ĠH ud
ĠH av
ĠH ob
ĠH iggins
ĠH ancock
ĠH ijikata
Ġm j
Ġm r
Ġm t
Ġm v
Ġm ent
Ġm ce
Ġm ing
Ġm ut
Ġm ph
Ġm ann
Ġm int
Ġm ets
Ġm ide
Ġm ild
Ġm ission
Ġm onday
Ġm ongol
Ġp g
Ġp on
Ġp es
Ġp ear
Ġp ad
Ġp ric
Ġp os
Ġp ru
Ġp ach
Ġp oll
Ġp ont
Ġp rad
Ġp ensions
Ġp ortsmouth
Ġp letcher
ol le
ol id
ol ished
is se
Ġ3 15
Ġ3 28
Ġ3 68
Ġ3 75
Ġb n
Ġb an
Ġb et
Ġb rid
Ġb lo
Ġb oh
Ġb rom
Ġb ach
Ġb eg
Ġb org
Ġb its
Ġb erg
Ġb jÃ¶
Ġb ottom
ame la
il ar
Ġ19 15
Ġ19 16
ear y
ing en
ĠY outh
as er
ĠE rik
Ġd t
Ġd or
Ġd om
Ġd ist
Ġd ort
Ġd ru
Ġd ong
Ġd ib
Ġd ani
Ġd iana
Ġd oming
Ġd rop
Ġd enny
Ġd igital
Ġd oha
Ġd dr
Ġd aily
ot en
ĠB an
ĠB al
ĠB ri
ĠB od
ĠB ach
ĠB ark
ĠB ird
ĠB out
ĠB order
ĠB ears
ĠB uch
ĠB ernie
el ton
el ler
Ġf i
Ġf u
Ġf am
Ġf ou
Ġf ir
Ġf us
Ġf ish
Ġf ired
Ġf ok
Ġf ax
Ġf ind
Ġf igures
Ġf lag
Ġf isher
Ġf ixtures
et on
et ine
ro ck
ro va
ay ette
ch in
ch ers
ch ary
ch ov
ĠRe id
ĠRe mitt
ĠRe FS
ul ia
Ġn r
Ġn er
Ġn ag
Ġn eg
Ġn athan
Ġn ixon
Ġn force
Ġn intendo
Ġn apoli
ver icks
Ġ4 14
Ġ4 28
Ġ4 17
Ġ4 04
Ġ4 79
Ġo c
Ġo h
Ġo hl
ĠV io
ĠV ik
ĠV eter
ĠV ista
ĠV inson
ĠV arsity
ĠV ault
ir ates
ir ds
Ġa qu
Ġa xis
un ity
ue va
ber ing
ge ki
ĠLo gan
ome ga
and re
Ġ5 000
Ġ5 12
Ġ5 14
Ġ5 13
Ġw t
Ġw es
Ġw is
Ġw orm
Ġw orth
Ġw als
Ġ6 27
Ġ6 68
Ġ6 50
im s
im an
im son
âĢ Ŀ
ss e
ra p
ra ch
ĠI o
ĠI mm
ĠI bis
ĠOpp onen
Ġg k
Ġg od
Ġg lass
Ġg rid
Ġg ust
Ġg av
Ġg lo
Ġg ross
Ġg ym
Ġg ould
Ġg ymnast
Ġg oran
Ġg uitar
Ġg mt
ur z
ur us
ur ated
end s
end ed
end all
Ġ7 17
Ġ7 50
ad ers
ad io
ad ise
ĠSt ay
ĠSt ell
ĠSt ones
ĠSt rain
ĠSt akes
ĠSt even
ĠSt ructure
ĠSt atist
Ġh and
Ġh ey
Ġh ink
Ġh ms
Ġh utch
Ġh onduras
Ġj ae
Ġj iang
Ġj amar
Ġj Ã¼rgen
ers en
ers ons
em ale
ry l
Ġin fl
Ġin to
Ġin side
ap er
art ak
tt e
ĠRes ident
ĠRes olution
ĠRes ources
ult on
Ġv ar
Ġv it
Ġv all
Ġv enezuela
Ġr up
Ġr oth
ub a
Ġst eam
Ġst ay
Ġst ory
Ġst ring
Ġst oke
ĠAtt empt
Ġl w
Ġl ig
Ġl amb
Ġl ips
Ġl illy
us ch
us alem
ĠCh in
ĠCh roma
ĠLoc o
ĠSe ating
ĠSe attle
ĠJ ill
ĠJ erry
ĠJ osh
ĠJ avier
ĠJ uan
ĠJ ourney
Ġ201 7
ie u
ie le
Ġk a
Ġk i
Ġk ab
Ġk ane
Ġk ash
Ġk ram
Ġk irk
Ġk icker
Ġk athy
ĠIn ch
ĠIn ning
ĠIn tra
ĠIn depend
ĠIn tegrated
ĠIn itial
ia g
ow an
ow ner
ow lands
ard ing
est an
ĠU se
ĠEn list
ip o
ip er
if ul
if orm
os o
Ġe ith
Ġe very
Ġe agle
iv ed
Ġch er
Ġch am
Ġch ad
Ġch ia
ian za
Ġ18 1
Ġ18 2
Ġ18 70
Ġ18 64
Ġ18 85
Ġ18 99
Ġ18 96
Ġ18 61
Ġ18 83
ast as
ish a
ĠLe o
ĠLe eds
ĠPro gressive
Ġre in
Ġre id
Ġre view
ĠBr uins
ĠPart icle
ov d
ov o
ov s
ov en
ov al
ov ich
ov iÄĩ
ac cent
ac chi
Ġse x
Ġse an
Ġse pt
Ġse ah
Ġse par
Ġde la
Ġde cl
ĠK y
ĠK iss
ĠK rist
ĠK ana
ĠK enny
ĠK urd
ĠDe put
ĠDe ceased
ĠDist ricts
ine z
ine yard
ak ley
ĠPlace ment
Ġle ip
Ġle nd
Ġle opold
Ġfor mer
Ġfor ces
Ġfor get
ff y
ĠComp ound
ĠComp lex
ĠComp arative
Ġy an
Ġy ong
Ġy ak
Ġy ugoslavia
ess alon
ud ed
Ġ" âĢĶ
ans ing
ust a
ust y
ĠHe xade
Ġ17 2
Ġ17 59
Ġand rÃ©
ĠMar g
ĠMar ia
ĠMar sh
ĠMar ques
av o
av al
12 8
cy l
ond iw
Ġno el
Ġno ah
pt ed
Ġair lines
19 2
19 9
19 73
19 89
19 83
19 81
lo g
Ġ25 8
Ġmar ion
Ġmar ie
Ġmar ina
Ġmar ino
ich ella
ich olas
Ġ22 3
ĠAr c
ĠAr m
Ġ24 2
Ġ24 3
Ġ24 7
ik ki
ost a
op oul
Ġ21 5
oc us
Ġ23 6
Ġ23 8
ĠOver weight
ĠQ AT
km an
ĠPer pet
ĠVis ited
ach es
ach ed
ath lon
ĠAl t
ĠConst it
ann is
Ġ27 1
Ġ27 2
Ġ27 3
Ġ27 9
15 1
15 3
Ġto b
Ġto o
ĠTh ompson
te es
uit s
16 1
Ġgr ants
Ġ26 5
omin a
act ions
Ġ29 2
ĠSh uster
ĠSh oulder
Ġra z
Ġra ge
Ġra pe
30 1
30 3
Ġal vin
Ġal ianza
Ġat om
ĠMatch ups
Ġ28 2
Ġsh awn
Ġsh anghai
elb y
Ġar ab
Ġar thur
ĠRo bin
ĠUn i
ĠUn ion
ĠUn ser
ld e
18 4
Ġor bit
Ġor lando
Ġor ient
ĠCo om
per ative
gin a
ĠAir lines
Ġth under
Ġth essalon
Ġnew port
Ġsp urs
ĠSp ring
ĠSp elling
ĠCar riers
form s
50 1
50 2
Ġfr ont
29 5
29 6
29 9
ĠEx pendit
tr inch
ĠInter reg
ĠInter mediate
73 8
ash k
ne z
05 3
Ġass ociation
Ġad ults
Ġad rian
Ġad sl
Ġcom edy
24 1
ĠTra ilers
Ġpro d
Ġ38 5
Ġ38 9
ĠSong writer
Ġ34 3
Ġ34 6
ille ry
26 5
Ġus age
Ġ35 7
ds or
74 4
ĠLa ur
ĠLa ura
iz es
ev an
ev iÄĩ
ĠNew ton
ĠMan itoba
04 1
04 7
04 8
Ġz x
Ġz ak
az u
ex ans
Ġgre gory
08 4
Ġbr uno
33 5
75 7
Ġman itoba
Ġqu als
Ġnorth western
Ġge org
off man
lin d
Ã© e
Ã¡ d
Ã¡ m
Ã¡ lez
ĠPr inting
ĠChar gers
Ġcon fed
Ġcon vention
Ġcon cordia
35 1
65 7
Ġph ase
Ġph ilipp
Ġph illies
ps ka
64 2
64 00
any on
Ġ54 5
Ġ54 6
Ġmc i
Ġmc m
ĠEar l
03 6
ĠNomin ating
Ġdav ao
44 4
Ġrank ed
sh a
sh aun
38 0
38 1
38 4
38 6
Ġbar nes
Ġbar clay
77 8
77 9
els inki
ĠMc L
oy le
oy uz
Ġapp le
ĠAg ent
76 0
ĠBar row
ĠBar nes
ĠÂ ±
ĠDis aster
36 1
ĠBy te
55 6
oth en
ĠAd ult
ĠAd ditional
CA F
CA CAF
af one
Ġpr ot
Ġbe hind
ox etine
ĠGre gory
Ġex ha
ĠPar ts
Ġcomp onent
Ġsl ot
Ġme h
89 4
ĠGe cko
Ġhe aven
Ġpre limin
ks andr
ĠWorld wide
Ġsw ift
Ġpart isan
ij e
Ġab olished
und red
59 4
ĠPh ase
ĠPh illip
ĠPh illips
ĠAll ied
Ġan ch
Ġan imal
ĠTerm inal
Ġwh at
Ġwh en
yn am
ĠOper ations
Ġfoot age
Ġtom as
ĠMus eum
me iras
amb ay
Ġ58 3
Ġdef ense
Ġdef ending
ĠOb esity
Ġel gin
ĠÐ Ĳ
ĠÐ Ĵ
ĠÐ ĵ
ĠBe ing
ĠBe ast
ĠBe ach
Ġsub mar
Ġbu char
Ġbel le
led o
ĠPass ing
ger ia
Ġcl uster
Ġpat ricia
Ġpat rese
ĠEst rellas
Ġend onym
bo ok
my th
ĠWork ing
54 3
ĠAmer icans
Ġmark et
ĠOffic er
gar ve
ÃŃ o
Ġest e
Ġest oril
ĠBow ler
Ġres igned
ĠSub j
ĠSub scri
itch ener
Ġ] (
Ġà °¤
Ġbay er
ĠPremier ed
86 3
pl us
ĠTro ops
ban on
ĠSer ge
ĠAb ram
Ġspe ct
Ġmont ana
ĠBl uet
Ġmag ic
Ġmag azine
Ġmag dalena
Ġem ily
ĠInt ro
ĠInt ake
Ġport uguese
ster dam
Ġmas k
ĠEl i
ĠEl ite
ots pur
Ã¶ z
ĠSuper lative
Ġwar ren
Ġhar old
uk u
ĠÃ ī
ĠSc out
ĠSc ient
ãģ Ħ
ĠVac ated
Ġkn ock
idd i
idd en
ĠNe ighborhood
ae ed
ĠAc celeration
Ġpol ice
Ġpol ite
Ġden geki
Ġcont ract
Ġmor an
Ġalex andra
Ġgold stein
Ġste in
Åį h
erg us
Ġag ency
rick er
Ġfre quency
ura i
Ġer ik
rest rial
Ġpeter borough
Ġav g
Ġav iv
Ġrid e
Ġrid ership
opp ing
à´ ²à´¯
Ġim aging
ĠAm d
ĠNames ake
Ġmich aels
we alth
Ġæ ½
ĠGT O
ĠGar rett
ĠHD I
Ġma vericks
Ġnor wich
Ġpremier ed
Ġpan am
Ġadmin istration
Ġscott ish
Ġgar ry
ste ad
Ġsim pson
Ġday ton
Ġlist en
Ġkar p
Ġreg azzoni
Ġprof essors
ĠTon ioli
ĠFe et
ĠDen ver
ĠRed s
ĠRed kna
Ġpet erson
ĠBel ievers
ĠCover ed
ãĥ ª
Ġir vine
ĠSatur n
ĠGra ph
Å¡ a
ĠSign ific
Ġ(Â ¢)
Ġwe i
ĠIsland s
ĠDown load
Ġdon or
Ġdon ald
ĠBas ic
ĠSerial s
Ġver d
Ġver de
com be
à¤ ¸
ĠPet acchi
ĠNor wood
Ġcr enshaw
ĠChrist er
ĠChrist ine
arn o
ĠDon or
Ġsum mit
Ġtri ple
ĠPeter borough
ĠRel ative
ĠRel igious
Ġsant o
Ġcas per
Ġstan is
ĠKn ock
ĠKn ots
Ġsand y
Ġsand ro
Ġaut o
Ġaut umn
ĠDef inition
Ġlaw son
Ġasc ari
Ġgreg or
ran corchamp
ĠÎ ·
ĠTur bine
ĠNum eric
Ġsur vey
Ġsur tees
Ġcb c
Ġmac donald
Ġmcc ar
Ġli ber
ias i
ĠSa if
ĠSa aeed
anz ania
Ġdis co
à¸ ¢
Ġter ang
Ġter restrial
ĠMag num
ret ired
Ġsecond s
Ġcapital s
Ð¸ Ð½
Ġterm ination
oug ars
Ġbrad ford
Ġlo ad
ĠMonth s
ĠMonth ly
ĠFrank lin
ĠFrank furt
Ar ena
for ward
xx x
ĠCommun ist
ET ED
ĠSy nd
ĠReal ization
Ġwill is
Ġhol ly
Ġkore an
ĠBarang ays
ĠIntrodu ctory
Ġeth an
ĠCivil ians
Ġger hard
da is
ĠLu ke
Ġca use
Ġmet al
Ġmagn us
bast on
ĠÉ ª
alam i
edu led
Ġbor is
Ġbor os
Ġbud dy
ĠCamp bell
ĠMult i
ĠGo ondiw
Ġband ini
Ġband width
Ġbur ke
ĠRece ptions
Ġint ro
ĠAlbert o
ON D
aut iful
ĠMy Sp
ĠMod ena
ĠMod ified
Ġbrook s
ĠBud get
ĠBud dh
Ġlim erick
ĠGreg g
Ãº n
ĠCant erbury
ĠHill s
Ġpac ers
Ġflo at
Ġrub in
Ġoriginal ly
Ã¨ res
ĠTe aching
ĠRa ised
ĠVirt ue
Ġweight lift
Ġstud ent
806 07
cont estant
cont inent
ĠWill is
ĠCr us
ĠCal cul
ĠRid es
ĠNT FS
ĠHo og
Ġmo ore
reg ular
Ġfort i
tegr ation
ĠOrgan isation
Ġcosp onsors
ĠSal mon
Ġta ip
ĠMad rid
ĠMad ison
ĠGal ician
Ġcro cod
ĠCON CACAF
ĠElectric al
nik ov
yy yy
Ġton ight
ĠRy uji
ĠHaw thorn
ĠChap ters
Ġoliv ia
Ch inese
Ð» Ð¾
ĠÒ Ķ
ĠÒ ķ
ĠPal ace
ĠTig ers
ĠRay mond
stra klas
Ġcost a
Ġbry an
Ġbart on
Ġfight ing
Ġoper ations
ĠLow s
Ġhon or
Ġvill ores
Ġku wait
Ġbarb ara
à± Ĩ
ĠCam by
ĠCam era
ĠRog ers
Ġsn ake
Ġczech oslovakia
Ġns r
Ġnico las
ĠIndian apolis
ĠFeatur es
ĠSpokesp ersons
ĠFI PS
ĠPay out
ĠPay load
ĠRu les
Ġwhe el
Ġjoh an
Ġjoh annes
Ġlow e
Ġkenn eth
Ġspir al
ĠExt roverted
hu is
her ents
ĠSar ah
ĠDem and
ĠRon ald
ĠRick y
ĠMo ore
Ġsil va
Ġsamp led
Ġmale eva
ĠBer lin
Ġob ese
Ġwars z
Ġgovern or
Ġgovern ment
Ġhyd ro
Ġjess ica
Ġram on
Ġdeport es
Ġorgan isation
ĠDisco ver
Ġslov akia
ĠPhon etic
ĠAccred ited
.. .
Cap tain
ËĪ t
ĠSI XTH
ĠSr pska
ĠCOM PL
ĠTen ure
ĠTele play
ĠLif etime
Ġserv ices
Ġpage ant
ĠVer izon
Ġgir l
ĠStrong s
Ġelim ination
0000000000000 1
ders hot
ĠSEC OND
Ġtul sa
Ġtechn ical
ĠAS TC
ĠCod ename
Ġcitiz en
Ġbuck s
Ġdim ensions
Ġfound ation
Ġnig el
Ġnig eria
Ġow ner
Ġaff iliation
ĠStan ford
Ġvari ous
Ġvari ety
ĠColl ison
ĠKaz akhstan
ĠMcK ay
000000000000 003
Â¢ /
à° ²
à° Ĺ
ĠFis cher
ĠFumb le
ĠCro atian
ĠPav ilion
ĠMEP s
ĠGib bs
Ġprom oted
ĠEP A
Ġnich olas
Ġhor se
Ġvi enna
Ġstad ler
ĠCham bering
Ġfore ign
ĠExec ution
Ġcoy ne
ĠConsum er
ĠConsum ption
ĠAtl anta
ĠAutom atic
Ġana heim
ĠSess ion
ĠDer by
ĠMill s
ĠNS SDC
ĠNorm al
Ġsett lement
Ġcong ress
ĠOpinion Way
ĠEk straklas
Ġfis ichella
Ġfury k
Ġhend rick
ĠJess e
ĠIng lewood
ĠInfl uence
Ġcommon wealth
Ġprov idence
ĠIsrael i
Ġspec ies
Ġtrin idad
595 82
ĠSound Dock
ĠTerrit ories
alog ue
ĠMic ro
Ġsach sen
Ġsatur n
Ġwad kins
Ġeug ene
Ġmarin ers
Ġfrances co
Ġzamb oanga
Ġheid feld
Ġdominik ovic
Slov enian
cce eded
cap acity
rash ers
çī Įå
ĠCur ry
ĠTorn ell
ĠNig eria
ĠGau ge
ĠGonz alez
ĠHad eda
Ġbug atti
elor ette
Ġston er
ĠSequ ence
ĠUs age
Ġlakes ide
Ã¡nd ez
Ġphr ase
Ġmechan ism
ĠPhys ical
Ġà² ķà²¨
Ġà´® à´²à´¯
ĠMcDon ald
Ne ighborhood
Sec ret
ÅĦ ski
Ġong oing
Ġips wich
ĠPya ar
ĠTel ugu
ĠTosh iba
ĠDia gram
ĠRhe in
ĠOak land
Ġpicc oli
Ġbour dais
chest ra
Ġwaver ley
Ġjama ica
Ġlut on
ĠInaug urated
Ġlever kusen
Ġroost ers
ĠFreed om
Ġedg baston
ĠOrth olog
Ġmasah iro
Ã¶n en
ĠNepal is
Ġbreast stroke
ĠMagn itude
ĠMultip lier
Ġgiov anni
à²¨à² ¡
Ġgimn asia
ĠPsych ological
ĠSeparate ly
Gluc ose
Japan ese
LZ H
Orient ed
Te acher
pres enter
viron ment
xemb ourg
âģ Ħ
ĠApo gee
onau ts
ĠPup il
alys is
ĠMous avi
ĠGly ph
Ġmide ast
Ġpric es
Ġdort mund
Ġfok ker
Ġfax on
chary a
ĠRemitt ances
Ġneg ative
ĠVik ings
Ġwals all
ĠImm unity
Ġinfl ation
ĠEnlist ed
Ġeith er
Ġlend l
ĠHexade cimal
ĠMarques an
opoul os
ĠExpendit ures
trinch am
ĠInterreg num
Ġquals iasi
Ġexha ust
Ġprelimin ary
Ġbuchar est
ĠSubscri bers
ĠRedkna pp
rancorchamp s
ĠGoondiw indi
ĠMySp ace
Ġweightlift ing
Ġcrocod iles
Ġvillores i
ĠCOMPL ETED
ĠEkstraklas a
çīĮå ¬°å¹¼åħĴéħįæĸ¹ä¹³ç²ī
% .
. ]
/ /
0 13
0 29
0 73
0 71
2 28
2 27
2 23
2 26
3 19
3 13
3 28
3 70
3 75
3 76
3 78
4 000
4 12
4 73
4 05
4 23
4 74
4 07
4 35
4 65
4 38
4 01
4 76
5 16
5 26
5 36
5 89
5 46
6 30
6 28
6 17
6 73
6 05
6 04
6 07
6 75
6 38
7 12
7 14
7 70
7 27
7 66
8 20
8 27
8 69
8 35
8 65
8 01
9 20
9 14
9 30
9 27
9 72
9 04
9 67
9 44
9 79
9 62
: //
A nd
A rea
A verage
A ng
A DA
A tl
B X
B ry
C O
C T
C ar
C ont
C AT
C ET
D e
D es
D ate
F emale
G B
G Hz
H C
H ouse
H ungarian
I D
I T
I nd
J Ã¸r
L ast
L ost
L ose
L PM
M C
M L
M er
M ary
M ax
M ichel
N I
N omin
N OC
N AME
O E
O pen
O vers
P o
P ine
P aul
R ate
R uns
R ST
S N
S O
S q
S en
T K
T ube
U C
U E
W C
W R
W in
W PI
W AB
Z E
Z DS
Z ADA
b p
b t
b ill
b ey
b rit
b ik
b ach
b oth
b uk
b ruck
b ilt
b ourg
c am
c ine
c io
c ock
c ona
c reased
c ÃŃa
d at
d ue
d em
d iction
d gos
e o
e qu
f ort
f irst
f ik
f ly
f ors
f ano
f ather
f rancorchamps
g n
g al
g ia
g ren
g ett
g ensen
g erald
g lobal
h f
h on
h or
h il
h el
h ur
h our
h ost
h ower
h cl
h rs
h aven
h agen
i ol
i ary
i ler
i ally
i Äį
i Ã³n
j ar
j as
j ub
j ohn
j ev
j ana
j abi
k u
k v
k ar
k el
k ia
k ish
k Hz
k enny
k icker
k irchen
l la
l und
l bs
l Ã³
l uded
m H
m k
m u
m ie
m ant
m ora
n or
n is
n umber
n stein
n agar
o il
o ong
o ird
o pted
p re
p el
p ions
p ac
p ost
p ress
p ura
p edo
p rus
q ing
q mjhl
r ab
r eam
r ent
r ary
r ons
r ne
r ino
r uli
s ee
s ey
s ett
s ize
s bury
s emi
t ri
t ib
t oto
t imes
t pb
u f
u ct
u ge
v il
v ir
v ard
v ian
v io
v illa
w s
w u
w om
w olves
x ic
x ton
x ide
y er
y ton
y right
y lde
z ar
z one
µ m
· ŀ
¸ £
½ ŀ
Â µm
Ä Ļ
Å ı
Å Ľ
Å Ł
É ½
Ê Ĵ
Ë Ĳ
Ì ģ
× Ķ
ä ¼
ä ¾
å ®
å º
å Į
å ı
æ Ľ
ç ¾
ç ĭ
ç ļ
ç ľ
ç ¸£
é Ľ
ì Ļ
ï ½ŀ
Ġ í
Ġ OM
Ġ ame
Ġ um
Ġ ist
Ġ UM
Ġ ult
Ġ eld
Ġ orth
Ġ iz
Ġ Ã©
Ġ ident
Ġ .)
Ġ ridge
Ġ ãĤ
Ġ áŁ
Ġ Ñģ
Ġ ×ķ
Ġ ||
Ġ rights
Ġ igor
Ġ ÊĴ
ĭ è
İ å
İ ĭ
ĳ Î
ľ ĵ
ŀ Ĺ
ĠS le
ĠS or
ĠS es
ĠS om
ĠS ue
ĠS AT
ĠS erved
ĠS elf
ĠS auer
ĠS ources
ĠS odium
ĠS Ã¼d
ĠS ZDS
le c
le ston
le pool
le gi
le asure
Ġt g
Ġt ing
Ġt ac
Ġt ong
Ġt eng
Ġt ree
Ġt ander
Ġt ickets
Ġt osh
Ġt win
Ġt ba
Ġt Ã¼r
Ġt oni
Ġt di
Ġt anzania
ĠW ra
ĠW olf
ĠW ave
ĠW Ã¸
ĠW ells
ĠW agner
ĠW ellington
ĠF X
ĠF er
ĠF al
ĠF ish
ĠF ace
ĠF eld
ĠF ib
ĠF lor
ĠF ission
ĠF ury
ĠF ocal
ĠF EA
ĠF ides
ĠF ocus
ĠF ylde
ab et
ab ash
ĠFR AM
ĠA P
ĠA la
ĠA ver
on ic
on ac
on ised
er der
er ling
in te
in bound
in ney
in ja
at u
at ro
at ibility
ĠC U
ĠC it
ĠC ov
ĠC ents
ĠC lement
ĠC ows
ĠC zech
ĠC DR
ĠC rav
ĠC itiz
ĠC SA
ĠC inema
en ess
en ced
en ues
en za
en stein
an ion
an ay
an ey
an mar
an tha
or u
or al
or ig
or ra
or Ã©
or ical
or back
am ia
am ak
am ura
am mad
ĠP D
ĠP i
ĠP in
ĠP ent
ĠP ig
ĠP end
ĠP ati
ĠP ierre
ĠP ugh
ĠP uerto
ĠP HP
ĠP amela
ĠP leasure
ar ine
ar aj
ar cer
ar thur
ĠT C
ĠT F
ĠT O
ĠT T
ĠT u
ĠT w
ĠT ab
ĠT al
ĠT ag
ĠT ang
ĠT ib
ĠT uck
ĠT ower
ĠT imes
ĠT ms
ĠT odd
al z
al ing
al ach
ĠD F
ĠD a
ĠD ri
ĠD up
ĠD ies
ĠD ial
ĠD aw
ĠD ix
ĠD erm
ĠD Ã¡
ĠD ances
ĠD ott
ĠD ole
ĠD uncan
ĠD errick
ĠD oyle
ĠR if
ĠR ory
ĠR ah
ĠR ib
ĠR af
ĠR na
ĠR ET
ĠR PM
ĠR Avg
ĠM B
ĠM F
ĠM ig
ĠM end
ĠM old
ĠM ore
ĠM ins
ĠM illion
ĠM odes
ĠM rs
ĠM aster
ĠM anuel
ĠM aja
ĠM icrosoft
ĠM orgenstern
ĠM ongol
ĠM endoza
ĠM itte
ĠM itsubishi
it ra
it ia
ion g
st ri
st ers
st op
st rad
st ars
es es
ou ra
Ġ( )
Ġ( .
ĠL it
ĠL om
ĠL ay
ĠL ud
ĠL anc
ĠL ib
ĠL GA
ĠL akota
ĠL omer
ĠL onav
ĠL ansing
ĠN Z
ĠN r
ĠN ER
ĠN an
ĠN ag
ĠN uc
ĠN Up
ĠN BC
ĠN ext
ĠN ebraska
ĠN uggets
Ġs j
Ġs in
Ġs ot
Ġs ul
Ġs ue
Ġs id
Ġs ag
Ġs au
Ġs ai
Ġs und
Ġs ung
Ġs alo
Ġs erb
Ġs ams
Ġs ato
Ġs vet
Ġs ouch
Ġs ymbol
la w
la z
la ine
la va
ic ate
ic ular
ic oke
ent zen
00 7
00 9
om ial
om ore
om field
om mission
ĠG M
ĠG R
ĠG er
ĠG at
ĠG ri
ĠG ap
ĠG ard
ĠG ang
ĠG lo
ĠG uil
ĠG erm
ĠG Ã¼
ĠG VA
ĠG erald
ĠG olos
Ġc et
Ġc ul
Ġc age
Ġc ric
Ġc ust
Ġc ai
Ġc ush
Ġc ody
Ġc ott
Ġc ancer
Ġc atholic
Ġc open
Ġc athy
Ġc ska
Ġc anyon
Ġc ougars
ĠO val
ĠO VA
ĠO CC
ĠPo jo
ĠPo lice
ĠPo cona
ce ston
ce ster
ri x
ĠH is
ĠH ess
ĠH ors
ĠH uck
ĠH its
ĠH ero
ĠH assan
Ġm p
Ġm w
Ġm os
Ġm ang
Ġm ama
Ġm ald
Ġm alt
Ġm uk
Ġm uri
Ġm bar
Ġm tv
Ġm achine
Ġm hcl
re ps
Ġp it
Ġp el
Ġp ound
Ġp ard
Ġp ut
Ġp ace
Ġp air
Ġp ages
Ġp ione
Ġp irm
Ġp ueb
ol lo
is er
is es
is ing
is el
Ġ3 14
Ġ3 21
Ġ3 35
Ġb on
Ġb ent
Ġb ri
Ġb end
Ġb ourn
Ġb ian
Ġb rig
Ġb ond
Ġb att
Ġb und
Ġb oo
Ġb onn
Ġb ump
Ġb ailey
Ġb ombers
Ġb ristol
il les
il io
il ler
Ġ19 01
ing d
ing ers
ing os
ĠY ates
ĠY ankton
as i
as l
as us
as ens
ĠE A
ĠE ver
ĠE sk
ĠE VA
Ġd B
Ġd s
Ġd ul
Ġd art
Ġd ag
Ġd up
Ġd ess
Ġd ug
Ġd og
Ġd res
Ġd ane
Ġd ual
Ġd rew
Ġd ana
Ġd und
Ġd ns
Ġd ipi
Ġd rum
Ġd eep
Ġd pf
Ġd errick
ot ine
ot te
ĠPla ins
ĠB i
ĠB on
ĠB at
ĠB it
ĠB et
ĠB ee
ĠB rid
ĠB uck
ĠB its
ĠB rie
ĠB right
ĠB ene
ĠB hof
ĠB ombers
ĠB oland
ĠB utler
el man
el nikov
Ġf ut
Ġf ast
Ġf ant
Ġf ell
Ġf ont
Ġf itz
Ġf uzz
Ġf riday
Ġf oster
Ġf lavia
Ġf ailure
et i
et z
et ers
et ary
et aker
ro se
ay u
ay ama
ay shaun
ch y
ch rist
ch lan
ch anges
ch ambert
ĠRe f
ĠRe ct
ĠRe fer
ĠRe ward
ĠRe be
ĠRe eves
ĠRe ached
Ġn w
Ġn ic
Ġn ap
Ġn ac
Ġn ath
Ġn ina
Ġn tv
Ġn olan
Ġn uggets
Ġn evada
Ġn caa
ver ly
Ġ4 25
Ġ4 73
Ġ4 72
Ġ4 05
Ġ4 06
Ġ4 08
Ġ4 98
Ġ4 77
Ġo st
Ġo vers
Ġo oo
Ġo pinion
Ġo scar
ĠV I
ĠV il
ĠV id
ĠV ow
ĠV os
ĠV ide
ĠV inc
ĠV ancouver
ĠV into
ĠV oges
ĠV ineyard
Ġa u
Ġa et
Ġa les
Ġa val
Ġa ka
Ġa gs
Ġa uburn
un ceston
ue h
ĠMA AC
ĠMA ZADA
ber ley
ber wolves
ĠLo ot
ĠLo se
um i
um in
ig en
ig ation
th ings
and ria
Ġ5 50
Ġ5 22
Ġ5 07
Ġ5 33
Ġ5 37
Ġ5 94
Ġw n
Ġw u
Ġw or
Ġw it
Ġw all
Ġw ine
Ġw ey
Ġw ash
Ġw ald
Ġw yn
Ġw ays
Ġw alt
Ġw agner
Ġw ooster
Ġw oking
Ġw izards
Ġw urz
Ġw abash
Ġw erder
Ġ6 13
Ġ6 15
Ġ6 18
Ġ6 73
Ġ6 33
Ġ6 31
im i
im it
ss es
ĠI IN
ĠI je
ĠI CL
ĠI yers
ank ar
od oul
od afone
Ġg l
Ġg y
Ġg in
Ġg ol
Ġg ot
Ġg ard
Ġg ets
Ġg ille
Ġg ps
Ġg las
Ġg oo
Ġg Ã¶
Ġg iles
Ġg lad
Ġg aut
Ġg zip
Ġg othen
ur ich
end u
end ent
end ine
end ment
end ale
Ġ7 18
Ġ7 04
Ġ7 94
ad ze
ad dy
ad opoulos
ĠSt ark
ĠSt evenson
ĠSt opping
Ġh ul
Ġh un
Ġh em
Ġh tt
Ġh us
Ġh ow
Ġh ack
Ġh op
Ġh ern
Ġh az
Ġh its
Ġh air
Ġh ull
Ġh of
Ġh isp
Ġh ero
Ġh ermann
Ġh elsinki
Ġh otspur
Ġ20 9
ist o
Ġj j
Ġj ab
Ġj ing
Ġj ill
Ġj ong
Ġj ake
Ġj erem
Ġj ays
Ġj enson
Ġj avier
Ġj ansen
Ġj ennings
em o
em en
em outh
em ann
ry d
Ġin nes
Ġin dust
ap t
art e
art u
art z
ĠPosition al
ĠRes et
ĠTotal TK
ult z
Ġv c
Ġv y
Ġv ir
Ġv and
Ġv ick
Ġv oj
Ġv asco
Ġv arsity
id at
id en
id is
Ġr j
Ġr ot
Ġr ang
Ġr ings
Ġr ind
Ġr ica
Ġr Ã¤
Ġr icardo
Ġr anges
Ġr onnie
ick en
Ġst ri
Ġst re
Ġst eff
Ġst opp
Ġst range
Ġst orage
Ġst aples
Ġl al
Ġl ub
Ġl ies
Ġl if
Ġl iv
Ġl ov
Ġl own
Ġl ang
Ġl og
Ġl ike
Ġl of
Ġl iter
Ġl anny
Ġl isa
Ġl amar
Ġl umpur
Ġl jub
ee han
us ive
ĠCh ant
ĠCh ang
ĠCh ev
ĠCh ild
ĠCh ester
ĠCh inas
ĠCh aun
ĠLoc k
ĠJ ia
ĠJ ak
ĠJ ust
ĠJ ama
ĠJ aneiro
ĠJ yut
Ġ201 5
Ġ201 6
Ġ9 00
Ġ9 72
Ġ9 08
Ġk k
Ġk it
Ġk ol
Ġk il
Ġk yle
Ġk erry
Ġk ondo
Ġk uala
Ġk atherine
ĠIn du
ĠIn fo
ĠIn sp
ck ter
ow i
ow r
ard t
ag h
ag on
he y
est on
ĠU ba
up ois
ies e
ies on
ip ot
ip el
Ġby dgos
if ford
ut o
Ġ12 28
Ġ12 09
Ġ12 33
Ġ12 61
ric o
os est
Ġe ye
ze k
Ġch un
Ġch ang
Ġch ung
ens burg
old er
ĠTo yota
ĠTo xic
ĠCom ment
ĠCom bin
Ġ18 25
Ġ18 68
Ġ18 71
Ġ18 77
Ġ18 36
Ġ18 89
Ġ18 46
Ġ18 82
Ġ18 42
Ġ18 92
Ġ18 51
ire cted
ĠCol umbus
ĠLe on
ĠPro x
ĠPro vin
Ġre ason
Ġre ps
Ġre ve
Ġre yn
Ġre ading
ace y
ĠBr on
ĠBr ent
ĠBr others
ĠBr endan
Ġ14 00
ĠCon verted
Ġpar a
ĠPart ies
ĠPart ially
ov ia
ov ski
ac le
ac io
ac ross
Ġse ctor
Ġse curity
Ġse lection
Ġse villa
Ġde p
Ġde leted
Ġde board
Ġde laware
Ġ13 00
Ġ13 91
ĠK M
ĠK r
ĠK u
ĠK or
ĠK am
ĠK ate
ĠK ent
ĠK ay
ĠK ir
ĠK os
ĠK oh
ĠK rag
ĠK CL
ĠK aine
ĠK elley
ĠK ucinich
ĠK itchener
amp les
ass in
ĠDe ad
ĠDe pth
ĠDe gree
ĠDe Paul
ru d
ru st
ak k
ak is
Ġ16 3
ter ian
Ġle br
Ġle banon
Ġle yton
ey s
ff en
ff ic
ĠComp onent
ĠComp anion
ĠEv il
ĠEv ans
ĠEv iction
ĠEv alu
Ġun de
Ġun opposed
pul ous
Ġy ar
Ġy ellow
ess ion
ud d
ud es
ud ley
nd ham
Ġpo k
Ġpo verty
Ġpo pulous
orm o
ĠInc ident
ĠInc lination
ĠInc luded
ĠInc arcer
ĠHe len
Ġ17 3
Ġ17 7
Ġ17 8
ang le
ang zhou
Ġand ers
Ġand erson
Ġand reas
ĠMar ine
ĠMar co
av ang
12 50
ton s
ames e
ĠEng le
ph ans
ph ological
ph anie
19 6
19 8
19 30
19 68
19 69
19 71
19 06
19 74
19 31
19 78
19 82
19 87
19 97
se x
se ud
se curity
lo e
Ġ25 4
Ġ25 00
ich ita
eb u
atch e
14 8
14 00
ĠAr my
Ġ24 1
Ġ24 6
Ġ24 9
ik h
ik aru
og en
og gin
og ne
ost edal
op f
ial ist
oc on
Ġ23 3
Ġ23 95
ĠQ F
ĠQ uit
ĠPer u
ĠPer ry
ĠPer ise
ication s
Ġro z
Ġro sen
ĠWritten by
Ġla u
Ġla y
Ġla ff
Ġla unch
Ġla unceston
Ġ30 2
ĠAl ma
eld on
Ġwin ning
Ġwin ston
ĠChamp s
Ġ27 7
oll ow
oll ini
ale nd
15 4
Ġto ledo
ĠTh ailand
ĠTh ierry
ĠGr ay
ward ene
ier ra
ord s
16 3
16 8
16 9
25 1
25 2
Ġgr p
Ġgr en
Ġ26 1
Ġ26 3
Ġ26 4
cc o
cc ent
Ġ29 1
ĠSh er
ĠSh ape
Ġper kins
ĠVisitor s
Ġra j
Ġra fer
Ġra vens
30 5
30 9
man ent
Ġal i
Ġal ain
Ġal ston
Ġal pha
Ġal trincham
enn ial
Ġ28 0
Ġ28 6
Ġ28 7
Ġsh ak
Ġsh ield
Ġsh ock
Ġsh annon
Ġsh elby
Ġsh ankar
elb ase
ĠQu alif
Ġar ts
Ġar ound
Ġar my
ĠMon te
ĠMon ica
eth od
ĠUn animous
ĠUn iform
17 1
17 4
17 8
17 50
ĠEngine ering
18 75
18 78
Ġor ion
Ġor bital
ĠCo eff
ĠCo ppa
ĠCo akley
de en
erv ille
per t
per ial
len s
int endent
Ġcar r
Ġcar ol
Ġcar oline
ĠFinal Date
70 2
70 4
70 5
anc ing
orn s
Ġsouth port
Ġth an
Ġth or
Ġth ur
Ġth eme
Ġth urs
Ġth orpe
Ġth rone
Ġth ailand
ood y
Ġsp ot
Ġsp un
Ġsp read
Ġsp lice
ob icoke
ĠSp ir
ĠSp ending
ĠSp artak
ĠCar ol
ĠCar son
ĠCar pet
ĠCar oline
ĠCar bon
ĠCar elia
ĠPre v
ĠPre ston
ets u
ah ar
ah ed
form er
68 3
68 5
Ġfr entzen
ĠFinish ing
ĠDec ade
69 3
ele t
ĠEx alt
ĠEx ercise
ĠEx amples
tr unc
cot t
ĠInter cept
ris diction
73 4
73 5
73 6
ĠTrans fers
ash a
ash ira
cent ric
ne apolis
72 1
72 6
05 1
05 2
05 5
Ġass oci
Ġad o
Ġad ri
Ġad ac
Ġad herents
24 4
ĠTra vis
Ġpro ject
Ġpro spect
Ġ38 4
Ġ38 06
ib e
ib les
ib ao
06 7
23 8
ĠSong s
Ġ34 4
Ġ34 5
eg h
eg al
eg ashira
09 7
26 2
ĠUS F
ĠUS L
Ġus able
Ġus ing
Ġ35 3
Ġ35 4
Ġ35 8
Ġ35 9
Ġsing ular
rat er
ĠAv e
ĠAv oird
ll able
ĠAss oci
74 1
Ġas w
Ġâ ´
Ġâ ľĵ
ĠLa u
66 0
Ġcap e
ev o
ev olen
ĠNew man
que z
uth erland
Ġcol lect
ĠMan ning
04 2
04 3
04 9
Ġz o
Ġz en
Ġz hou
Ġz oel
bert o
ĠAth ens
ĠFor ces
Ġvict or
co la
ex it
Ġi if
49 4
49 6
Ġbr endan
75 4
Ġman age
Ġman ila
Ġam ar
Ġam Ã©
by terian
Ġu pper
ous h
ĠPl ur
Ã¡ ng
Ã¡ rez
67 8
ĠPr inter
ĠOff ensive
34 0
Ġcon rad
35 3
35 4
65 5
out bound
Ġph ant
Ġ40 2
Ġgrand e
Ġco x
Ġ33 1
lor ia
Ġ45 4
Ġ54 2
Ġmc a
Ġmc d
Ġmc le
Ġnomin ee
03 7
95 5
ĠJo an
Ġeng ines
ĠNomin ative
ĠInstit ute
mm a
mm ing
98 2
98 3
98 4
98 6
98 8
Ġ44 1
Ġ44 3
ĠQual ification
ind a
44 8
AT V
sh u
sh ine
sh aw
Ġq b
Ġind y
38 8
Ġsign ed
Ġopen ing
ĠPerform ed
77 6
77 7
Ġed berg
Ġed mund
Ġclub s
Ġplay station
85 1
85 8
ĠMc W
Ġoff enhauser
ĠComm enced
ĠOw nership
Ġapp s
Ġapp alach
Ġschool s
Ġhaw aii
45 2
45 9
ĠMov ies
Ġmin or
Ġmin istry
ĠZ X
ĠZ hang
Ġsu i
itz ki
ĠHost s
ĠBar r
ĠÂ ¥
ĠÂ ¹
ĠDay ton
Ġx o
55 3
55 8
39 0
Ġgu el
ĠSw edish
ĠAd ams
ĠAd opted
CA D
79 1
79 7
Ġmon ter
Ġbe er
ox ville
Ġol im
ĠTrack ing
uss ion
ĠGre ater
ĠEd win
ĠEd die
ĠMark s
ĠMark atal
ĠOr ange
ĠOr phans
Ġex change
Ġex perience
ĠPar enth
ĠPar liament
78 2
78 8
ĠSouth west
ĠSouth east
Ġcomp atibility
Ġsl k
Ġsl uman
ĠDav es
Ġchar acters
89 0
ull i
Ġhe i
Ġhe at
Ġhe ir
Ġpre v
Ġrecord ed
48 6
ij n
ij ne
Ġab sol
ĠVal verde
und ers
und ai
Ġcor t
Ġcor ps
Ġcor nell
Ġcoll ier
Ġan at
Ġan and
Ġan other
ĠTerm ini
Ġsc ul
Ġwh alers
yn a
Ġtor pedo
Ġposition s
ander bilt
Ġhill s
Ġtom s
ĠMe asure
Ġval id
ĠCont estants
ida e
58 6
ĠâĢ ¦
Ġdef icit
fl ated
fl ict
Ġinter toto
Ġinter changes
ĠRole Play
ĠSpec imen
Ġel k
ues a
ĠÐ ´
ĠBe er
ĠBe fore
ano e
ĠTy ph
Ġis abel
Ġbu ick
Ġbu tton
Ġjack y
ush i
lot to
Ã¼ rich
Ġcl iff
Ġpat ent
Ġpat tern
ĠWh en
ĠFr anch
ĠFr anÃ§
ĠAnd ray
Ġaf rican
ĠInd ole
ĠOrder ed
oo f
ĠVers ions
ĠBroadcast er
ĠBroadcast ing
urs uit
Ġred uction
ere z
gar h
mon ed
Ġest udiantes
ĠPres chool
irt y
Ġres ort
Ġres earch
Ġres olution
zz i
ĠSub str
Ġbay lor
Ġbay hawks
cl uding
cl usive
pl an
ĠPat ton
ĠPat riots
ĠTro op
ĠSer ie
ĠSer gio
ĠSer bian
ĠLi qu
ĠBl ues
ĠBl atche
ĠRev ival
ĠRev olution
ĠRev enues
ĠSan ford
ĠMiss ing
Ġmart ini
ĠX ML
ĠPort er
gr ano
ĠSte fan
ĠInt o
oul ter
Ġport er
Ġport al
Ġchrist odoul
ĠElector s
ĠRom ania
ĠRom aja
Ġsch neider
Ġsch ultz
Ġfriend s
Ã¶ l
Ã¶ m
Ġtrans actions
ĠAct s
Ġwal king
ĠSuper char
ĠSuper intendent
ĠAff ected
Ġwar ner
Ġhar b
Ġhar m
Ġhar rison
Ġhar rington
Ġform ation
ĠÃ ¦
ĠSc ience
ĠSc rapped
ĠJersey s
burg ish
ĠMcC r
Ã³ ria
ãģ Ł
Ġblack burn
ĠVac ant
ĠVac ancy
ĠVac uum
Ġkn ight
ĠMil an
ĠMil ton
pper ary
ĠGreen back
ĠCent rino
ĠCent ennial
che ong
Ġdec imal
Ġdec reased
ae fer
ĠSun shine
ĠAc ademic
Ġfl am
Ġfl ow
ga ud
Ġen velopment
ĠWhe elbase
Ġcont ent
Ġcont act
Ġcont estants
Ġcont ested
Ġcont inu
Ġmor occo
Ġste al
ĠCl osing
ĠCl osest
ows ki
Ġtr ent
Ġcal vin
Ġcal der
Ġnick name
Ġag ustin
Ġag assi
Ġag usta
ĠMal aysian
Ġfre ib
ĠUnd irected
Ġer ie
ĠMain e
Ġå »
Ġunion ist
à´ ¨
à´ ¿
ĠAm ount
ĠAm iga
ĠAm ateur
ĠAm endment
Ġmad d
Ġmich al
ĠGar land
Ġma egashira
Ġdu ffy
Ġfe ver
Ġfe ather
AR DA
men ia
ĠGain ed
Ġpe ck
Ġpan is
Ġbra ves
Ġpal meiras
Ġlu xembourg
Ġlee la
St an
St ars
St aten
ĠSch umacher
ĠFall ing
Ġche p
Ġgar cÃŃa
Ġfred die
ĠSn ow
Ġsim one
ĠEp ic
ĠEp och
Ġne al
ĠProf essors
Ġprof essional
draw al
Ġrele ased
sk auer
ĠFe ather
Ġpet e
Ġpet rol
ĠBel lo
ãĥ ¼
ĠSim pson
ĠLouis e
ĠGra du
Ġover land
ĠArch er
ĠArch bishop
Ġrock s
ĠExp onent
In cluding
ĠSign al
Ġshe ila
lad olid
ĠHand el
Ġmax i
rop ower
Ġwe aver
ĠKick er
cos ur
Ġdon caster
Sh ow
aug han
mark et
vent h
amed a
Ġsam uel
Ġsam my
Ġsam antha
lav ic
ĠGu ber
Ġho pe
Ġconstru ction
à¤ ¤
à¤ ¾
ĠMem phis
ĠNor ris
Ġmal aysian
Ġmal colm
Ġdown load
Ġdev on
ĠItal y
Ġlar sson
Ġtri al
ĠWith drawal
ĠHar old
ĠHar rison
Ġwil fred
ĠKn ow
rol s
ĠMa ur
Ġap ollo
ĠBrand on
ĠDef enses
Ġprogram ming
Ġisland s
Ã¤ r
ĠTur ner
ĠNum er
Ġsur viv
Ġmac c
Ġmac au
Ġmcc oy
ĠBin omial
Ġfif th
Ġjeff erson
Ġkim i
uri er
à¦ °
ãĤ «
ĠNatural isation
Ġbroadcast ing
Ġrom ania
ĠCons ervative
Ġrod riguez
ĠSC HO
ĠSam my
Ġcast le
ĠOn t
ĠOn ly
Ġmat te
Ġmel zer
aya wardene
uj u
Ð¸ Ñĺ
ali ber
ali ers
Ġpenn etta
ĠBen alla
ĠBen evolen
Ġrichard son
Reg ular
Ġtre at
Ġdick inson
Ġly ric
Ġts op
Ġsen ators
ĠReal isation
Ġhy per
Ġhy undai
Ġlin dsay
ĠCarl os
ĠObject Number
uz estan
Å« n
ĠTri p
ĠTri ple
ĠMor phological
Ġser ena
Ġweb ber
Ġger ard
Ġinv ol
Ġinv itational
ĠEmploy ment
AC K
har ald
ĠAt las
ĠNC BI
Ġcy ril
Ġcy cling
Ġmet ers
Ġmet ric
Ġfed or
ĠIll ust
Ġcommun ities
ĠAssist ed
stein er
à¯ Ĥ
ĠWar ren
ĠCele brit
ĠDr eam
Ġbor ussia
Ġjon as
ĠShoot ing
ĠAgric ulture
ĠInvest igation
ĠFar mer
Ġband s
ĠJun ctions
ĠJun iors
ĠShort stop
ĠParish es
Ġbuild ers
Ġbuild ings
ois es
sy llable
ĠAst ro
ĠHard ware
ĠHard ness
Ġdaniel la
Ġrel ative
lyn n
Ġalbum s
Ġargent ine
hard i
Ãº s
Ġash land
lett er
Ġtel ford
Ġtel stra
ĠWood s
ĠWrest lers
ĠCan onised
Ġsab er
Ġmass ey
Ġdf v
Ġrub en
ĠKing ston
ĠLibert arian
Ã¥ rd
Ðº Ð¸
ÑĤ Ð¾Ð½
Ġet obicoke
ĠSum mit
ĠSum moned
ĠPC I
Ġcandid ate
ĠBu ick
Ġweight ing
ĠProb able
ĠConne ctions
ĠKenn ey
Ġgree k
cont rols
Ġear th
Ġty ler
ĠCr ane
ĠCr ash
ĠDam age
ĠDam aged
ĠNT FA
ĠNight ly
Ġsol id
Ġsol omon
Ġship s
ĠHol land
Ġmck enna
Ġmck imson
reg on
Ġjust us
Ġequ ation
Ġequ ivalent
ĠEduc ation
Ġou ter
ĠFun ny
Ġso ap
Ġso phia
omb ard
ĠGal axy
Ġcan aria
Ġcro atia
Ġpa olo
Ġdrag on
Ġaud ition
Ġwr ko
ĠProject s
ĠKh uzestan
ĠNeut rons
ĠIN R
ĠCla ude
Ġcirc le
Ġclim ax
Ġclim bs
Ġba er
Ġbul ldogs
ĠBus iness
Ġni elsen
Ġven us
Ġven ice
ĠJul ie
ĠDev ice
Ġmonth s
ĠPal atine
ĠMer cosur
Ġsar ah
ĠHay ashi
Ġpay ment
Ġrab bit
agu ay
ĠApplication s
Ġclar ification
ĠScre ens
ĠScre ening
app roximate
Ġé ĩ
ĠSamp ling
ĠGood man
Ġcur ry
ĠHam burg
ĠYou Tube
ĠBrook lyn
Ġgri ff
Ġgri msby
Ġhart ford
Ġhart lepool
Ġlock e
Ġep ic
Ġalf red
Ġà® ª
Ġom ar
Ġom ni
ĠSqu are
ĠCop yright
ĠDur ham
ĠDur atec
ĠRu fus
ĠMile post
ĠLiter acy
ĠNO R
ĠNi elsen
ĠHyd ropower
Ġfab rizio
Ġfra ctional
Ġwhe elch
Ġhunt ington
ĠKore a
ĠArchite ct
ĠBrazil ian
âĨ Ĵ
ĠTax es
Ġsamp i
ĠOber pf
ĠVan essa
Ġwars aw
Ġgear box
Ġjess e
Ġvic enza
Ġdeport ees
Ġdeport ivo
ĠKey s
ĠKey Arena
Ġslov enia
Ġplat ense
Ġplat forms
Cap acity
Se ptember
Se cond
Trans mitter
Ð² Ð¾
ĠSI ZE
ĠAsh mole
ĠDrag ons
ĠMel amine
ĠLad ies
ĠLad der
cell i
ĠHal ang
Ġpla in
Ġpla ces
Ġbroad view
Ġdest roy
Ġdest ination
Ġfel ton
ĠIr regular
Ġgro ve
Ġchip mun
ĠRoss i
ĠRoss endale
Ġevans ville
ĠBoard ings
áŁłáŁł áŁłáŁł
bas is
uh f
ÑĨ Ð¸
ĠShe ffield
ĠFT E
ĠAle ks
ĠAle jandro
ĠDoug las
ĠRam tha
ĠMir ani
Ġset on
Ġcob den
Ġcelt ic
ĠOL eary
ĠHear ts
Ġmik hail
Ġmountain s
Ġpatt erson
elch eva
ĠVert ices
Ġwa ik
Ġgonz Ã¡lez
Ġhamp den
ĠReserv e
ĠReserv oir
Ġrh ode
Ġkat ie
iven ess
Ġelect ron
Ġshin ya
ĠFriend ly
Con verted
German ic
SW R
ww w
Ä« n
ĠSell outs
ĠFis cal
ĠFarm ers
ĠPac ific
ĠTot ora
ĠMut ated
Ġsav io
Ġsoft ware
Ġdoug las
Ġfer re
Ġnich ols
Ġstad io
Ġmarri ages
Ġgrant ed
Ġspart an
Ġfranc o
Ġcomb at
Ġcoy otes
Ġmead owlands
ĠBeat ified
ĠChristian ity
Ð¾Ð² Ð¾
ĠPakistan is
ĠBangladesh i
ĠBangladesh is
jp n
pir anga
ÄŁ lu
à§ į
ï¼ Ī
ï¼ ī
ĠSess ions
Ġti pperary
ĠFight er
ĠNS G
ĠNar rator
Ġcond ition
ĠHist ory
ĠHist orical
ĠHold en
Ġdr eam
Ġdod ge
Ġdod gers
ĠBern ard
ĠBrad ley
Ġfis cher
Ġfro st
Ġfair field
Ġview ing
ĠJon athan
ĠJess ica
ĠInfl ation
Ġchart ed
ĠPartnership s
ĠRegul atory
Ġmarsh all
ikk Ã¶nen
Ġrah al
Ġspr ings
uther ford
Ġcover ed
Ġext ension
Ġtrin ity
524 4
Bo arding
Pro skauer
àµ į
ĠSav ed
Ġtun isia
Ġtyr one
ĠCoal ition
ĠPerson ality
ĠTreas urer
ĠDru g
ĠDru ze
ĠNI CK
Ġcip ollini
Ġcru z
ĠOx endine
isen hower
Ġbun ny
ĠBrig ade
Ġfil ip
Ġfav orite
Ġnatal ia
ĠVen us
Ġgan assi
ĠStamp eders
Ġhap oel
Ġrus port
Ġstock holm
ĠSecret ary
ĠJu risdiction
ĠJer k
osp ital
Ġsequ ences
Ġlaur ent
ĠJoint ly
Ã¼n chen
Ġrip ley
Ġhapp y
ĠQuarterfinal ists
}}} {
ĠHydro electric
Res ults
pri est
äº º
Ġtot tenham
ĠFIN AL
ĠFerr ari
ĠCra ven
ĠLic ens
ĠLank ans
Ġsaf ety
ĠGrad es
ĠPot ts
ĠHel ium
isk opf
Ġdig its
Ġdio xide
ĠBun ny
ĠVot ing
Ġgrad y
Ġvis ited
Ġrt rad
ĠJa ime
Ġecu rie
ĠColon ized
Ġyv onne
opot amia
ĠThem ed
Ġrail way
Ġthous and
ĠInteract ivity
Ġadvent ure
Ġappro ach
Ġrepresent ative
ooch ow
Ġimp act
Ġclaud io
ĠFlags hip
AK Y
Pr otein
conn or
dv d
william s
zc z
à¼ ĭ
lef anz
lend ale
ĠWid ow
ĠAL A
ĠCust om
ĠDR G
ĠMitch ell
Ġsoph omore
omar ito
Ġmyst ery
Ġbord eaux
Ġbett y
Ġfres no
Ġnas car
umm ins
Ġwake field
Ġhist ory
Ġhors ham
Ġhiro sh
Ġjung le
Ġstatist ics
Ġeff ect
Ġecon om
ĠKern el
ĠSpo ilt
ĠCarmel o
Ġâī ħ
Ġvalpara iso
Ġplan itia
ĠClar ke
strument al
Ġimpul se
comp oser
Ġjuvent us
Ġfeder er
ĠHabit ual
Af rica
Sem ifinal
æµ ·
æĹ ¥
Ġons low
Ġerr or
Ġtank er
Ġtod ay
ĠFern ando
ĠAlas ka
ĠPull man
ĠMes opotamia
ĠLig ue
ĠLith ium
ĠNow itzki
Ġsack ed
ĠGian ts
Ġcop ies
ĠHav ing
Ġprad esh
Ġdru cker
Ġfam iglia
ĠVio lent
ĠVeter an
ĠOpponen ent
Ġgymnast ics
ĠStatist ic
Ġrup ee
Ġlips ius
ovs ky
Ġseah awks
Ġdecl ine
ĠKurd istan
Ġleip zig
ĠPerpet rator
ĠConstit ution
Ġtob ago
ĠCoom be
Ġthessalon iki
Ġzak speed
Ġconfed er
Ġanch orage
Ġsubmar ines
ĠAbram s
Ġspect rum
ĠBluet ooth
ĠScient ific
ĠGraph ical
ĠSynd icate
Ġholly wood
ĠCalcul ated
ĠSalmon ella
Ġtaip ans
Ġjohannes burg
Ġwarsz awa
ËĪt É
Ind oor
JÃ¸r gensen
Mer cury
Mary borough
Nomin ee
Sen ior
mant le
uct us
uge ot
wom ens
åĮ º
çļ Ħ
ìĻ ķ
Ġorth ography
Ġident ity
ĠSAT CAT
ĠSauer berg
ĠSZDS Z
ĠWra ps
ĠWÃ¸ rd
ĠFeld man
ĠFides z
ĠFRAM ED
ĠCrav ens
ĠDial code
ĠDerm ot
ĠDÃ¡ il
ĠDott ed
ĠRif le
ĠRna G
ĠMig ration
ĠMongol ian
ĠLomer ÃŃo
ĠLonav la
ĠNUp owr
Ġserb ia
Ġsvet lana
Ġsouch ak
ĠGolos ov
Ġcopen hagen
ĠHess en
ĠHors es
Ġmalt a
Ġpirm asens
Ġbourn emouth
Ġbund esliga
ĠEsk imos
Ġdipi etro
ĠBrie f
ĠBhof en
Ġfut ures
Ġfuzz y
chambert in
ĠVow el
Ġales i
ĠIje kavian
Ġglas gow
Ġgothen burg
Ġhtt p
ĠrÃ¤ ikkÃ¶nen
Ġlown des
ĠChaun cey
ĠJama icans
ĠJyut ping
ĠUba id
Ġbydgos zcz
ĠCombin ation
ĠProvin ces
Ġdeboard ings
Ġlebr on
ĠEvalu ation
Ġunde flated
ĠIncarcer ation
ĠPerise lene
ĠQualif ied
Ġthurs day
ĠExalt ation
trunc ating
ĠAvoird upois
Ġcollect ibles
Ġzoel ler
Ġappalach ian
ĠParenth eses
Ġabsol ute
Ġchristodoul ou
ĠSuperchar ger
Ġcontinu ous
ĠSCHO OL
ĠBenevolen t
ĠCelebrit ies
Ġwheelch air
ĠOberpf alz
ĠAshmole an
ĠIrregular ities
ĠNICK NAME
! "
! )"
" ,
" ;
' d
' re
( $
( %)
( *)
) [
* *
. "
/ [
0 19
0 16
0 28
0 70
0 68
0 21
0 35
1 103
3 11
3 200
3 16
3 68
3 74
3 65
4 16
4 25
4 17
4 18
4 22
4 49
4 36
4 89
4 62
5 10
5 18
5 70
5 49
5 33
5 34
5 35
5 65
5 38
5 84
5 39
5 32
5 37
6 11
6 12
6 13
6 27
6 68
6 71
6 72
6 26
6 08
6 37
7 13
7 72
7 95
7 98
8 13
8 16
8 28
8 70
8 29
8 71
8 74
8 33
8 64
8 03
8 95
8 38
8 77
8 45
8 76
8 36
8 89
8 60
9 16
9 17
9 68
9 05
9 26
9 22
9 34
9 98
9 201
? )
A D
A G
A S
A U
A W
A m
A gainst
A pril
A ustralia
A ces
B P
B U
B a
B l
B illion
B lack
B rown
B aby
B icker
B LE
C E
C ab
C ode
C enter
C onn
D F
D N
D own
D istrict
E U
E vent
E very
E EST
E UR
F J
F K
F ord
F low
G L
G M
G en
G iles
G EO
G oing
H I
H T
H erv
H arm
H BP
I FA
I DS
K E
K O
K les
L U
L ive
L AN
L etter
M Y
M a
M an
M ay
M ason
M ale
M int
M ars
M BS
M alay
N a
N o
N on
O ver
P A
P B
P ct
P rodu
P lan
P yram
Q M
R el
R oub
R oman
R ussia
R oof
S R
S b
S et
S oc
S ign
S atur
S pin
S ymbol
S MS
S erial
S ingers
S lavic
T a
T i
T om
T our
T erm
T TC
T race
U T
U RT
U BS
V ers
V enue
V ice
V ict
W S
W e
W o
W on
W eight
W HL
X R
Y Y
Y ou
Y ears
Y ankton
a way
a ire
a ik
a verage
a ix
a una
a Ã«l
b d
b g
b u
b at
b ed
b ee
b ia
b rid
b ond
b els
b acter
b reak
c p
c re
c ry
c id
c ision
c ale
c ategory
c ler
c oming
c ourt
c atholic
c zy
c ube
d Ï
d in
d ed
d ire
d ai
d oor
d iesel
d rive
e p
e u
e ver
e ase
e eth
e Ã±o
e ckter
f in
f ra
f ner
f ill
f ebruary
f inch
f jord
g l
g am
g ic
g ent
g ui
g irls
g omer
h b
h y
h le
h en
h ound
h ad
h em
h all
h av
h one
h ore
h mp
h aul
h ya
h ere
h una
h ui
h orpe
h sing
i ber
i ers
i qu
i len
i ator
i han
i enne
j r
j ad
j ong
j ected
k N
k an
k om
k as
k ut
k eb
k iss
k ina
k lin
k ings
k kin
k arat
l r
l om
l ong
l ane
l ina
l ator
l Ä±
m V
m ay
m em
m ap
m os
m ac
m ack
m are
m tr
m its
m ichael
m aty
n c
n in
n ie
n est
n ish
n itz
n ius
n oa
n acional
n caa
n amese
o in
o id
o ok
o ley
o ise
p r
p an
p ent
p ton
p ris
p ings
p ars
p uy
p burn
q i
q ian
r j
r ou
r enn
r fl
r Ã¼
r ural
r Ã¸
r ional
r Äģ
r mo
r onym
r ande
s m
s w
s an
s is
s ul
s ound
s ian
s aw
s by
s ung
s ince
s we
s lav
s ites
s pec
s alem
s ements
s vens
t m
t an
t as
t av
t oria
t wo
t imeslot
u le
u ys
u wen
v m
v s
v t
v ic
v ue
v and
v ath
v ile
v arian
v atore
w al
w ain
w ald
w ani
w esh
w ader
x a
x o
x on
y g
y o
y u
y es
y ou
y re
y ch
y ong
y ang
y te
y ah
y ando
y fik
z n
z el
z ik
z vet
z uka
} {
£ áĥ
¥ ¿
§ æĥħ
¨ ìĻķ
© ãģĨ
® çĪ
° ¨ìĻķ
± Ð°
¹ ĸ
¿ ĥ
Ã ª
Ã ®
Ã ²
Ã µ
Ã ½
Å £
Å ¼
Å Ī
Å Ļ
Ê ĥ
Ê Ĭ
Ë ©
Î ĳÎ
Ñ ĭ
Ñ į
Ñ ļ
Ö °
Ö ¸
Ù Ħ
Û ķ
à ¶
á ¸
á º
á Ī
ã Ģ
å Ĭ
å į
å ĳ
å Ł
å Ń
å ·ŀ
æ ¬
æ ®
æ °
æ ²
æ Ħ
æ Ŀ
æ ĳ¸
ç »
è ¯
é Ģ
é ĥ
ì °¨ìĻķ
Ġ cord
Ġ ub
Ġ ick
Ġ ia
Ġ amp
Ġ umb
Ġ ames
Ġ anu
Ġ io
Ġ ik
Ġ are
Ġ ors
Ġ elb
Ġ ix
Ġ its
Ġ Ã¼
Ġ itu
Ġ oul
Ġ ãĥ
Ġ istan
Ġ ÑĢ
Ġ Äį
Ġ ä¸
Ġ ÑĤÐ¾Ð½
Ģ §æĥħ
Ĥ ©
Ħ å
Ĩ å¤§
į å
į ì°¨ìĻķ
ĵ ãģ
Ļ įì°¨ìĻķ
ľ Ð°
ľ æĹ¥
Ŀ áĥ
ĠS F
ĠS G
ĠS v
ĠS ig
ĠS ime
ĠS up
ĠS ib
ĠS au
ĠS inc
ĠS els
ĠS ve
ĠS onn
ĠS uns
ĠS aff
ĠS alle
ĠS ato
ĠS OL
ĠS oviet
ĠS anto
ĠS ymbol
ĠS Ã¡nchez
ĠS acramento
ĠS pencer
ĠS amba
ĠS uits
ĠS izes
ĠS myth
le g
le m
le ry
le qu
le berry
Ġt c
Ġt k
Ġt ab
Ġt ol
Ġt ir
Ġt ap
Ġt us
Ġt ie
Ġt ow
Ġt amp
Ġt ory
Ġt og
Ġt ors
Ġt orn
Ġt one
Ġt iff
Ġt oul
Ġt ien
Ġt itan
Ġt bc
Ġt aty
Ġt aught
Ġt exans
Ġt ayshaun
Ġt artu
ĠW en
ĠW el
ĠW end
ĠW ard
ĠW ool
ĠW atch
ĠW ards
ĠW ays
ĠW Ã¼r
ĠW agg
ĠW alls
ĠW olves
ĠW ooster
ĠW Pct
ĠF B
ĠF W
ĠF Y
ĠF ro
ĠF ul
ĠF um
ĠF og
ĠF ired
ĠF rans
ĠF ood
ĠF air
ĠF itch
ĠF ert
ĠF uj
ĠF oster
ab en
ab is
able d
ĠFR A
ĠA W
ĠA ber
ĠA qu
ĠA my
ĠA ided
ĠA GR
ĠA xis
ĠA uburn
ĠA charya
on om
on ed
on el
on ie
on ju
er d
er st
er ner
er ica
er dale
er fly
in ia
in age
in ations
in na
in burg
in fo
in ho
in elli
in ued
in bay
in oku
at on
at ers
at oon
at ives
ĠC B
ĠC C
ĠC D
ĠC S
ĠC ate
ĠC ri
ĠC em
ĠC ub
ĠC ary
ĠC rit
ĠC av
ĠC ell
ĠC ord
ĠC ase
ĠC orn
ĠC ris
ĠC lin
ĠC mp
ĠC ec
ĠC ities
ĠC rest
ĠC enso
ĠC aliber
en wood
en cia
en kins
en ssen
an an
an os
an ions
an che
an assi
an Äħ
an ueva
an vir
or p
or ation
or ing
or od
or ley
am u
am on
am ore
am ib
am ford
am mers
am atan
am lÄ±
ĠP ear
ĠP ra
ĠP ag
ĠP ang
ĠP ier
ĠP une
ĠP eg
ĠP au
ĠP ied
ĠP orts
ĠP ayne
ĠP uch
ĠP OL
ĠP ride
ĠP uma
ĠP enguins
ĠP iston
ĠP Win
ĠP elet
ĠP IFA
ĠP UBS
ar in
ar en
ar is
ar et
ar ay
ar ash
ĠT U
ĠT X
ĠT s
ĠT am
ĠT ed
ĠT ir
ĠT ire
ĠT ak
ĠT ina
ĠT ree
ĠT illa
ĠT itans
ĠT ormo
al h
al one
al ini
al ities
al bi
ĠD B
ĠD H
ĠD L
ĠD or
ĠD un
ĠD ry
ĠD ee
ĠD ain
ĠD ip
ĠD ens
ĠD ust
ĠD ose
ĠD ino
ĠD ray
ĠD ani
ĠD ots
ĠD oming
ĠD eep
ĠD MA
ĠD akota
ĠD oses
ĠR P
ĠR W
ĠR ot
ĠR ome
ĠR ang
ĠR aw
ĠR az
ĠR Ã©
ĠR ai
ĠR ights
ĠR TH
ĠR Yds
ĠR usty
ĠR utherford
ĠM C
ĠM P
ĠM T
ĠM t
ĠM un
ĠM and
ĠM ick
ĠM ason
ĠM all
ĠM ine
ĠM ak
ĠM ust
ĠM anu
ĠM ach
ĠM ann
ĠM ix
ĠM ouse
ĠM itt
ĠM uns
ĠM TV
ĠM etres
ĠM iguel
ĠM orton
ĠM ega
ĠM anufacture
ĠM oises
it ol
it ing
it age
it ama
it ius
it ario
it iveness
ion ios
st art
st yle
st horpe
es n
es ch
es us
es per
ou del
ou ala
Ġ( +
ĠL G
ĠL an
ĠL ia
ĠL ag
ĠL iv
ĠL ester
ĠL uk
ĠL igi
ĠL iverpool
ĠL atta
ĠL loyd
ĠL aval
ĠL iddi
ĠN A
ĠN J
ĠN y
ĠN EC
ĠN ic
ĠN ed
ĠN ik
ĠN ative
ĠN AT
ĠN amed
ĠN aga
ĠN acional
ĠN gil
ĠN ebo
ĠN evada
ĠN AME
ĠN icholas
Ġs ed
Ġs ri
Ġs ome
Ġs ap
Ġs ie
Ġs iv
Ġs ess
Ġs ug
Ġs ich
Ġs ne
Ġs ax
Ġs yn
Ġs alle
Ġs ask
Ġs oli
Ġs ources
Ġs iffer
Ġs opot
Ġs ierra
Ġs utherland
la u
la x
ic y
ic z
ic er
ic as
ic ul
ic ts
ic ult
ic ard
ic io
ic ile
ic ino
ic aja
ent ive
ent ris
ent rional
00 6
om os
om bo
om tav
ed e
ed in
ed ict
ed ec
ed ean
ed onia
ed eration
ĠG I
ĠG un
ĠG ur
ĠG em
ĠG ov
ĠG ail
ĠG arden
ĠG FR
ĠG rod
ĠG uru
ĠG WR
ĠG loria
ĠG anassi
Ġc k
Ġc u
Ġc w
Ġc ab
Ġc it
Ġc ame
Ġc ot
Ġc ay
Ġc un
Ġc and
Ġc id
Ġc old
Ġc row
Ġc rit
Ġc ath
Ġc ele
Ġc itt
Ġc ald
Ġc odes
Ġc ities
Ġc ivil
Ġc ounc
Ġc itation
Ġc eased
Ġc rime
Ġc inema
Ġc enso
Ġc Ã©s
Ġc tn
ĠO R
ĠO T
ĠO le
ĠO lim
ĠO uts
ĠO scar
ĠO gilvy
ĠO regon
ĠPo l
ĠPo land
ĠPo ison
ĠPo ssible
ce t
ce lo
ce ption
ri am
ri etary
ĠH Q
ĠH om
ĠH ound
ĠH ap
ĠH ans
ĠH eng
ĠH ale
ĠH orn
ĠH ash
ĠH az
ĠH ager
ĠH ert
ĠH ole
ĠH ardin
ĠH utch
ĠH ugh
ĠH unter
ĠH ungarian
ĠH AAT
ĠH ockenheimring
ĠH offman
ĠH eston
Ġm d
Ġm k
Ġm es
Ġm ct
Ġm ts
Ġm ia
Ġm ard
Ġm ode
Ġm ant
Ġm ong
Ġm ine
Ġm anu
Ġm ell
Ġm ash
Ġm ats
Ġm ouse
Ġm az
Ġm ins
Ġm ai
Ġm oy
Ġm ize
Ġm odes
Ġm ma
Ġm anta
Ġm urt
Ġm aker
Ġm ears
Ġm oser
Ġm anny
Ġm sl
Ġm obile
Ġm aterial
Ġm urray
Ġm undy
Ġm endoza
Ġm udd
Ġm ethod
Ġm oody
re j
re at
re ation
re is
re ys
Ġp f
Ġp p
Ġp t
Ġp un
Ġp ick
Ġp ag
Ġp ens
Ġp ant
Ġp ud
Ġp ond
Ġp ons
Ġp ony
Ġp Ã©
Ġp itch
Ġp urch
Ġp iet
Ġp last
Ġp Å«
Ġp owell
Ġp owi
ol k
ol ition
ol us
ol lers
ol utions
ol steiner
is l
is le
is che
is uke
is abled
Ġ3 11
Ġ3 13
Ġ3 16
Ġ3 17
Ġ3 26
Ġ3 67
Ġ3 64
Ġ3 95
Ġ3 78
Ġ3 645
oun ce
Ġb p
Ġb ed
Ġb ut
Ġb ey
Ġb land
Ġb av
Ġb io
Ġb op
Ġb ib
Ġb rew
Ġb Ã¼
Ġb ae
Ġb order
Ġb lah
Ġb utch
Ġb ala
Ġb urg
Ġb enson
Ġb oga
Ġb ennett
Ġb utler
Ġb zip
Ġb hag
Ġb omarito
ame y
ame er
il an
il ation
il ter
il ton
il tr
il ities
il jana
Ġ19 09
ear t
ear ney
ing o
ĠY an
ĠY ard
ĠY ong
ĠY ang
ĠY og
ĠY east
ĠY ihan
as per
ĠE E
ĠE ight
ĠE ld
ĠE rd
ĠE co
ĠE ston
ĠE sp
ĠE ighth
ĠE ccent
ĠE yes
Ġd d
Ġd y
Ġd ot
Ġd ro
Ġd umb
Ġd oc
Ġd ier
Ġd aw
Ġd ons
Ġd iam
Ġd uck
Ġd uration
Ġd arn
Ġd iffer
Ġd ahl
Ġd orian
Ġd olly
Ġd aij
Ġd Ãºn
Ġd ancing
Ġd ouala
ot on
ot ras
ĠPla ut
ĠB K
ĠB W
ĠB eam
ĠB ot
ĠB ag
ĠB ates
ĠB ril
ĠB ord
ĠB eth
ĠB ets
ĠB ah
ĠB US
ĠB ally
ĠB osh
ĠB aylor
ĠB achus
ĠB Ã¼r
ĠB acon
ĠB SU
ĠB rive
ĠB MI
ĠB oca
ĠB ARB
ĠB lind
ct ur
ct ares
ct uary
el in
el an
el Ã¶
Ġf f
Ġf s
Ġf al
Ġf ear
Ġf ow
Ġf ountain
Ġf ather
Ġf lav
Ġf uj
Ġf urg
Ġf ilipp
Ġf uji
Ġf iba
Ġf iction
Ġf alk
Ġf ilt
Ġf alls
Ġf ergus
Ġf oil
et ian
et eries
et own
et ah
ch n
ch ten
ch man
ch Ã©
ch wood
ch elle
ch kiss
ĠRe in
ĠRe agan
ul ation
ul um
ul us
ul ator
ul iya
Ġn d
Ġn m
Ġn at
Ġn ou
Ġn il
Ġn ts
Ġn ue
Ġn ad
Ġn eb
Ġn ice
Ġn ah
Ġn itt
Ġn ancy
Ġn ature
Ġn aples
Ġn adal
Ġn hk
Ġn amib
ver eva
Ġ4 19
Ġ4 13
Ġ4 18
Ġ4 68
Ġ4 21
Ġ4 34
Ġ4 64
Ġ4 38
Ġ4 78
Ġo pp
Ġo ccup
Ġo gilvy
Ġo cean
Ġo laz
ĠV ar
ĠV ad
ĠV est
ĠV eg
ĠV alen
ĠV iet
ĠV ladimir
ĠV EN
ĠV max
Ġa i
Ġa ur
Ġa gain
Ġa ccess
Ġa cer
Ġa ces
Ġa less
Ġa Ã§
Ġa lessandro
Ġa chievement
Ġa oki
Ġa oyama
IN T
un ts
un thorpe
ue le
ĠMA C
ĠMA RT
ber y
ber lin
ber nian
ĠScore board
ĠScore card
ge m
um ption
um Ã¡n
ig ars
ig ella
ig ible
ig arh
th s
th ouse
th yst
and ri
and ong
and au
and vo
Ġ5 10
Ġ5 11
Ġ5 20
Ġ5 25
Ġ5 08
Ġ5 35
Ġ5 65
Ġ5 03
Ġ5 02
Ġ5 39
Ġ5 79
Ġ5 78
Ġ5 88
Ġ5 90
Ġw p
Ġw ay
Ġw end
Ġw ool
Ġw rit
Ġw ang
Ġw ilm
Ġw ased
Ġw ere
Ġw Ã¶
Ġw ally
Ġw oon
Ġw ages
Ġw aut
Ġw pi
Ġw oman
Ġw endy
Ġw aca
Ġw ellington
Ġw rap
Ġw ichita
Ġ6 12
Ġ6 28
Ġ6 21
Ġ6 03
Ġ6 85
Ġ6 36
im o
im ming
im orÃ©
im edean
ra e
ra h
ra ck
ra du
ra vers
ra cht
ĠI v
ĠI an
ĠI st
ĠI ly
ĠI de
ĠI rak
ĠI OC
ĠI upp
ĠI kavian
od ge
Ġg c
Ġg am
Ġg ou
Ġg os
Ġg rig
Ġg ov
Ġg rom
Ġg te
Ġg res
Ġg ile
Ġg erm
Ġg Ã¡
Ġg ino
Ġg ama
Ġg oss
Ġg ender
Ġg odd
Ġg ift
Ġg oj
Ġg oing
Ġg lobal
Ġg Ã©n
ĠWin k
end ees
Ġ7 20
Ġ7 14
Ġ7 28
Ġ7 72
Ġ7 44
Ġ7 37
Ġ7 80
ad y
ad is
ad as
ad os
ad ron
ĠSt d
ĠSt able
ĠSt ill
ĠSt ron
ĠSt anz
ĠSt ella
ĠSt orage
ĠSt rate
ĠSt ricker
ĠAV E
Ġh ed
Ġh as
Ġh ir
Ġh ank
Ġh ers
Ġh id
Ġh av
Ġh oll
Ġh ane
Ġh ina
Ġh att
Ġh au
Ġh ous
Ġh ai
Ġh ush
Ġh alle
Ġh opp
Ġh ove
Ġh Ã¤
Ġh afs
Ġh edo
Ġh urd
Ġh emi
Ġh ancock
Ġh ijikata
Ġh ilde
Ġh ockenheimring
Ġh wy
Ġh adise
Ġh undred
Ġh idden
Ġh ospital
Ġ20 20
Ġ20 40
Ġ20 59
ount chÃ©
ist e
ist ed
ist ics
Ġj am
Ġj al
Ġj ie
Ġj ourn
Ġj ive
Ġj orge
Ġj awa
Ġj ump
Ġj enny
Ġj iy
Ġj iu
Ġj upiter
Ġj odie
Ġj arno
Ġj ostedal
Ġj erez
Ġj enkins
way ne
em ption
em atics
ry n
Ġin form
Ġin ert
Ġin verse
Ġin corporated
Ġin jection
Ġin tegration
ap ons
art a
tt ember
igh an
ĠCount ing
Ġv u
Ġv ie
Ġv iv
Ġv ision
Ġv ital
Ġv inc
Ġv ila
Ġv ida
Ġv ista
Ġv ande
Ġv ega
id i
id y
id an
id ing
id ium
id ency
Ġr p
Ġr w
Ġr it
Ġr um
Ġr oll
Ġr amb
Ġr ush
Ġr olf
Ġr oming
Ġr uj
Ġr anger
Ġr hp
Ġr oughriders
Ġr oland
ub re
ub ba
Ġ8 12
Ġ8 14
Ġ8 30
Ġ8 70
Ġ8 02
Ġ8 85
Ġ8 32
our ite
inal di
Ġst ev
Ġst ations
Ġst aff
Ġst ability
Ġst rike
Ġst ories
Ġst evenson
Ġst omme
Ġst olle
ĠAtt endees
Ġl c
Ġl il
Ġl ance
Ġl ia
Ġl ug
Ġl ok
Ġl ille
Ġl mp
Ġl und
Ġl yle
Ġl ower
Ġl Ã¼
Ġl oft
Ġl uther
Ġl anka
us o
us ky
ĠCh i
ĠCh al
ĠCh est
ĠCh ile
ĠCh ng
ĠCh iron
ĠCh imorÃ©
ĠLoc ks
ĠSe p
ĠSe vere
ĠJ ian
ĠJ ons
ĠJ ets
ĠJ ade
ĠJ anet
ĠJ ava
ĠJ ennifer
ĠJ Ã¼rgen
ĠJ ennings
Ġ9 16
Ġ9 27
Ġ9 71
Ġ9 98
Ġ9 85
Ġ9 36
Ġ9 56
Ġ9 42
ie st
ie gel
Ġk f
Ġk l
Ġk le
Ġk st
Ġk om
Ġk em
Ġk all
Ġk os
Ġk ru
Ġk oh
Ġk ont
Ġk ok
Ġk ai
Ġk air
Ġk bs
Ġk ole
Ġk urt
Ġk Åį
Ġk opp
Ġk hz
Ġk ras
Ġk ato
Ġk irchen
Ġk tm
Ġk earney
Ġk ountchÃ©
ĠIn stal
ĠIn stant
ĠIn strumental
ĠIn ception
ill ors
ia co
ain st
ck e
Ġ10 18
Ġ10 50
Ġ10 98
Ġ10 80
ow ijne
ard Ã³ttir
ag i
ag hi
ag allo
ag reb
ag rande
ag ainst
he it
he la
he ctares
ĠU b
ĠU sted
all ow
age per
up o
ĠEn voy
ĠEn vironment
ĠNo se
ĠNo ah
les cents
ut i
ut er
ut ierre
Ġ12 44
Ġ12 47
Ġ12 97
Ġ11 00
Ġ11 16
Ġ11 36
Ġ11 55
Ġ11 80
ric ity
ric ane
os ier
os ev
pe cted
Ġe f
Ġe u
Ġe w
Ġe ight
Ġe int
Ġe ps
Ġe aff
Ġe vert
Ġe hc
ĠGame Plan
ĠGoal tender
iv ia
iv alen
iv entris
Ġch n
Ġch ry
Ġch ap
Ġch ong
Ġch ak
Ġch Ã¡
Ġch ild
Ġch lor
Ġch ven
Ġch Äģ
Ġch anda
Ġch oi
ens is
ens kaya
old s
ian i
ian ne
ĠTo sses
Ġ18 11
Ġ18 18
Ġ18 21
Ġ18 34
Ġ18 95
Ġ18 02
Ġ18 01
Ġ18 59
Ġ18 90
Ġ18 56
Ġ18 87
Ġ18 93
Ġ18 81
ast e
ast on
ast asia
ĠCol ling
ĠCol lier
ĠCol aba
ĠLe a
ĠLe wis
ĠLe ctur
ĠPro st
ĠPro per
ĠPro Tour
Ġre h
Ġre ed
Ġre mi
Ġre alt
Ġre liance
Ġre gina
Ġre bels
Ġre lax
ĠBr at
ĠBr un
ĠBr uno
ĠBr enda
Ġ14 12
Ġ14 67
Ġ14 90
Ġ14 61
ĠGoals for
ĠGoals against
ĠCon vention
Ġpar ts
Ġpar nell
ĠPart ners
Ġ15 12
Ġ15 29
Ġ15 09
ac es
ac rit
ac ock
ac ja
Ġse en
Ġse yn
raw l
ning ham
Ġde ck
Ġde uts
Ġde put
ĠHigh light
ĠK a
ĠK om
ĠK ry
ĠK id
ĠK ill
ĠK aw
ĠK ille
ĠK las
ĠK acht
ĠK oz
ĠK ondo
ĠK AZ
ĠK endall
ĠDe er
ĠDe an
ĠDe Lu
ĠDe Mint
ru it
ant on
ĠDist ribut
qu i
qu an
qu is
qu ay
qu ila
qu alities
ak an
ak ing
ak im
ak so
ter rit
ter weight
Ġle ch
Ġle ss
Ġle ma
Ġfor ney
ff ix
rit a
ĠComp ounded
ĠEv ict
Ġun spec
Ġy us
Ġy ann
Ġy au
Ġy ny
Ġy osh
Ġy acht
Ġy uri
Ġy oong
Ġy piranga
Ġy uliya
ess or
rict ed
ud i
ud as
ud el
ud ad
ud erdale
20 40
nd e
Ġpo pp
orm ick
ĠInc entive
ans ka
ust on
ust rian
ĠHe ctor
ĠHe ather
ĠHe avy
ĠHe alth
ĠCrow n
Ġ17 28
Ġ17 66
ang as
ew all
Ġand rey
ĠMar e
ĠMar s
ĠMar io
ĠMar ino
ĠMar owijne
av as
ug ia
anu i
io pia
ph am
ph il
Ġno c
Ġno kia
pt athlon
Ġair ways
ĠReg ime
ĠReg ina
19 7
19 00
19 15
19 28
19 46
19 42
19 86
19 63
19 61
se co
lo p
lo ban
lo cal
Ġ25 9
Ġmar i
Ġmar gin
Ġmar cos
Ġmar ÃŃa
Ġmar quis
ich ia
eb ble
port e
atch er
atch ik
Ġ22 1
Ġ22 00
Ġ22 74
13 73
ĠAr able
ĠAr car
ĠAr rangement
ĠCompetition s
Ġ/ Ë©
ik er
ten ing
ten eg
op in
op al
op ter
op io
Ġ21 8
oc oo
Ġ23 97
ĠOver ton
ĠQ atar
ĠQ atari
ĠPer fect
ĠPer manent
oh l
oh en
oh ert
eng o
are z
Ġro g
Ġro om
Ġro chester
Ġro han
Ġro cha
Ġro chus
ĠVis ual
ach ment
ly de
Ġla f
Ġla g
Ġla ver
Ġla uda
Ġla hore
Ġ30 6
ĠAl to
ĠAl bas
ĠAl fred
ĠAl ouettes
ĠAl garve
eld a
eld e
Ġwin field
Ġwin dsor
Ġ27 5
ale d
15 5
15 00
Ġto y
Ġto jp
ĠTh at
ĠTh or
ĠTh is
ĠTh ir
ĠTh umb
ĠTh rashers
ĠTh reat
Ġele ment
ĠGr an
ĠGr ass
ĠGr ant
ĠFre mantle
16 84
25 4
25 7
ern al
ern et
ern sey
Ġgr security
Ġ26 2
Ġ26 9
cc an
cc urr
act ive
Ġ29 0
Ġ29 9
ĠSh aw
ĠSh ix
ĠSh orts
ĠSh ani
ĠSh uji
ĠSh arks
ĠSh igella
aw e
aw an
Ġper me
Ġper mitted
Ġper fect
Ġper eira
Ġper ugia
Ġra g
Ġra in
Ġra ider
Ġra dek
Ġal c
Ġal p
Ġal as
Ġal ice
Ġal ps
Ġal ford
Ġal bor
Ġal arm
Ġal ignment
Ġal icia
Ġal geria
Ġal dershot
Ġat s
Ġat ene
ĠMatch up
ors hip
ĠFin ds
Ġsh i
Ġsh en
Ġsh am
Ġsh op
Ġsh ell
Ġsh aw
Ġsh ane
Ġsh erman
Ġsh Åį
Ġsh ape
Ġsh alini
ĠQu i
ĠQu iab
Ġar s
Ġar les
Ġar ms
Ġar chers
ĠRo om
ĠRo ot
ĠMon za
ĠMon roe
ĠUn ivers
ĠUn ami
17 2
17 3
17 9
ĠEngine ers
18 1
18 2
18 6
Ġor o
ĠCo x
ĠCo oper
ĠCo ba
ĠCo inage
de g
de acon
de gree
erv ation
per ance
len ce
ĠAir ways
int yre
ok en
ok es
Ġcar son
Ġcar go
Ġcar men
Ġcar mel
Ġcar riers
Ġcar etaker
ĠPri est
70 1
70 6
70 8
orn ey
Ġsouth end
Ġsouth west
Ġsouth ampton
Ġth i
Ġth al
Ġth em
Ġth ai
Ġth rough
Ġth ickness
Ġth ierry
Ġnew ton
Ġsp in
Ġsp andau
Ġsp oken
ob i
ob iles
ĠSp a
ĠSp ing
ĠSp oon
ĠSp lit
ĠCar lin
ĠPre p
ets ch
ah i
ah an
ah Ã§
Ġleg ace
27 77
68 2
68 6
68 8
50 7
Ġfr an
Ġfr anch
29 4
Ġmay fair
ĠDec ommission
69 0
69 1
69 7
mer a
ele c
ele ine
ĠEx plosion
ĠEx clusive
ĠEx pected
ĠArt icles
ĠArt illery
Ġpark er
ĠInter ior
ĠInter continent
ĠInter pre
ris co
73 1
ĠGen eration
ĠTrans ition
ĠTrans mitt
ne il
05 7
ke v
Ġad ria
Ġad justed
Ġcom mer
Ġcom mod
24 6
24 7
enter ed
ivers ary
ĠTra ction
ĠTra vel
ĠTra dition
ĠTra dem
ĠTra ffic
ilm arn
ĠCatalog no
Ġpro st
Ġpro per
Ġpro jection
Ġ38 09
ib out
ĠCall anet
06 2
06 3
23 5
23 9
ile v
att ro
att ano
ĠNet Flow
Ġ34 00
09 0
09 3
09 5
ĠUS GS
ĠUS MC
Ġus l
Ġus er
Ġ35 2
Ġ35 5
Ġ35 6
Ġ35 27
Ġsing er
ĠAv enue
ĠAss et
ark in
ds ey
ds haw
gh ammer
74 0
74 2
74 7
74 8
Ġas m
Ġas pect
ĠSpe aker
Ġâ Ĥ©
ĠâĢĵ âĢĵ
ĠLa akso
66 4
iz o
iz z
iz an
iz ing
Ġcap t
ĠFilm ed
ĠNov a
ĠNew s
Ġcol i
Ġcol vile
Ġcol ombo
ĠMan aged
ĠStart er
04 5
04 6
Ġz or
Ġz ap
Ġz ee
Ġz ach
Ġz one
Ġz urich
Ġz Ã¼rich
Ġz andvo
Ġz agreb
07 6
07 9
az on
az io
ĠFor bes
Ġvict orian
co o
Ġgre ater
Ġgre atest
Ġgre ensboro
49 2
08 0
08 3
08 7
08 9
au x
au ro
au ch
Ġbr endon
Ġbr enda
Ġbr atchik
33 4
33 8
erm en
erm ark
ĠAn gel
ĠAn ti
ĠAn alog
ĠAn ouk
ĠAn tib
Ġman agement
Ġman aus
Ġqu int
Ġqu ery
Ġnorth ampton
Ġam anda
Ġam ateur
Ġam bass
Ġam ylo
Ġge v
Ġ100 8
lin ed
Ġu w
Ġu ss
Ã© ro
Ã© ral
Ã© lio
bur ger
bur gr
bur sements
Ã¡ k
Ã¡ bal
Ġpri m
Ġpri or
Ġpri me
67 7
ĠPr Ã©
ĠPr ote
ĠPr edec
Ġmill s
34 3
34 5
vel oped
ĠChar ley
Ġcon du
Ġcon cre
35 2
35 9
35 000000000000003
65 3
65 9
65 00
ĠPower tra
Ġph ilippines
ild on
ĠLos ers
ĠFA T
Ġco aster
Ġ33 2
Ġ33 7
mond s
64 4
ĠSeg unda
aj ar
aj ara
Ġ45 3
Ġ45 6
HL ET
Ġmc cor
Ġmc iver
Ġmc gr
Ġmc williams
95 1
95 6
ĠJo in
ĠJo Ã£o
Ġeng ravers
mm ons
Ġdav ide
98 5
98 7
Ġ36 2
Ġ44 0
Ġ44 7
ect able
44 7
ĠBirth day
mi la
sh ort
sh of
sh awa
Ġq s
Ġq pi
Ġ39 3
Ġind ies
Ġind onesia
38 2
38 5
38 9
Ġbar r
Ġbar s
Ġbar net
Ġbar nett
Ġed o
Ġed u
Ġed mond
Ġed na
85 2
85 5
85 7
85 9
itt i
itt y
itt ym
lim a
ĠMc A
ĠMc H
ĠMc M
ĠMc In
ĠMc En
Ġ48 7
Ġ48 9
Ġ68 4
Ġ68 6
kg Ã¶z
Ġ69 3
Ġ69 6
oy t
Ġ49 1
Ġ49 2
ĠAg ra
45 4
ĠMov ements
Ġmin es
Ġmin ute
Ġmin neapolis
vi i
ĠZ erg
ĠZ AN
ĠZ hou
ĠZ heng
Ġsu k
Ġsu tton
itz er
ĠHost ed
ĠBar rier
ĠBar celona
ec ut
ec amatan
err ero
ater ina
Ġx xx
Ġx DS
Ġx avier
Ġx iong
Ġx drive
ĠDis ney
ĠDis order
ĠDis bursements
ĠSecond s
84 0
84 2
55 2
55 4
ila e
Ġworld wide
oth y
39 2
39 3
ĠThe ft
Ġgu am
Ġgu ards
Ġgu adal
Ġgu angzhou
ĠSw ing
ĠSw ash
ĠAd mits
Ġ55 6
rad y
rad ians
af elnikov
Ġcarl son
Ġmon ica
Ġmon ster
Ġmon ika
Ġmon arch
Ġmon sters
Ġmon teneg
Ġpr otein
Ġbe at
Ġbe au
Ġbe cker
Ġbe ermen
air y
air es
ough ton
ĠGre y
ĠGre ipel
ĠEd gar
uts kaya
ĠSu ited
ĠSu cceeded
ĠSu hardi
ĠSu ffix
ĠOr bit
ĠOr chestra
Ġex eter
Ġex onym
Ġex cise
Ġex plosion
Ġex ecut
ĠPar a
ĠPar aguay
ĠDes ire
ĠDes ired
ĠDes ha
78 1
Ġcomp anions
ray ia
yl an
Ġsl ots
Ġsl iding
Ġscor es
Ġchar ge
Ġchar ley
89 3
ĠNorth west
ull iver
vers ions
Ġhe bert
Ġhe ather
Ġhe pa
Ġhe ptathlon
ha usen
Ġpre p
Ġpre mio
Ġpre cision
ks wagen
tra ck
ĠSport ing
Ġsw an
Ġsw ing
Ġsw imming
min ster
ani Å¡
Ġpart icle
Ġpart icular
Ġpart izan
48 7
48 8
ij et
Ġab raham
59 0
59 9
Ġcor se
ĠPh one
ĠAll an
ĠAll svens
37 1373
Ġan astas
Ġan alogue
Ġan alysis
ĠFlo ating
ĠField bus
Ġsc d
Ġsc and
Ġsc all
Ġsc ream
Ġsc unthorpe
Ġwh l
Ġwh o
Ġwh ig
yn as
Ġtor quay
Ġgoal tender
99 2
99 9
Ġhill ary
88 6
88 7
áĥ ļ
ĠAs k
ĠAs st
ĠAs omtav
ĠMe V
ĠMe at
ĠMe cha
me eting
Ġval verde
Ġval lec
Ġval ladolid
Ġval iqu
amb u
Ġpl us
Ġpl ane
ung er
ĠCont est
ĠCont ador
ĠCont ribut
58 1
58 2
58 7
ĠâĢ ¡
ĠâĢ ĺ
Ġ60 121
Ġdef e
Ġdef ender
Ġscot ia
Ġscot iab
ĠOb ese
Ġinter val
Ġinter view
Ġinter net
Ġrep lacement
gram s
Ġel io
Ġel ise
Ġel ias
Ġel igible
roy uki
ĠÐ °
ĠÐ º
ĠÐ »
ĠÐ Ķ
ĠÐ Ľ
ĠÐ ±Ðµ
ĠÐ ľÐ°
ĠPoll s
Ġ65 6
46 1
46 3
Ġis inbay
Ġsub urb
Ġbu la
Ġbel grano
ko ÄŁlu
Ġtown ship
ĠPass es
Ġjack lin
ush ima
Ġnomination s
ĠEst udiantes
ĠEst ablish
Ġjun iors
eff ers
ng el
ĠWh ich
ĠAnd al
ĠAnd rea
ĠAnd rÃ©
ĠAnd roid
bo a
iro slav
onn y
ĠTou rist
Ġfin ley
Ġfin ster
Ġjo el
Ġjo chen
Ġjo Ã£o
br un
Ġmil b
Ġmil k
Ġmil ford
Ġmil itary
54 7
ky Å«
ĠBroadcast s
Ġ75 1
Ġred s
hold er
ĠAmer icas
Ġhigh est
Ġmark us
Ġmark ham
gar o
mon ic
ÃŃ k
ÃŃ ng
ÃŃ so
ÃŃ nez
Ġest en
Ġest adio
Ġres ch
Ġres idence
ron as
zz a
Ġ] /[
Ġà ½
Ġbay ern
azz a
86 1
pl ates
Ġking ston
Ġking dome
ĠAb d
ĠAb u
ĠAb out
ĠAb raham
Ġmont oya
Ġmont gomer
con version
ĠSan chez
Ġmart ina
Ġmart ÃŃn
Ġmart ÃŃnez
Ġmag gs
ii i
ĠX P
ĠX avier
Ġital ia
ĠPort ug
ĠRock y
ĠRock hampton
500 512
Ġem i
Ġem p
ĠHor wood
Ġgen oa
ĠSte el
ĠInt el
ĠInt elli
ĠDavid s
Ġchrist ie
Ġchrist ine
Ġchrist ina
Ġchrist ensen
Ġsch eduled
Ġsch aefer
Ġsch eckter
ĠEl la
ĠEl lery
Ġgreen ville
Ã¶ s
Ã¶ pings
ĠVol ts
Ġwal sh
oper ator
ĠGuest s
Ġwar wick
Ġhar mon
ĠÃ §
ĠÃ ģ
ĠÃ ĸ
ĠSc ale
ĠSc enario
Ġtra in
Ġtra vel
Ġbl ond
ĠMcC une
ĠMcC ormick
ãģ ¨
Ġblack hawks
ĠTouchd own
ĠSen ators
emp re
ĠGreen wood
ĠGreen berg
of en
ĠPur due
ĠNe u
ĠNe al
ĠNe ver
Ġdec atur
ae la
Ġant illes
ĠSun light
ĠSun rayia
Ġpol o
Ġfl ights
Ġjapan ese
Ð° Ð´
Ġen qvist
Ġalex andre
Ġste el
Ġste ph
Ġste fano
Ġev il
Åį bi
à® ©
à® °
à® ¾
ĠSol is
ĠSol vent
ĠSol omon
ĠCl ose
ĠCl ara
ĠCl iff
ĠCl ient
unt ary
Ġrobert o
ĠRepresent ing
Ġri y
Ġri ley
Ġtr ue
Ġtr unc
Ġtr ulli
Ġag g
Ġag re
Ġag uil
erb ahÃ§
ĠMal m
str Ã¶m
Ġcle mens
Ġdid ier
ĠBB M
ĠUnd isclosed
Ġer ed
Ġer win
Ġath lete
ĠWater ford
ĠPark er
ĠPark ing
Ġsa itama
Ġmed ley
Ġmed ical
Ġbrit t
Ġgra in
Ġgra ves
Ġshare holder
Ġwat ers
Ġes v
Ġes par
Ġim bert
Ġim perative
ĠAm ar
ĠAm ong
Ġmad eleine
Ġmich el
kw ords
we i
we itzer
Ġæ ĳ¸
Ġæ Ģ§æĥħ
Ġdu chov
tern ative
AR G
Final ists
ji Äĩ
ji quan
Ġpe psi
Ġpe ugeot
Ġpe acock
Ġbra in
Ġbra ga
ĠCoast er
ym our
ĠFl ange
Ġlu ge
Ġlu ke
ĠLocal ities
ĠLocal ized
Ġlee uwen
St and
ĠSch weitzer
ĠFall s
ĠCor poration
ĠCor inthians
ĠMot ion
Ġmer cer
Ġmer rill
Ġmer edith
Ġnational s
Ġgar th
Ġgar eth
Ġgar rett
Ġfred rik
ĠPresident ial
gers cha
Ġenter pris
Ġbre m
Ġbre wer
Ġne ed
Ġne ver
Ġkar en
Ġreg ime
Ġreg istration
Ġreg gie
Ġprinc ess
hab i
Ġiv o
Ġiv aniÅ¡
Ġtest ud
ĠDen im
ĠDen mark
Ġpet ya
Ġpet ronas
ĠBel le
ĠBel arus
ĠBel yando
Ġlos er
ãĥ «
ãĥ Ń
Ġir on
Ġir ina
Ġir ena
Ġange la
ĠSim mons
ĠSim ilar
Ġtim berwolves
ĠPaul o
ĠGra eme
Ġover haul
Ġray o
ĠArch imedean
ĠExp os
Å¡ ko
Å¡ ovÃ¡
ĠGovern ors
Ġmy ers
Ġmy anmar
Ġmax well
Ġwe ir
Ġwe apon
Ġwe iskopf
Ġhen ri
Ġhen rik
ĠChurch ill
ĠComb aya
ĠIsland ers
Ðµ Ð²Ð¾
ĠDest inations
Ġcons ent
Ġcons umption
ĠBo ise
ĠBo iling
ĠBob cats
ĠJack s
ĠJack ets
Ġke ane
ĠSett ing
Sh ort
aug h
ĠGu y
ĠGu ernsey
Ġham mer
Ġham mond
Ġjan zen
utt i
utt gart
Ġsk ra
Ġcr g
Ġber d
Ġber ghammer
ros by
Ġlab rador
ĠChrist ians
ĠDon caster
ĠDel ta
ĠRad ial
ĠRad ical
Ġmi ley
rac q
ĠIS SN
Ġje onju
Ġlar rou
Ġarg onauts
ven ues
ven eto
Ġtri ps
ĠWith out
ĠPe psi
ĠPe aches
ĠMet link
ĠMet acrit
Ġmiss ed
Ġmiss ing
Ġwil kins
Ġ103 65
ĠKn ight
Ġang el
Ġang ola
Ġtur in
Ġtur kish
ĠCast le
ĠCast ing
ĠCast ilian
ĠMa Ã±
Ġsand own
Ġsand rine
Ġpres eason
Ġdem olition
Ġap ost
Ġap oel
ĠDef ence
ĠDef ining
Ã¤ ren
ĠÎ ±
ĠÎ ²
ĠÎ ¼
Ġent endu
ĠLy ons
ĠNum eral
ĠOct al
ĠOct ubre
Ġmac edonia
Ġmcc ain
Ġmcc artney
Ġkim mel
Ġkim berley
Ġrob bers
Ġwhite head
Ġ(Â£ ,
ias en
Ð½ Ð¸
à¦ ¬
à¦ ¯
ãĤ ĵãģ
Ġay res
ĠSa ar
ĠSa ive
ĠWe ber
Ġrom ero
Ġrom puy
ĠCons ole
rish ofen
Ġcountry s
sp d
uch i
à¸ ±
à¸ µ
à¸ Ħ
à¸ Ļ
ĠSam urai
Ġmel vin
Ġmel issa
Ġsecond ary
Ġatt achment
Ġatt orney
mit age
Äģ n
Ġterm inal
Ġterm inus
ĠRuss ell
ĠBen jamin
Ġlong view
ĠKar ina
ĠFrank ie
Ġsummer ton
kov iÄĩ
Ġup dated
Ġte ik
Ġte zuka
Ġtre vis
ĠPen anced
ĠTechn ique
ĠOld s
Ġdick ey
cher ichia
Ġjer usalem
ĠCommun es
cle ar
ÑĢ Ð
ÑĢ Ð´
ĠSy ri
ĠSy rian
Ġts v
inch es
ĠDet ectable
ĠMich inoku
Ġsen iors
Ġsen egal
Ġsal aries
Ġda eg
Ġdar ling
Ġwill y
urg Ã¥rd
Ġhy po
Ġhy brid
Ġhol m
Ġeuro brun
Ġros burg
ĠâĤ¬ )
ĠIntrodu ction
uz on
Å« kyÅ«
ĠSab an
ĠWil kinson
ĠWord s
ĠTri als
ĠDo ÅĤ
Ġser ra
ĠEr in
ĠEr ror
ĠEr nest
Ġfern and
Ġfern Ã¡ndez
Ġweb b
Ġger olsteiner
Ġhold en
Ġhold ers
Ġvol kswagen
ops is
Ġelectric al
Ġphil ips
ĠEmploy ed
har h
oz ionale
uy u
ÅĤ aw
ĠSystem s
ĠLu x
ĠNC AAT
Ġca en
Ġca Ã±
Ġcy prus
Ġmet all
Ġfed eral
Ġfed eration
Ġacc rington
rain ian
ĠStory tel
Ġproduct s
Ġproduct ions
Ð¾Ð ³
Ð¾Ð ´
Ð¾Ð »
à¯ ģ
ĠÉ Ĳ
Ġ00 910
ĠMac room
elle vue
Ġher dez
Ġlp ga
ugu ay
Ã£ es
ĠWC hmp
ĠNot ional
Ġsi oux
Ġsi empre
Ġsqu adron
Ġmid land
Ġmid night
Ġbur ning
ĠEff ect
ĠEff iciency
Ġfar ina
ĠRece ived
ĠVict ory
ĠChart ing
Ġrem ix
Ġrem aster
ĠRob by
ĠRob odie
ĠRoman ization
di etsch
po ints
po inter
ĠMatt ers
rik ers
Ġpav ilion
Ġgi ulia
Ġko ch
osa urus
ĠArab s
ĠGreg orian
Ġargent inos
Ã§ amlÄ±
Ġash ford
Ġtar iff
Ġtar get
ĠWood side
ĠFa ction
ĠPap adopoulos
ĠRail road
ĠLaw s
Ġcf r
ĠOccup ational
Ġpunt a
Ġbal boa
ĠBank s
ĠBulgar ia
Ġfilm s
ĠSpace wal
organ ization
SU BLE
ni ya
Ã¨ re
Ġott o
ĠSum mer
ĠSlov ak
Ġcla ire
ĠBroad sound
ĠVirt ues
Ġgal atas
Ġru ler
Ġstud ents
ĠJew el
ĠProduct ions
ĠOlymp ic
Par ameter
Par oxetine
cont ae
Ñĥ Ð
Ñĥ Ðº
Ñĥ ÑĢÐ´
Ġear nings
ĠSl am
ĠAut onom
ĠCa pp
ĠCa Ã±
ĠCre ated
ĠPresent ers
ĠDomin ican
ĠLind elÃ¶
ĠNT E
Ġmand alay
Ġmand arin
Ġpub lisher
Ġbla ze
Ġdn q
elf are
Ġnak ano
ĠIm perial
Ġjud y
Ġequ ipe
Ġrec ipients
Ġrec reation
ĠConf ederation
ĠOrgan ism
ĠOrgan ized
Ġmotor ola
col or
col lo
ĠSal vatore
ĠSid ney
Ġtax es
ĠPan athinaikos
ĠTr ent
ĠRap ids
Ġso ir
ĠGal la
Ġcro atian
Ġbulgar ian
ĠBlo om
Ġgil les
Ġgil der
ĠIN E
Ġold ham
Ġton nes
Ġton kov
ĠCla ir
ĠCla sh
ĠCardinal s
ĠRy Å«kyÅ«
ĠMS DN
Ġbas il
ĠEuro pa
ĠRea ctor
Ġni amey
Ġni ittym
Ġwy att
Ġwy ndham
Ġwed ding
Ġrest ore
Ġrest oration
ĠDev il
ĠDev itt
ĠDev ils
ĠMonarch s
ĠSupport ed
ĠEconomic ally
)/ *
Ch assis
gu era
Ð» Ðµ
Ġç Ķ
inter cept
ĠRush es
ĠMole cules
Ġsar aj
Ġcam ra
Ġcub s
Ġcost ume
ĠHay don
Ġpas o
Ġpas cal
Ġbart tel
Ġbell ator
ĠEm erson
ĠEm irates
Ġdire ction
Ġflor a
Ġflor ence
Ġaz inger
Ġwater ford
Ġkaz akhstan
leng th
ĠâĨ ĵ
Ġbarb osa
OP C
app y
ĠCam eron
ĠCas ey
ĠCas inos
ĠRh ode
Ġsn atch
Ġcur l
ĠHam mer
Ġmir anda
Ġmir abil
Ġmur cia
Ġdin iz
ĠBa uman
Ġfle w
Ġfle et
Ġfle ming
Ġfle mming
Ġnik i
Ġnik os
Ġnik ki
Ġnik ola
Ġnico la
Ġale ix
Ġale jandro
Ġale ksandr
unn ar
Ġwol ves
Ġhu ber
Ġhu ang
Ġhart ley
Ġlyn ch
Ġlev ski
Ġlev ante
Ġlev egh
avi ridae
ĠPortray er
ĠFeatur ed
Ġrow land
ĠWy att
ĠWy combe
ĠFI RST
ĠCatch er
ĠPay ee
ĠDiff icult
ĠRet urn
ĠMile age
asm ine
ĠEth ernet
Ġfab ian
Ġfly weight
ĠView er
ĠIP v
Ġgood wood
Ġhur ling
Ġinc umbent
usk as
Ġky iv
Ġky alami
ĠArg on
ĠArg ent
ĠArg yle
ĠArg entino
ĠPremi ers
ĠSpecial ty
ĠSpecial ization
Sim pson
vet rain
ĠSar ina
ĠDem ons
outs en
ĠLin dsay
Ġcav aliers
Ġmu ir
Ġmans field
Ġball arat
ĠBer ths
rod ome
Ġast c
Ġwars hip
Ġgovern ors
Ġhorn sby
ubb ard
Ġlie utenant
Ġlie chten
quest rian
Ġslov an
ĠQueens land
805 79
805 37
Cap ital
Trans mission
Ġtem plates
ĠAsh land
ĠPast oral
ĠTong yong
ĠTele phone
ĠLad y
Ġslo an
Ġslo pe
Ġmun ster
Ġburn s
Ġburn ley
Ġfel ix
thous and
ĠIr ving
Ġgro ves
Ġandre i
ĠPrec ip
ĠSolar z
ĠBoard ing
0000000000000 2
0000000000000 3
Ġloan ed
ĠDivis iÃ³n
Be aver
Be fore
ders field
zi at
Ä± kgÃ¶z
áŀ Ł
ĠSEC R
ĠShe a
Ġtul ane
ĠPers ons
ĠTer esa
ĠMaterial s
ĠGil bert
ĠGil christ
Ġcob ras
Ġmob il
Ġmob ility
Ġpatt y
Ġbah ia
Ġdim ova
Ġfound er
Ġos lo
Ġos aka
Ġow ens
Ġow ned
Ġak ira
Ġaff airs
ĠIII B
Ġgab riel
Ġgab eca
Ġgul d
Ġgonz alez
ĠStorm s
Ġhel p
Ġja an
Ġvin cent
Ġviet oris
Ġstr ath
Ġlib ya
Ġlib rary
ĠJason s
Ġkot c
Ġkot chman
Ġkey boards
Ġleh igh
Ġye lena
Ġelect ra
Ġshoot er
Ġprop rietary
incl uding
ĠMcG ill
Ġoffic ial
Ġcharacter istics
ĠBegin ning
ãģ® ãĥ
ĠBelg ian
Ġroman ian
ĠFriend s
ĠFederal ist
Ret urn
ÃŁ e
Ġul le
ĠSant os
ĠAR CO
ĠCrime an
anner oo
ĠTerr an
ĠTerr ence
ĠMap le
Ġsoft ball
ĠGib son
Ġmb ps
Ġmetro politan
Ġpur pura
Ġprom ozionale
Ġbag h
ĠBad ge
ĠBry ant
Ġah mad
Ġaj s
Ġhi bernian
Ġkas pars
Ġsebast iÃ¡n
Ġfore igner
Ġyank ee
Ġmarri age
Ġspart ak
Ġspart ans
Ġfranc ine
ĠExec utions
ĠPron oun
ĠWhit ten
ĠWhit man
ĠKilomet ers
ĠCPU s
Ġnsw rfl
Ex press
For ce
Re p
Re isch
tz is
tz ow
ìŀ ¥
ìŀ Ĳ
ĠFam iglia
ĠFur ther
ĠFight ing
oning in
ĠPS OE
ĠRub idium
ĠRud ar
ĠMah m
ĠLines man
ĠNorm an
Ġsco la
Ġsylv ia
Ġsylv ain
Ġmult iventris
Ġmort lake
Ġmoh ammad
Ġmath ieu
Ġbat ista
Ġbat angas
Ġbro ken
Ġduncan ville
ĠBog or
ĠBog gs
ĠBern hard
ĠVill arro
Ġwel sh
Ġwel terweight
Ġgh ana
Ġhot el
Ġjar ier
ĠJob bik
Ġkra co
ĠEnrol led
Ġprov ided
Ġspec ific
Ġmaur itius
ĠSchw artz
ĠSchw aben
ĠTOTAL S
Off ice
Pro of
lj ana
æĺ ¯
Ġic os
Ġic eland
Ġug ly
Ġug anda
ĠSav age
Ġtyr rell
ĠFil imon
ĠFund ing
ĠAk ira
ĠPun ong
ĠTerrit orial
ĠRi ley
stad t
ĠLim it
Ġsatur day
ĠGS R
Ġcip olla
ĠOm aha
ĠOm ega
ĠHP FS
ĠHonor ee
Ġpin ky
Ġpate l
Ġpot ential
Ġpir ates
Ġpers ons
Ġbear ers
ĠEs cherichia
ĠBA FA
ĠBrig gs
Ġfun ction
Ġfav ourite
Ġnatal ie
Ġole ic
Ġwad don
endy k
ĠStand alone
Ġvalent ine
Ġrash ard
Ġkan al
Ġchand ler
Ġchand ran
Ġsequ ence
ĠMarc in
Ġmarcel la
Ġmarcel lo
Ġfrances ca
Ġcommission ed
ĠSpect ral
ĠSpect ators
ĠPlan ets
Ġprote cted
Ġprote ction
ĠGeorg ies
ĠÐ¡ ÑĥÑĢÐ´
Ġà¸ ¡
Ġà¸ ŀ
Ġchester field
GH T
mole cular
pri se
sing le
Êģ Ê²
Ġank e
Ġib ar
ĠSag inaw
Ġtele kom
Ġturn bull
ĠFO URT
ĠFresh water
abb ab
ĠAh mad
ĠCH I
ĠPinn ed
ĠPinn acle
ĠTre aty
ĠDom ari
ĠDom icile
ĠDra ugen
ĠRod ney
ĠMur der
ĠLE MA
ĠLic ence
ĠLyn ch
Ġsom mer
Ġmess aging
Ġmack ay
ĠmÃ¥ ch
Ġbi har
Ġbox ing
Ġdio go
Ġfen erbahÃ§
Ġful ham
Ġned elcheva
ĠVel ocity
Ġaor ist
Ġgw ang
Ġgior gio
Ġgrad es
Ġherr nstein
Ġindepend ence
Ġindepend ents
Ġvii i
Ġveh icles
Ġveh icle
Ġlud wig
Ġluc iano
Ġecu ador
ĠColon el
Ġdeb ellevue
ĠKle berg
ĠAlb any
Ġrap ids
Ġthous ands
ĠInteract ing
Ġbrent ford
Ġpred icts
ĠGeoff rey
Ġwhere as
Ġrepresent ed
Ġà¦ ¬
ĠHDR x
ĠAfghan istan
Ġtrip oli
Ġcbf x
ĠDrum Set
An t
Cl osing
He ad
Out door
Red cliffe
bass y
Ã° ardÃ³ttir
É£ Ê²
ÙĢ Ûķ
å¥ ¶
åĪ «
æľ ī
æŃ Į
ĠÏ Ģ
Ġ× Ļ
Ġond rej
Ġtuc son
abl anca
ĠTun er
ĠDj urgÃ¥rd
ĠDiffer ent
ĠDiffer ential
ĠRand olph
ĠMom ent
ĠMans ell
ĠNath aniel
ĠNath alie
Ġsig ma
ĠGl ider
ĠGab riel
ĠGent le
Ġci udad
Ġcag ayan
Ġcec il
ĠHur ricanes
ĠHamp den
ĠHamp shire
ĠHerb ie
Ġpale rmo
Ġpau la
Ġbos ko
ĠBeng als
ĠButt erfly
Ġfla sh
Ġnames ake
ĠVerm ont
Ġaik en
Ġgom el
ĠStump ed
Ġhud dersfield
Ġjagu ar
Ġjagu ars
Ġlanc ia
Ġlink Ã¶pings
Ġchem ie
ĠColomb ia
ĠColomb ian
ĠKat ie
Ġlex ington
Ġund isclosed
Ġander sson
Ġmargar ita
ĠThrough put
ĠAppro val
ĠAppro ved
ĠCoordin ate
Ã©d Ã©
ĠBarb ara
Ġcompet itiveness
áĥĶáĥ ĳ
Ġevent ual
ĠFlat Spin
ĠFlat tening
ÐµÐ ¿
Ġautom atic
Ġautom obiles
ĠAtom ic
Ġexpos ure
ĠDispos able
All ora
Equ ipo
MD Y
Pe ople
dal tons
gra ph
vod ina
yÃ¼ an
ĠWyn ne
ĠFoss ae
ĠAT HLET
ĠPly mouth
ĠPix el
ĠTai jiquan
ĠDy dek
ĠDad ar
ĠLiving stone
ĠsÃ¤ wen
iche le
ĠGV W
Ġcod rington
Ġcash es
Ġcrew e
ceph ale
ĠHul shof
Ġmce wen
Ġmut ual
Ġmongol ia
Ġpear son
Ġpru ett
Ġpach uca
Ġbet ween
Ġbrid gend
ĠbjÃ¶ rn
Ġdoming uez
ĠBod min
ĠBach elorette
rach et
ĠIo W
ĠStay ing
ĠStell ar
Ġhey len
Ġhutch inson
Ġvit Ã³ria
Ġroth mans
ĠAttempt ed
Ġlig ier
Ġkab ul
Ġkram nik
iag ara
Ġcher yl
accent ed
Ġsept entrional
Ġsepar ated
ĠKy oto
ĠDeput y
ĠMarg inal
ĠMarsh all
ĠArc second
ĠArm strong
ĠRobin son
Ġfront ier
ashk harh
ĠLaur en
Ã¡m ica
Ġmcm aster
Ġheaven ly
Ġbelle ville
ĠSerge y
ĠÃī l
ĠScout ing
ãģĦ ãģ
Ġæ½ ®çĪ
Ġpanam era
ĠSignific and
Ġdonald son
Ġverd asco
Ġmccar ron
Ġliber ec
Ġdisco very
ĠBuddh ism
80607 00
ĠCrus aders
ĠHoog endyk
ĠÒĶ ÑĮ
ĠÒķ ÑĮ
Ġjohan sson
Ġgovernor ate
ĠDiscover er
Ġforeign ers
Ġsachsen ring
Secret ary
Atl antic
Car ibbean
Open ing
WC HL
hor se
jev ic
sett ings
tri angle
ÄĻ ga
Åı n
É½ É¯
æĽ ľæĹ¥
çĭ Ģ
Ġí Ļįì°¨ìĻķ
ĠOM B
Ġame thyst
ĠáŁ ¡
ĠSes amin
legi ate
ĠtÃ¼r koÄŁlu
ĠWave length
ĠFib onac
ĠAla in
ĠAver aging
orig inal
orback s
ĠPi quet
ĠPent ium
ĠPend le
ĠPati ent
ĠTib etan
ĠDup rÃ©
ĠDix ie
ĠRib bons
ĠRaf ael
ĠMold ova
stri kes
ĠLay out
ĠLib wesh
ĠNag ano
Ġsul cus
Ġsau ber
ĠGÃ¼ zel
Ġcul ver
Ġcric info
ĠHuck leberry
Ġmuri lo
Ġpione ers
Ġpueb la
Ġboo zer
Ġbonn ier
Ġbump ed
ingd ao
ĠEA SA
Ġdart mouth
Ġdres den
Ġdund ee
ĠBee chwood
ĠRefer ences
ĠRebe cca
Ġnath alie
Ġaval on
umin ense
Ġgl ory
Ġgoo le
ĠgÃ¶ tzis
Ġgaut eng
ĠStark y
Ġhul me
Ġhisp ano
Ġjerem iah
Ġrind t
Ġstopp age
Ġliter ally
Ġljub ljana
ĠJust ice
Ġkil kenny
ĠInsp ire
Ġchun nam
Ġchung cheong
alend ar
Ġthur rock
ĠSpir it
ahed ron
ĠIntercept ions
Ġado lescents
ĠAssoci ate
Ġzen it
ĠamÃ© rica
Ġmcd owell
Ġguel ph
Ġmonter rey
Ġcort ese
Ġcollier y
Ġanat omy
ĠTyph oid
ĠWhen built
ĠFranÃ§ ois
ĠSubstr ate
Ġharb our
ĠMcCr ory
gaud ens
Ġfreib urg
Ġå» £
Stan thorpe
ĠGradu ated
ĠGuber niya
ĠMaur icio
Ġsurviv ed
Ġmacc abi
ĠOnt ario
Ġtreat ment
Ġinvol untary
ĠIllust ration
ĠHamburg ische
Ġgriff ith
ĠHydroelectric ity
ĠCustom ary
ĠConstitution al
Ġconfeder ations
AS ARB
Herv ey
Harm ony
Kles ha
Mason ic
Malay o
Produ ction
Pyram ids
Rel ated
Roub aix
Roman ian
Satur n
Ta ageper
Ti aro
TTC I
Vers ion
Wo ocoo
Yankton ai
cler c
czy k
dÏ Ħ
dire ctional
hound s
kings hip
kkin en
karat ne
mac arthur
renn en
varian ts
yfik acja
zvet kova
Ġick x
Ġors ini
Ġoul ton
Ġistan bul
ĠÑĤÐ¾Ð½ Ñį
Ĩå¤§ çĭĢ
ĠSinc lair
ĠSels don
ĠSonn et
ĠSaff ir
Ġtow son
Ġtamp ere
Ġtors ion
Ġtiff any
Ġtaty ana
ĠWend ey
ĠWÃ¼r ttember
ĠFert ility
ĠCem eteries
ĠClin ical
ĠPuch at
ĠPelet ier
arash tra
ĠTilla karatne
ĠDain ty
ĠDens est
ĠDoming o
ĠRÃ© union
ĠRTH K
ĠManu ka
ĠMuns ee
ĠNAT O
ĠNgil u
Ġsask atoon
Ġsiffer t
Ġcounc illors
ĠcÃ©s ar
ĠOlim pia
ĠHeng elo
ĠHash an
ĠHardin ess
Ġmell on
Ġmins k
Ġpens ke
Ġplast ic
Ġpowi ats
Ġbav aria
Ġbrew ers
Ġboga art
ilter ing
iltr ation
ĠEld ra
ĠEco zone
ĠEston ia
ĠEccent ricity
Ġdarn ell
Ġdiffer ential
Ġdaij iro
ĠPlaut dietsch
ĠBril liance
ĠBUS HI
ĠBÃ¼r gerscha
Ġflav io
Ġfurg ol
Ġfalk irk
Ġnue vo
Ġnitt any
Ġnamib ia
Ġolaz Ã¡bal
ĠVad im
ĠVeg as
ĠVEN UE
ĠaÃ§ Ä±kgÃ¶z
ĠMART IN
Ġwased a
ĠwÃ¶ rishofen
Ġwaut ers
Ġ612 98
ĠIly enko
ĠIrak lis
ĠIupp iter
Ġgrom it
Ġgile ra
Ġgodd ess
ĠgÃ©n Ã©ral
ĠStron gest
ĠStanz ler
ĠStrate gic
Ġhina ult
Ġhush ovd
ĠhÃ¤ kkinen
Ġhafs lo
Ġhurd les
Ġjourn al
Ġinert ia
Ġroming er
Ġruj ano
Ġstev ens
Ġstrike force
Ġstomme len
ĠChiron ius
Ġkall io
Ġkair at
ĠInstal led
utierre z
Ġeint racht
ivalen ce
ĠColling wood
ĠLectur ers
Ġseyn i
Ġdeput ies
ĠKaw asaki
ĠKille en
ĠKlas yfikacja
ĠKacht ik
ĠDeLu ise
ĠDistribut or
territ ory
Ġunspec ified
ĠArcar o
ohert y
ĠAlbas ini
ccurr ence
Ġperme ability
Ġatene o
ĠQuiab aya
ĠSpoon bill
ĠDecommission ed
ĠIntercontinent al
ĠInterpre ter
risco e
Ġadria enssen
ĠTradem ark
ilmarn ock
ibout i
ĠCallanet ics
attano oga
Ġzandvo ort
Ġbratchik ova
ĠAntib ody
Ġambass ador
Ġamylo id
burgr ing
Ġconcre te
ĠPowertra in
ĠMcEn roe
ĠxDS L
Ġguadal ajara
Ġmonarch s
Ġmonteneg ro
ĠAllsvens kan
ĠAsomtav ruli
Ġvallec ano
Ġvaliqu ette
ĠContribut ions
Ġscotiab ank
Ġisinbay eva
ĠEstablish ments
Ġfinster wald
Ġmontgomer ie
ĠIntelli Trace
Ġtrunc ated
Ġespar garo
Ġæĳ¸ æĳ¸
Ġduchov ny
Ġenterpris es
ĠivaniÅ¡ eviÄĩ
ĠBelarus ian
Ġlarrou sse
ĠMetacrit ic
ĠMaÃ± ana
ĠDoÅĤ ÄĻga
ĠStorytel ler
Ġ00910 371373
ĠSpacewal kers
SUBLE MA
Ġgalatas aray
ĠAutonom ous
ĠLindelÃ¶ f
ĠRyÅ«kyÅ« an
Ġniittym aki
Ġbarttel ot
Ġmirabil is
ĠDifficult y
Ġliechten stein
Reisch auer
ĠVillarro el
ĠFilimon ov
ĠÐ¡ÑĥÑĢÐ´ ÑĥÐº
ĠFOURT H
ĠfenerbahÃ§ e
ĠDjurgÃ¥rd en
ĠATHLET E
Ġseptentrional is
Ġæ½®çĪ Ĩå¤§çĭĢ
ĠíĻįì°¨ìĻķ ìŀĲ
ĠFibonac ci
ĠLibwesh ya
ĠGÃ¼zel Ã§amlÄ±
Taageper a
ĠWÃ¼rttember g
ĠBÃ¼rgerscha ft
! )
! !)"
) .
) âĢĵ
, (
. \
/ âĪĴ
0 Â
0 10
0 17
0 72
0 22
0 104
2 24
3 20
3 000
3 14
3 17
3 29
3 71
3 24
3 26
3 22
3 67
3 98
4 10
4 13
4 30
4 09
4 04
4 67
4 34
4 64
4 32
5 11
5 13
5 15
5 30
5 27
5 29
5 72
5 23
5 74
5 21
5 64
5 98
5 44
5 77
5 76
5 79
5 40
5 60
6 10
6 16
6 29
6 06
6 09
6 74
6 03
6 02
6 01
6 31
6 36
6 39
6 32
6 1875
7 10
7 11
7 73
7 67
7 64
7 85
8 19
8 25
8 68
8 23
8 09
8 26
8 04
8 07
8 49
8 67
8 85
8 31
8 32
8 37
9 12
9 13
9 18
9 71
9 66
9 49
9 33
9 64
9 76
9 78
9 60
9 103
A F
A V
A cc
A mer
A uthor
A vic
B ar
B ra
B ank
B ad
B io
B road
B ron
B elle
B low
B alls
C F
C o
C ol
C ro
C all
C lass
C ond
C ore
C ada
C zech
D U
D v
D on
D ick
D ee
D iv
D ire
D raw
D iam
D uration
D isabled
E F
E L
E ast
E sc
E ET
E agle
F i
F r
F in
F ree
F uel
F GA
F TH
F TA
G I
G r
G ene
G irls
G atine
G radu
H R
H ot
H old
H ell
H ara
H ere
H ui
H TM
H UC
I f
I m
J J
J une
K w
K anto
K LY
L F
L I
L P
L ay
L IN
L eg
L af
L ove
L atin
L ACK
M K
M M
M N
M y
M il
M art
M ag
M ont
M unicip
M bit
M arch
M itsubishi
N E
N P
N V
N Z
N is
N orm
N ew
N ames
N eg
N ano
N ominal
N etwork
O D
O S
O Y
O f
O l
O tt
O RT
P R
P T
P s
P ri
P il
P ub
P os
P ast
P ort
P ak
P ok
P eak
P ants
P oka
P apa
P hone
R H
R N
R R
R U
R Y
R o
R ain
R ace
R ight
R ob
R iz
R EP
R NA
R EN
R LIN
S k
S m
S ur
S old
S ilver
S iss
T Ã
T ons
T oto
T Act
U A
U s
V F
V M
V en
V an
V ir
V id
V ale
V irt
V eh
W A
W ith
W ashington
W ho
W oman
W hat
X tra
[ [|
_ \
` `
a ic
a is
a as
a ip
a ac
a ob
a vers
a Ã±
a ism
a iah
a iled
a ÄŁ
b h
b k
b n
b w
b ab
b am
b om
b et
b ro
b un
b les
b os
b ud
b ust
b ial
b ourne
b ah
b lic
b itt
b its
b ular
b lack
b lock
b oston
b ili
b ody
b ott
b enz
b ros
b uri
b olic
b rien
b ristol
b amy
b irds
b rawl
c q
c v
c w
c ist
c ers
c ie
c ut
c amp
c ik
c any
c urrent
c ross
c amb
c anel
c ours
c ante
c ifer
c rease
c aval
c ussion
c lyde
c ahedron
d k
d Å
d ar
d ri
d ro
d ur
d ain
d ine
d av
d eb
d ell
d itch
d ridge
d rie
d ison
d ata
d ave
d ams
d ges
d Äĥ
d roid
d Ã³ttir
e on
e la
e et
e em
e cc
e urope
e ism
f w
f al
f ur
f ound
f our
f ick
f ee
f ire
f rig
f rid
f ight
f eb
f ice
f ive
f are
f rom
f ell
f ries
f ilm
f ax
f oy
f its
f alen
f isher
f onte
f icit
f eller
f Ã¡ng
f iltering
g c
g it
g om
g ed
g is
g ot
g ir
g ge
g od
g les
g ang
g ence
g ore
g ros
g gi
g bi
g usa
g lj
h it
h is
h as
h un
h ine
h orn
h ald
h ara
h iro
h ension
h li
h alf
h uri
h osa
h ua
h vn
h omme
h oven
i B
i q
i ot
i em
i ris
i ross
i ott
i rie
i ators
i Ã¨res
i Dv
i Fi
j t
j el
j ist
j id
j ia
j ac
j ans
j ice
j ko
j iang
j zi
j itsu
j ovski
k A
k C
k b
k or
k oun
k ir
k ur
k ick
k ner
k ass
k ak
k ates
k ane
k ele
k az
k ha
k ison
k uk
k han
k VA
k ete
k ilde
k top
k imi
k shaw
k owski
k lau
l t
l v
l am
l ce
l ig
l les
l ton
l ich
l iss
l ide
l ied
l ston
l ower
l va
l alo
l ife
l hp
l ika
l Ã¬
l loyd
m d
m at
m ic
m ol
m and
m ur
m ult
m ain
m ire
m ort
m ong
m atch
m ina
m eg
m ail
m ales
m ona
m ajor
m ala
m bar
m achine
m stad
m RNA
n F
n u
n ar
n om
n ot
n ition
n ut
n iew
n ium
n oc
n ier
n ors
n orth
n ith
n ets
n ax
n az
n yn
n cs
n wall
n ÉĻ
n icholas
n enskaya
o ct
o os
o ons
o ÄŁ
o oms
o ÅĽ
o cephale
p x
p z
p at
p st
p our
p ard
p age
p ov
p ence
p ack
p rom
p ern
p ix
p ins
p aul
p ox
p ower
p alo
p inyin
p dr
p oten
p iper
p oned
q a
q l
q m
q in
r ot
r un
r ph
r ath
r ann
r ina
r ins
r ano
r ink
r ns
r upt
r kman
s g
s n
s x
s in
s at
s or
s am
s ur
s km
s outh
s ler
s ling
s berg
s well
s worth
s ardinia
s borough
s urg
s urd
s omes
s mobile
t d
t es
t eam
t ic
t ur
t em
t us
t ie
t ag
t ov
t ors
t ai
t ree
t aker
t imate
t open
t ÄĹ
t ouch
u T
u w
u ê
u ir
u les
u ire
u ality
u ced
u els
u air
u ations
u pper
u inn
u ÃŁ
u ente
u oka
v c
v p
v as
v ct
v ity
v all
v iewers
v ec
v ani
v ette
v mc
v ieu
v ayu
w r
w ate
w re
w ler
w yn
w oo
w sp
w hl
w oman
w ajar
x i
x ter
x ington
x iang
x Force
y i
y ra
y ip
y are
y rd
y rian
y omi
y roid
y chel
y pst
z f
z o
z t
z in
z an
z ap
z ee
z ine
z ier
z ana
z ko
z ira
z stan
z uma
z bank
z lÃ³
z spd
¡ ãĤ
¡ áł
¢ ģ
£ g
£ ¼
£ Ĭ
¤ ª
¤ à¸
¤ Ñĥ
¥ )
¦ ¬
¦ æĥħ
¦ åĬ
§ åĪ
ª ãĤĵãģ
¯ ãĥŃ
¯ ¦æĥħ
² ãģ¨
³ å
³ Ð¾
´ ë
´ Ĳ
µ ãĤ
¶ å
¶ éĢ
¸ «
¸ åº
» Ĭ
» İ
¼ S
¼ å
½ r
¿ Ĭ
¿ Ðµ
Ã ī
Ã ľ
Å ĳ
Å ĵ
Ç £g
È Ł
É ¾
É ķ
É Ľ
Ê °
Ê »
Ê ¼
Ê Ĥ
Ê ī
Ê Ķ
Ê ķ
Ì ŀ
Í ¡
Î ©
Î ¼S
Ð ¹
Ð Ł
Ð ±Ð°
Ñ ħ
Ñ ĸ
Ö ¹
Ö Ģ
× Ļ
Ø ª
Ø ³
Ø Ń
Ù Ī
Ú ¾
Û Į
à ½ł
â Ĭ
ä »Ĭ
ä ¿Ĭ
å £
å ĩ
å įĹ
æ ¥
æ ³
æ ł
æ ŀĹ
æ ¹ĸ
ç §
ç Ħ
ç ĵ
è ¡
è ¦
è ¨
è º
è Ģ
è ī
è Ĭ
è ¥¿
é ¢
é ģ
é »İ
í Į
í ķ
Ġ ;
Ġ ^
Ġ Õ
Ġ Ø
Ġ ê
Ġ ECT
Ġ our
Ġ ard
Ġ lass
Ġ oll
Ġ ase
Ġ ena
Ġ angers
Ġ ira
Ġ Äĩ
Ġ ennis
Ġ ute
Ġ ika
Ġ ÅĤ
Ġ ils
Ġ ishi
Ġ ä½ł
Ġ ÄĽ
Ġ Ñĩ
Ġ Ø¨
Ġ irty
Ġ áº
Ġ ä»Ĭ
ģ ĭ
Ĥ ³
Ĥ à½
ħ ãģĨ
ĩ æ°
Ī ç
Ī Ø§
ĭ åı
Į ¶
Į é»İ
ı é
Ĳ ×ķ
ĳ áĥĲáĥ
Ĵ ãĤ«
Ĵ æµ·
ķ Î
ķ ł
Ĺ ı
Ĺ ãĥª
ĺ ª
ĺ íķ
ĺ ĩæ°
Ļ Ģ
ļ à®®
Ľ ½
Ľ æ¬
Ľ áĥļ
Ľ ãģĦãģ
ľ ľ
ľ áĥĺ
Ŀ Ĵæµ·
ŀ áĥĲáĥ
Ł à®®
Ł ä¸
Ł à½ł
ł áĥĲáĥ
Ń am
ĠS D
ĠS d
ĠS in
ĠS ou
ĠS ed
ĠS il
ĠS el
ĠS ir
ĠS our
ĠS ee
ĠS ang
ĠS ik
ĠS ach
ĠS eth
ĠS any
ĠS yd
ĠS air
ĠS ake
ĠS yn
ĠS ander
ĠS amb
ĠS ung
ĠS alt
ĠS ally
ĠS AR
ĠS oon
ĠS ipe
ĠS ands
ĠS Ã£o
ĠS igner
ĠS alem
ĠS inh
ĠS Ã¸r
ĠS AP
ĠS oyuz
ĠS ACK
ĠS Ba
le k
le w
le on
le en
le ar
le um
le igh
le ary
le cted
le cht
le ep
Ġt j
Ġt ch
Ġt ry
Ġt ian
Ġt ud
Ġt umb
Ġt ang
Ġt av
Ġt io
Ġt ik
Ġt are
Ġt ries
Ġt ina
Ġt ib
Ġt ide
Ġt ai
Ġt out
Ġt ales
Ġt ull
Ġt eh
Ġt rop
Ġt rel
Ġt ees
Ġt aun
Ġt enth
Ġt ante
Ġt ruck
Ġt rill
Ġt radition
Ġt ango
Ġt cg
Ġt ipo
Ġt ashk
Ġt ambay
Ġt etsu
Ġt bd
Ġt azio
ĠW an
ĠW it
ĠW ear
ĠW im
ĠW ight
ĠW ach
ĠW eg
ĠW ille
ĠW rist
ĠW ald
ĠW alt
ĠW ÅĤ
ĠW rong
ĠW EE
ĠW aves
ĠW IAA
ĠW amal
ĠW eldon
ĠW orship
ĠW elfare
ĠW OS
ĠW iFi
ĠF F
ĠF J
ĠF an
ĠF ing
ĠF ad
ĠF ee
ĠF us
ĠF rit
ĠF ang
ĠF ors
ĠF aul
ĠF lack
ĠF oo
ĠF SI
ĠF ailure
ĠF uqu
ĠF uku
ĠF ergus
ĠF ollow
ĠF oochow
ĠF HT
ĠF ilen
ĠF olk
ĠF oyt
ĠF uyu
ĠF uente
ab h
ab ar
ab ro
ab od
ab id
ab ard
ab ong
ab azz
ab ria
ab ato
able s
ĠSE MI
ĠSE NI
ĠFR IT
ĠA E
ĠA in
ĠA de
ĠA mp
ĠA part
ĠA ces
ĠA RT
ĠA BC
ĠA itor
ĠA Ã±o
ĠA PI
ĠA zar
ĠA igars
ĠA ustrian
on et
on ak
on se
on ice
on buri
er i
er ate
er re
er is
er ver
er ie
er ton
er lo
er ten
er que
er au
er ox
er ico
er ators
er down
er evan
er deen
er jovski
in p
in ck
in ag
in ya
in ker
in idad
in Å£
at ab
at ter
at ton
at te
at man
at ons
at uck
at ka
at ico
at ron
at Åį
at oly
ĠC I
ĠC M
ĠC V
ĠC Y
ĠC i
ĠC oun
ĠC ome
ĠC um
ĠC age
ĠC raw
ĠC ort
ĠC ath
ĠC rist
ĠC DP
ĠC yl
ĠC amb
ĠC ody
ĠC urt
ĠC rop
ĠC reek
ĠC anucks
ĠC annon
ĠC ambridge
ĠC linton
ĠC sol
ĠC CM
ĠC ebu
ĠC ibao
ĠC oulter
ĠC ummins
ĠC ohen
ĠC rosby
ĠC alendar
en o
en on
en ad
en em
en ning
en ium
en io
en cer
en head
en isa
en wagen
en bruck
en veloped
en feller
an h
an en
an ning
an ass
an era
an ato
an lon
an mere
an abe
an alogue
an mu
an zza
or am
or ic
or et
or um
or os
or io
or ets
or gh
or ama
or phy
or bit
or eys
am at
am ount
am us
am ont
am ma
am weight
am ora
am mar
am stadion
am atsu
am ieson
ĠP Q
ĠP it
ĠP ic
ĠP is
ĠP ul
ĠP ia
ĠP ain
ĠP ut
ĠP ace
ĠP ach
ĠP ure
ĠP ash
ĠP att
ĠP az
ĠP ari
ĠP ines
ĠP uj
ĠP EP
ĠP ads
ĠP PS
ĠP NC
ĠP Ä«
ĠP aine
ĠP ixels
ĠP ige
ĠP ract
ĠP ortsmouth
ĠP ueb
ĠP ims
ĠP rud
ĠP ursuit
ĠP GM
ĠP Ãµ
ĠP ebble
ar c
ar ab
ar ts
ar if
ar row
ar lo
ar nes
ar itz
ar ray
ar ison
ar borough
ar ello
ar thy
ar huis
ar awe
ĠT I
ĠT R
ĠT a
ĠT l
ĠT ul
ĠT us
ĠT all
ĠT rig
ĠT rid
ĠT ight
ĠT umb
ĠT aw
ĠT ons
ĠT ah
ĠT ense
ĠT ram
ĠT aj
ĠT ind
ĠT ake
ĠT BA
ĠT ert
ĠT emp
ĠT ennis
ĠT uy
ĠT enth
ĠT icker
ĠT PS
ĠT emple
ĠT SC
ĠT amara
ĠT MS
ĠT aku
ĠT unnel
ĠT CK
ĠT song
ĠT omina
ĠT exans
ĠT ambay
ĠT rust
ĠT ikh
ĠT PA
ĠT zvetkova
al m
al v
al able
al is
al id
al ong
al ton
al ley
al ore
al ya
al ymp
al Äģ
al ised
al gi
al borg
al apa
al pine
al abad
al ameda
al ternative
al jevic
al cante
ĠD C
ĠD h
ĠD in
ĠD ou
ĠD ame
ĠD il
ĠD ot
ĠD ul
ĠD um
ĠD ow
ĠD ale
ĠD ell
ĠD ob
ĠD ats
ĠD ock
ĠD ark
ĠD ins
ĠD Ã©
ĠD uck
ĠD iana
ĠD erry
ĠD onn
ĠD ÃŃ
ĠD iet
ĠD uff
ĠD rain
ĠD DR
ĠD rive
ĠD aily
ĠD NA
ĠD umm
ĠD iane
ĠD arius
ĠD ingos
ĠD udley
ĠD odge
ĠD habi
ĠR N
ĠR an
ĠR ar
ĠR ic
ĠR ig
ĠR us
ĠR ug
ĠR ice
ĠR ach
ĠR ash
ĠR att
ĠR uth
ĠR out
ĠR ural
ĠR ÃŃ
ĠR oul
ĠR oper
ĠR other
ĠR ival
ĠR ene
ĠR era
ĠR anger
ĠR ho
ĠR uff
ĠR iddle
ĠR TM
ĠR enshaw
ĠR NA
ĠR CM
ĠR owan
ĠR oush
ĠM ate
ĠM is
ĠM ame
ĠM ard
ĠM est
ĠM ant
ĠM ong
ĠM og
ĠM ith
ĠM ats
ĠM ail
ĠM ex
ĠM au
ĠM aj
ĠM oy
ĠM ila
ĠM ett
ĠM uss
ĠM und
ĠM oss
ĠM yst
ĠM ersey
ĠM azz
ĠM aker
ĠM DR
ĠM anga
ĠM oline
ĠM esa
ĠM undy
ĠM oses
ĠM eyer
ĠM Ã¼nchen
ĠM unger
it ar
it ers
it ze
it ors
it ative
it err
it oto
it arian
it amon
ion i
st am
st ay
st ak
st rom
st reet
st uff
st akes
st ige
es y
es en
es ar
es el
ou e
ou j
ou in
ou st
ou ree
ate man
ate gy
ate col
ate mala
Ġ( ÃĹ
Ġ( *)
ĠL IN
ĠL id
ĠL ens
ĠL land
ĠL ug
ĠL iver
ĠL anding
ĠL amb
ĠL ince
ĠL ys
ĠL ayne
ĠL incoln
ĠL ublin
ĠL akes
ĠL BS
ĠL amar
ĠL OC
ĠL uther
ĠL ithuania
ĠL akers
ĠL umpur
ĠL across
ĠL ombard
ĠL erner
ĠL DU
ĠN er
ĠN ol
ĠN ing
ĠN ass
ĠN ak
ĠN ess
ĠN ina
ĠN ah
ĠN iz
ĠN ev
ĠN ike
ĠN its
ĠN ara
ĠN urs
ĠN PP
ĠN aug
ĠN athan
ĠN ED
ĠN usk
ĠN JC
ĠN ominees
ĠN iki
ĠN aples
ĠN olan
ĠN abil
ĠN intendo
ĠN inja
ĠN Ant
ĠN iagara
Ġs la
Ġs ic
Ġs is
Ġs oun
Ġs ult
Ġs ain
Ġs est
Ġs ut
Ġs ire
Ġs eng
Ġs ons
Ġs per
Ġs ok
Ġs ib
Ġs Ã¡
Ġs aj
Ġs ka
Ġs sc
Ġs ister
Ġs alt
Ġs my
Ġs Ã¶
Ġs ole
Ġs ym
Ġs ears
Ġs net
Ġs ven
Ġs ocket
Ġs ÅĤ
Ġs arat
Ġs ito
Ġs earch
Ġs elf
Ġs vg
Ġs alem
Ġs lavia
Ġs Ã¸r
Ġs odium
Ġs Ã¡nd
Ġs cyl
Ġs oyuz
Ġs myth
Ġs leep
la c
la up
la se
la co
la ger
la ume
la den
la ining
la ugh
la zers
la ken
la chlan
la collo
cor poration
ic ens
ic ine
ic ide
ic ative
ic enzo
ic ires
ent y
ent in
ent ion
ent ity
ent ication
ent ure
ent iary
00 31
00 58
00 400
om ri
om orets
ed er
ed ric
ed ski
ĠG F
ĠG K
ĠG h
ĠG i
ĠG s
ĠG y
ĠG ate
ĠG ear
ĠG ot
ĠG el
ĠG ro
ĠG ul
ĠG ig
ĠG end
ĠG us
ĠG ie
ĠG ew
ĠG atch
ĠG ets
ĠG one
ĠG ree
ĠG Hz
ĠG over
ĠG inn
ĠG agar
ĠG omes
ĠG uitar
ĠG CM
ĠG SWR
ĠG lendale
ĠG utierrez
Ġc e
Ġc g
Ġc n
Ġc p
Ġc x
Ġc z
Ġc at
Ġc es
Ġc ou
Ġc ic
Ġc is
Ġc el
Ġc ir
Ġc ome
Ġc ry
Ġc ow
Ġc ine
Ġc lo
Ġc otes
Ġc ell
Ġc ft
Ġc ats
Ġc ade
Ġc ock
Ġc amil
Ġc ind
Ġc sc
Ġc amb
Ġc ron
Ġc opa
Ġc ove
Ġc ement
Ġc annon
Ġc ancell
Ġc oca
Ġc owan
Ġc ebu
Ġc rater
Ġc anoe
Ġc ummins
Ġc edric
ĠO N
ĠO g
ĠO k
ĠO ts
ĠO ry
ĠO ption
ĠO ptions
ĠO NI
ĠO shawa
ĠO ccurrence
ĠPo ch
ĠPo tt
ĠPo ke
ĠPo lar
ĠPo inte
ce ania
ri y
ri us
ri os
ri ment
ri ki
ri vi
ri ella
ri eta
ri corn
ĠH E
ĠH T
ĠH i
ĠH u
ĠH it
ĠH es
ĠH ed
ĠH od
ĠH os
ĠH ens
ĠH ath
ĠH oll
ĠH ell
ĠH ok
ĠH ib
ĠH ide
ĠH ins
ĠH ous
ĠH ena
ĠH itt
ĠH ose
ĠH err
ĠH ays
ĠH ung
ĠH ano
ĠH BA
ĠH unt
ĠH umph
ĠH agen
ĠH ermann
ĠH ilde
ĠH aley
ĠH IV
ĠH undred
ĠH idden
ĠH eys
ĠH ikaru
ĠH unts
ĠH arkin
ĠH oughton
ĠH Us
Ġm l
Ġm am
Ġm ou
Ġm ate
Ġm ic
Ġm est
Ġm ourn
Ġm old
Ġm ates
Ġm umb
Ġm ust
Ġm ug
Ġm eng
Ġm ons
Ġm erv
Ġm ok
Ġm orn
Ġm ille
Ġm off
Ġm eral
Ġm ake
Ġm eter
Ġm olina
Ġm pl
Ġm errit
Ġm ots
Ġm bit
Ġm lad
Ġm Äģ
Ġm ips
Ġm uz
Ġm orton
Ġm pi
Ġm Äĥ
Ġm Çİ
Ġm ouk
Ġm ugen
Ġm onde
Ġm Rem
Ġm Ã¼nchen
Ġm iroslav
Ġm ichele
re ay
re ts
re una
re mo
re mad
re cht
re hension
UN E
Ġp b
Ġp le
Ġp am
Ġp om
Ġp is
Ġp ig
Ġp ank
Ġp od
Ġp les
Ġp rig
Ġp amp
Ġp ong
Ġp ak
Ġp ug
Ġp eng
Ġp ern
Ġp len
Ġp une
Ġp rat
Ġp az
Ġp ren
Ġp ett
Ġp ico
Ġp ano
Ġp alo
Ġp ty
Ġp ask
Ġp ink
Ġp ao
Ġp iano
Ġp uff
Ġp aco
Ġp vg
Ġp uma
Ġp rak
Ġp ixels
Ġp yram
Ġp unk
Ġp Ã¡d
Ġp kv
Ġp ursuit
Ġp icard
ol in
ol ate
ol ot
ol land
ol ton
ol ler
ol ley
ol ari
ol lah
ol ving
ol stadt
is b
is son
is ca
is oft
is ring
is rael
is lava
is garh
Ġ3 30
Ġ3 27
Ġ3 29
Ġ3 24
Ġ3 76
Ġ3 79
Ġ3 298
oun is
Ġb g
Ġb k
Ġb x
Ġb le
Ġb ab
Ġb eam
Ġb ot
Ġb ue
Ġb od
Ġb ound
Ġb igh
Ġb ult
Ġb enue
Ġb ates
Ġb ess
Ġb ust
Ġb ew
Ġb ly
Ġb res
Ġb ont
Ġb enn
Ġb rd
Ġb ok
Ġb one
Ġb ore
Ġb ash
Ġb ille
Ġb ark
Ġb ev
Ġb erm
Ġb mm
Ġb err
Ġb oth
Ġb ull
Ġb acter
Ġb erry
Ġb ury
Ġb osh
Ġb Åį
Ġb rest
Ġb olog
Ġb oon
Ġb ias
Ġb ells
Ġb har
Ġb iddle
Ġb di
Ġb irk
Ġb ernie
Ġb omb
Ġb inh
Ġb jp
Ġb imon
Ġb onnie
Ġb kk
Ġb eyer
Ġb iele
Ġb iag
Ġb lind
Ġb iljana
Ġb outsen
Ġb riscoe
ame leon
il up
il ov
il yn
ing a
ing al
ing way
ing ley
ĠY o
ĠY u
ĠY ing
ĠY aw
ĠY AR
ĠY DS
ĠY OY
ĠY atron
as a
as ing
as ant
as awa
as ys
as uri
as una
as mo
as vayu
ĠE D
ĠE S
ĠE in
ĠE pp
ĠE ps
ĠE rick
ĠE VD
ĠE PM
ĠE hr
ĠE zh
ĠE DT
ĠE isel
ĠE mma
ĠE isenhower
ĠE XR
ĠE questrian
Ġd c
Ġd h
Ġd q
Ġd z
Ġd ion
Ġd ear
Ġd as
Ġd ue
Ġd um
Ġd ra
Ġd ode
Ġd ish
Ġd ak
Ġd ans
Ġd ann
Ġd ell
Ġd iver
Ġd one
Ġd ne
Ġd ock
Ġd aj
Ġd ree
Ġd raft
Ġd ett
Ġd uel
Ġd aff
Ġd ae
Ġd ustin
Ġd oon
Ġd ump
Ġd rey
Ġd mit
Ġd omestic
Ġd har
Ġd ora
Ġd pi
Ġd iving
Ġd awn
Ġd emocrats
Ġd rive
Ġd kk
Ġd atas
Ġd ynam
Ġd ingos
Ġd addy
Ġd udley
Ġd reis
Ġd rita
Ġd airy
Ġd ylan
ot ic
ot ron
ot ros
ot alent
ot kev
Ġteam s
ĠPla xo
ĠB H
ĠB X
ĠB h
ĠB ou
ĠB ir
ĠB ant
ĠB row
ĠB ess
ĠB rea
ĠB oh
ĠB lay
ĠB ok
ĠB ib
ĠB illion
ĠB ald
ĠB erry
ĠB ask
ĠB ula
ĠB ench
ĠB GS
ĠB ible
ĠB GA
ĠB ride
ĠB SE
ĠB ouch
ĠB read
ĠB righton
ĠB ebo
ĠB onav
ĠB iola
ĠB ID
ĠB DF
ĠB icy
ĠB ubba
ĠB iegel
ĠB Ã¤ren
ĠB LACK
ĠB ateman
ĠB lazers
ĠB olton
ct arian
el p
el les
el ina
el ma
el berg
el ius
el stone
el open
ĠYear ly
Ġf g
Ġf it
Ġf ame
Ġf as
Ġf ay
Ġf ry
Ġf ia
Ġf ag
Ġf est
Ġf all
Ġf ace
Ġf iew
Ġf ond
Ġf ons
Ġf ah
Ġf Ã©
Ġf erman
Ġf aul
Ġf lock
Ġf ili
Ġf urn
Ġf arn
Ġf Ã¼r
Ġf illed
Ġf ui
Ġf outs
Ġf Ãł
Ġf resh
Ġf ayette
Ġf ulton
Ġf omina
Ġf ibe
Ġf oochow
Ġf ingal
et able
et ton
et ec
et ano
et afe
et itor
ro i
ro vi
ro ger
ro gate
ro ved
ro bacter
ay er
ay at
ay as
ch ain
ch ak
ch ment
ch ey
ch land
ch io
ch aw
ch ild
ch ron
ch ini
ch allenge
ch ua
ch emical
ch ardt
ch ipot
ch wader
ch attanooga
ĠRe ad
ĠRe pe
ĠRe ine
ĠRe qu
ĠRe cent
ĠRe ino
ĠRe za
ĠRe ading
ĠRe union
ul s
ul u
ul in
ul la
ul man
ul can
ts er
ts ide
ts hire
ts park
Ġn h
Ġn t
Ġn v
Ġn ate
Ġn et
Ġn ur
Ġn ut
Ġn ach
Ġn ors
Ġn ure
Ġn ets
Ġn ds
Ġn ev
Ġn ike
Ġn ps
Ġn aj
Ġn atur
Ġn ote
Ġn me
Ġn iet
Ġn sp
Ġn Ã¼r
Ġn ominal
Ġn eman
Ġn ext
Ġn aga
Ġn uv
Ġn abis
ver o
ver ed
ver bial
Ġ200 00
Ġ4 11
Ġ4 12
Ġ4 200
Ġ4 16
Ġ4 70
Ġ4 27
Ġ4 69
Ġ4 71
Ġ4 09
Ġ4 26
Ġ4 22
Ġ4 07
Ġ4 33
Ġ4 35
Ġ4 65
Ġ4 054
Ġo j
Ġo ber
Ġo pt
Ġo ption
Ġo vi
Ġo con
Ġo bs
Ġo su
Ġo wen
Ġo oster
Ġo hm
Ġo pel
Ġo atka
Ġo enning
ĠV C
ĠV W
ĠV i
ĠV on
ĠV in
ĠV ent
ĠV ir
ĠV ey
ĠV ory
ĠV ision
ĠV ale
ĠV ries
ĠV FL
ĠV ita
ĠV erg
ĠV Ã¤
ĠV oj
ĠV asy
ĠV ilas
ĠV enezuela
ĠV aras
ĠV Max
ĠV iol
ĠV odafone
ĠV anderbilt
ir u
ir al
ir ut
ir ley
ir bel
Ġa w
Ġa ch
Ġa ze
Ġa oc
Ġa de
Ġa per
Ġa ke
Ġa ki
Ġa kg
Ġa ida
Ġa chie
Ġa ux
Ġa war
Ġa Éª
Ġa ej
Ġa charya
Ġa iden
Ġa AG
Ġa esch
Ġa alborg
pp y
pp esen
un i
un ar
un ct
un ov
un awa
ue i
ĠMA S
ber ra
ber ly
ge a
ge er
ge ance
ge ois
ĠLo la
ĠLo ad
ĠLo ads
ĠLo pez
ĠLo gl
ome z
um o
um s
um ari
um ura
um ni
ig l
ig u
ig er
ig ge
ig ie
ig ions
ig awa
ig osa
ig uer
th i
th u
th ing
th age
th ik
th ly
th ai
th rough
and y
and ar
and ale
and ran
ition ed
Ġ5 19
Ġ5 28
Ġ5 18
Ġ5 70
Ġ5 68
Ġ5 73
Ġ5 71
Ġ5 24
Ġ5 06
Ġ5 23
Ġ5 74
Ġ5 85
Ġ5 76
Ġ5 36
Ġ5 100
Ġ5 640
Ġ5 304
Ġ5 088
Ġw d
Ġw m
Ġw en
Ġw ick
Ġw ia
Ġw ight
Ġw ong
Ġw ak
Ġw ess
Ġw ack
Ġw are
Ġw oll
Ġw ier
Ġw eg
Ġw sc
Ġw ise
Ġw oo
Ġw ii
Ġw igan
Ġw oj
Ġw elch
Ġw ww
Ġw aves
Ġw iese
Ġw aste
Ġw anneroo
Ġw gc
Ġ6 19
Ġ6 14
Ġ6 16
Ġ6 25
Ġ6 30
Ġ6 26
Ġ6 74
Ġ6 04
Ġ6 08
Ġ6 02
Ġ6 45
Ġ6 76
Ġ6 39
Ġ6 78
Ġ6 37
Ġ6 62
Ġ6 57
Ġ6 111
im ab
im ar
im ation
im il
im ity
im ov
im ania
im ova
ss c
ss um
ss ia
ss illon
ra a
ra f
ra j
ra q
ra z
ra st
ra ge
ra ki
ĠI L
ĠI on
ĠI gu
ĠI lis
ĠI UC
ĠI EF
ĠI yare
ĠI raq
ity a
ity tÄĹ
ĠHome port
od ra
od ity
od ac
od ala
od rome
od inÅ£
od oros
Ġg f
Ġg ed
Ġg ts
Ġg ad
Ġg art
Ġg ub
Ġg ia
Ġg ag
Ġg all
Ġg ort
Ġg ine
Ġg row
Ġg ang
Ġg ril
Ġg ive
Ġg ale
Ġg ward
Ġg eth
Ġg ore
Ġg ilm
Ġg az
Ġg aj
Ġg aul
Ġg ila
Ġg lock
Ġg und
Ġg uns
Ġg ott
Ġg alle
Ġg idd
Ġg cm
Ġg ao
Ġg ather
Ġg ros
Ġg rizz
Ġg itan
Ġg igi
Ġg sl
Ġg irls
Ġg erald
Ġg omes
Ġg ullik
Ġg ono
Ġg ifford
Ġg oggin
Ġg aughan
Ġg ulliver
Ġg unnar
Ġg elopen
Ġg etafe
Ġg omez
onent s
ĠWin ston
ĠWin dsor
ĠWin stead
ur h
ur m
ur ban
ur ume
Ġ7 200
Ġ7 27
Ġ7 69
Ġ7 71
Ġ7 05
Ġ7 06
Ġ7 75
Ġ7 67
Ġ7 65
Ġ7 64
Ġ7 03
Ġ7 02
Ġ7 01
Ġ7 85
Ġ7 84
Ġ7 89
Ġ7 48
Ġ7 99
Ġ7 62
Ġ7 58
Ġ7 90
Ġ7 82
Ġ7 92
Ġ7 97
Ġ7 140
Ġ7 130
ad h
ad u
ad le
ad in
ad ir
ad ee
ad ena
ad ys
ad ji
ad den
ad rome
ĠSt our
ĠSt up
ĠSt ans
ĠSt rat
ĠSt ev
ĠSt uck
ĠSt ater
ĠSt eff
ĠSt ls
ĠSt adion
ĠSt raight
ĠSt ories
ĠSt ores
ĠSt ahl
ĠSt ereo
ĠSt erling
ĠSt acey
ĠSt avang
ĠSt rikers
ĠSt oreys
Ġ0 18
Ġ0 33
Ġh b
Ġh it
Ġh od
Ġh os
Ġh ens
Ġh umber
Ġh ast
Ġh atch
Ġh ann
Ġh ail
Ġh erm
Ġh ager
Ġh ect
Ġh ama
Ġh oss
Ġh ano
Ġh utt
Ġh Ã¸
Ġh ui
Ġh su
Ġh orton
Ġh ava
Ġh omes
Ġh owell
Ġh iggins
Ġh atan
Ġh assan
Ġh ahn
Ġh Pa
Ġh ims
Ġh ikaru
Ġh omos
Ġh akan
Ġh ubbard
ist ar
ist ers
ist ani
ist ano
ist oph
ist ivity
Ġj l
Ġj ed
Ġj et
Ġj ia
Ġj ens
Ġj ew
Ġj ug
Ġj aw
Ġj ane
Ġj ena
Ġj ind
Ġj ull
Ġj ani
Ġj aff
Ġj ockey
Ġj ody
Ġj Å«
Ġj anne
Ġj eep
Ġj ava
Ġj oris
Ġj amm
Ġj ayawardene
Ġj esper
Ġj asper
ers h
ers et
ers ea
em ar
em ic
em ian
em ire
em ans
em oto
em ians
em burgish
em fonte
ance y
ry Åį
Ġin ch
Ġin put
Ġin spe
Ġin strument
Ġin equ
Ġin active
Ġin noc
ap o
ap u
ap ril
ap ell
art on
tt ier
ĠRes ale
ĠRes pect
ĠRes istivity
igh ley
ult ant
Ġv k
Ġv o
Ġv or
Ġv la
Ġv ent
Ġv id
Ġv ain
Ġv ag
Ġv ish
Ġv amp
Ġv ess
Ġv anu
Ġv op
Ġv oc
Ġv iss
Ġv ries
Ġv ob
Ġv ille
Ġv itt
Ġv ald
Ġv irt
Ġv ince
Ġv ocal
Ġv igo
Ġv ilas
Ġv Ã¶r
Ġv odafone
Ġv anderbilt
Ġv elde
Ġv ulcan
Ġv odac
id as
id us
id ia
id oubles
id Åį
id opsis
Ġr k
Ġr r
Ġr ue
Ġr ut
Ġr umb
Ġr ated
Ġr uth
Ġr ita
Ġr ays
Ġr ally
Ġr ms
Ġr pg
Ġr utt
Ġr Ã¸
Ġr uff
Ġr cd
Ġr ondo
Ġr ml
Ġr atan
Ġr onde
Ġr itter
Ġr inaldi
Ġr uston
ub o
ub ing
ub ice
ub aker
ub lika
itle y
Ġ8 13
Ġ8 15
Ġ8 73
Ġ8 71
Ġ8 05
Ġ8 23
Ġ8 66
Ġ8 65
Ġ8 64
Ġ8 76
Ġ8 48
Ġ8 37
Ġ8 60
Ġ8 94
Ġ8 87
Ġ8 81
our ty
our des
inal d
ick i
ick as
ick sh
ick sen
Ġst m
Ġst o
Ġst p
Ġst u
Ġst and
Ġst ra
Ġst ick
Ġst os
Ġst amp
Ġst ich
Ġst op
Ġst ore
Ġst ark
Ġst Ã©
Ġst reak
Ġst iles
Ġst uy
Ġst akh
Ġst rong
Ġst acy
Ġst ilian
Ġst yles
Ġst ricker
Ġst erling
Ġst avang
Ġst anton
Ġst okes
Ġst erjovski
ĠAtt ias
ĠAtt ended
ner a
Ġl d
Ġl n
Ġl an
Ġl ion
Ġl ou
Ġl ate
Ġl om
Ġl un
Ġl ime
Ġl ill
Ġl amp
Ġl ans
Ġl ust
Ġl oh
Ġl ley
Ġl ore
Ġl uth
Ġl iam
Ġl uck
Ġl unch
Ġl oy
Ġl ott
Ġl iet
Ġl ines
Ġl una
Ġl hp
Ġl ima
Ġl cd
Ġl iving
Ġl anes
Ġl Ã¡s
Ġl loyd
Ġl onel
Ġl ammers
Ġl icens
ee le
ee gan
us ion
us ative
us ya
us ole
us rennen
ĠCh an
ĠCh id
ĠCh ord
ĠCh itt
ĠCh uck
ĠCh amb
ĠCh ung
ĠCh ancer
ĠCh app
ĠCh alk
ĠCh ennai
ĠCh icken
ĠCh orley
ĠCh opin
ĠLoc ality
ĠSe ca
ĠSe bast
ĠSe venth
ĠSe ymour
ĠSe lected
ĠSe stak
ĠJ P
ĠJ i
ĠJ in
ĠJ ed
ĠJ ing
ĠJ ie
ĠJ ag
ĠJ os
ĠJ av
ĠJ oh
ĠJ erm
ĠJ uk
ĠJ ustin
ĠJ enny
ĠJ enson
ĠJ elia
ĠJ amal
ĠJ ayawardene
ĠJ ameer
ĠJ onny
ĠJ asmine
ĠJ amieson
Ġ9 20
Ġ9 12
Ġ9 14
Ġ9 73
Ġ9 24
Ġ9 09
Ġ9 77
Ġ9 45
Ġ9 39
Ġ9 40
Ġ9 59
Ġ9 99
Ġ9 96
Ġ9 46
Ġ9 80
Ġ9 47
ie hon
Ġk d
Ġk v
Ġk w
Ġk on
Ġk er
Ġk am
Ġk ate
Ġk ick
Ġk ow
Ġk ard
Ġk ies
Ġk ut
Ġk iv
Ġk ool
Ġk ov
Ġk amp
Ġk ak
Ġk irst
Ġk ew
Ġk io
Ġk lo
Ġk ik
Ġk ath
Ġk orn
Ġk ob
Ġk tr
Ġk au
Ġk any
Ġk aj
Ġk ind
Ġk lim
Ġk ota
Ġk ha
Ġk ara
Ġk idd
Ġk rick
Ġk awa
Ġk aki
Ġk romb
Ġk aun
Ġk laus
Ġk rav
Ġk ami
Ġk ÄĹ
Ġk ahn
Ġk ucinich
Ġk endall
Ġk oudel
Ġk ecamatan
Ġk afelnikov
ĠIn a
ĠIn ge
ĠIn nes
ĠIn chi
ĠIn junctive
ĠIn surg
ĠIn corporation
ill ard
ill otine
ia i
ia o
ia v
ia ki
ia oming
ain en
ck i
ck y
ck en
ck et
ck nell
ason e
ason en
Ġ10 14
Ġ10 25
Ġ10 24
Ġ10 75
Ġ10 64
Ġ10 40
Ġ10 59
Ġ10 62
Ġ10 87
ow o
ard ar
ag in
ag ian
ag Ã¼
ag ii
ag aki
ag ennis
ag ami
he le
he iro
he ys
he inz
Ġ# )
est eg
ĠU D
ĠU ru
ĠU mp
ĠU BI
ĠU glj
all i
all on
ĠEn zy
ĠEn cry
ies sen
ip h
ip le
ip se
ip ino
ip eline
ip lied
Ġby u
Ġby ÅĤ
Ġby rne
ĠNo el
ĠNo ble
oal s
oal kane
les h
les field
les bury
les cher
ĠWeek day
ut in
ut or
ut ra
ut ant
ut ral
ut ical
ut aka
ut emann
Ġ12 50
Ġ12 64
Ġ12 98
Ġ12 62
Ġ12 90
Ġ11 14
Ġ11 25
Ġ11 70
Ġ11 50
Ġ11 67
Ġ11 34
Ġ11 03
Ġ11 90
ric ay
ric iÃ¨res
os en
os is
os ong
os ph
os lav
os pin
os lava
lass ification
Ġe c
Ġe j
Ġe y
Ġe z
Ġe in
Ġe pp
Ġe un
Ġe ad
Ġe val
Ġe ib
Ġe ind
Ġe els
Ġe ve
Ġe va
Ġe ien
Ġe pa
Ġe cker
Ġe cho
Ġe isenhower
ĠGame Rank
ĠGame Center
ary l
iv a
iv is
iv as
iv ts
iv ier
ze iro
ze zn
Ġch r
Ġch u
Ġch ab
Ġch an
Ġch it
Ġch ou
Ġch ick
Ġch ass
Ġch ern
Ġch ore
Ġch ai
Ġch erry
Ġch iny
Ġch ipp
Ġch allen
Ġch arters
Ġch loe
Ġch onburi
Ġch ameleon
ens a
ool ture
ian non
ian array
ĠTo by
ĠCom ing
ĠCom une
ĠCom ets
ĠCom bo
Ġ18 20
Ġ18 19
Ġ18 13
Ġ18 30
Ġ18 27
Ġ18 50
Ġ18 29
Ġ18 04
Ġ18 08
Ġ18 33
Ġ18 75
Ġ18 67
Ġ18 35
Ġ18 44
Ġ18 38
Ġ18 55
Ġ18 78
Ġ18 32
Ġ18 62
Ġ18 54
Ġ18 86
Ġ18 52
Ġ18 41
ire za
ire lles
ast ic
ast han
ĠCol ts
ĠCol lection
ĠCol legiate
ish u
ish ment
ish tov
Ġ) /
ĠLe it
ĠLe es
ĠLe op
ĠLe vi
ĠLe con
ĠLe ven
ĠLe Ã³n
ĠLe aven
ĠLe vand
ĠLe clerc
ĠLe Bron
ĠLe xington
Ġre x
Ġre y
Ġre ich
Ġre co
Ġre gan
Ġre bell
Ġre election
Ġre built
Ġre vere
Ġre cco
Ġre venues
Ġre utemann
rig an
rig ues
ace utical
ĠBr in
ĠBr amb
ĠBr unswick
rid o
rid ges
Ġ14 27
Ġ14 72
Ġ14 05
Ġ14 06
Ġ14 23
Ġ14 07
Ġ14 35
Ġ14 65
Ġ14 60
ĠCon d
ĠCon cord
ĠCon son
ĠCon form
ĠCon go
ĠCon rad
ĠCon version
ĠCon cordia
ĠCon sec
ĠCon flict
ĠCon versions
Ġpar ent
Ġpar ity
Ġpar ry
Ġpar lo
Ġpar ade
Ġpar ram
Ġpar mal
Ġpar liament
Ġpar adise
Ġpar amount
Ġpar alymp
ĠPart icul
ov an
ov il
ov ille
ov ese
ov ani
ov ny
ov iÄį
ight on
ight ower
10 15
Ġ15 15
Ġ15 44
Ġ15 79
Ġ15 48
Ġ15 60
Ġ15 41
ac s
ac us
ac ens
ac res
ac oma
ac zen
ac atecol
Ġse g
Ġse w
Ġse ver
Ġse aw
Ġse als
Ġse ven
Ġse cur
Ġse venth
Ġse ychel
ĠWins low
ort e
ort en
Ġde ane
Ġde vin
Ġde part
Ġde bor
Ġde andre
Ġde xter
ĠHigh land
Ġ13 20
Ġ13 23
Ġ13 03
Ġ13 98
Ġ13 78
Ġ13 40
Ġ13 99
Ġ13 94
Ġ13 80
Ġthe ater
Ġthe oret
ĠK l
ĠK m
ĠK on
ĠK al
ĠK is
ĠK ru
ĠK ane
ĠK ob
ĠK ins
ĠK au
ĠK ram
ĠK ai
ĠK aj
ĠK ari
ĠK ilda
ĠK oper
ĠK Åį
ĠK han
ĠK alam
ĠK irk
ĠK PI
ĠK inder
ĠK uala
ĠK Åįh
ĠK IDS
ĠK oningin
ĠK ilmarnock
ĠK HTM
ass a
ass ee
ass ium
ĠDe L
ĠDe al
ĠDe ity
ĠDe port
ĠDe vin
ĠDe uts
ĠDe fe
ĠDe hli
ĠDe orbit
ru ction
ru ff
ru thers
ru garh
ru ssia
ant i
ant z
ant um
ant own
ant oot
ong an
ong we
ong side
ction ing
ine a
ine as
ine jad
qu ale
qu eline
qu oise
ak ki
ak ita
ak lis
ak azu
ak alÄģ
ak umari
Ġ16 000
Ġ16 14
Ġ16 76
Ġ16 55
Ġ16 32
Ġ16 57
ter ton
ter field
Ġle i
Ġle w
Ġle ar
Ġle igh
Ġle ast
Ġle te
Ġle one
Ġle ht
Ġle na
Ġle ns
Ġle anne
Ġle andro
Ġle ben
Ġle mie
Ġle bed
ĠDire ct
ey an
Ġfor bes
ff er
ff ern
rit h
ĠComp eting
ĠComp rehension
ĠComp etitor
ĠEv an
Ġun ics
Ġun til
Ġun icaja
Ġun clear
own a
Ġy a
Ġy d
Ġy g
Ġy r
Ġy ov
Ġy ok
Ġy ev
Ġy ani
Ġy ao
Ġy ves
Ġy uji
Ġy strad
Ġy zf
Ġy erevan
Ġy ancey
du z
du ced
ĠGold man
ĠGold berg
ess e
ess o
ud in
ud ouin
11 44
20 49
nd i
nd er
nd al
Ġpo pe
Ġpo yth
orm an
ium icino
ans ai
ans ea
land er
ĠEvent ual
ust e
ĠNumber ed
ĠHe wer
ĠHe els
ĠHe lena
ĠHe ikki
ĠHe aling
ĠHe fner
ĠHe wler
ĠCrow ned
ĠCrow ther
Ġ17 50
Ġ17 73
Ġ17 21
Ġ17 98
Ġ17 86
Ġ17 97
Ġ17 83
ang an
ang ay
ang les
ang ah
ang ja
ang pan
ew s
ew are
ew oo
Ġand orra
ĠMar ion
ĠMar ie
ĠMar gar
ĠMar isa
ĠMar lene
ĠMar tha
ĠMar plan
ĠMar celo
ĠMar agin
ĠMar ianarray
av ur
av ia
av ren
av ec
av ody
av ides
12 23
ton e
cy topen
cy anato
ĠEng ines
ug a
ug i
ug o
ug is
ug li
ug uda
ug opal
io les
io cyanato
ph ony
ph alt
ph enson
ph abet
ph ardt
ond ra
Ġno g
Ġno elle
pt or
pt ors
pt rol
ĠReg inald
19 4
19 11
19 12
19 13
19 25
19 72
19 66
19 33
19 67
19 65
19 64
19 85
19 47
19 52
se ed
se ction
se ille
se ctarian
lo a
lo o
lo way
Ġ25 08
Ġmar s
Ġmar v
Ġmar ost
Ġmar lene
Ġmar cell
Ġmar oons
ich t
eb ber
eb ner
atch enko
Ġ22 48
Ġ22 500
13 34
ĠAr on
ĠAr ts
ĠAr te
ĠAr men
ĠAr uba
ĠAr mitage
Ġ24 28
Ġ24 01
Ġ24 48
ik le
ik el
ik te
og o
og t
og ens
og rad
og gia
ĠProdu ced
ost ela
op es
op ol
op ron
Ġ21 71
Ġ21 65
Ġ21 77
ĠLeague Cont
oc ial
oc olate
Ġ23 7
Ġ23 98
Ġ23 37
Ġ23 94
ĠOver view
ĠOver lake
ĠQ i
ĠQ uil
ĠQ tr
ĠQ uez
ĠQ iang
ĠQ adis
ĠQ ingdao
ive ira
ĠPer out
ĠPer fe
oh ue
eng er
Ġro f
Ġro o
Ġro op
Ġro cc
Ġro chd
Ġro okie
Ġro jas
ĠVis ayas
rom bo
ach i
ach im
ach ers
ach ap
ach ute
ach andran
ite ch
ĠSur ya
ĠSur plus
ĠSur uga
Ġla us
Ġla os
Ġla pt
Ġla ird
Ġla ger
Ġla gr
Ġla uer
Ġla chlan
Ġla urier
Ġla uderdale
Ġla uzon
ath ing
Ġ+ +
Ġ30 9
Ġ30 72
Ġ30 87
Ġ30 702
ĠAl i
ĠAl ton
ĠAl vin
ĠAl ston
ĠAl cal
ĠAl so
ĠAl icia
ĠAl geria
ĠAl dershot
ĠAl maty
ĠAl igarh
ĠAl dridge
ĠAl umni
ĠAl phabet
ĠOut back
ĠOut com
Ġ27 8
Ġ27 00
Ġ27 05
Ġ27 46
Ġ27 82
ign e
ign o
ale igh
ell an
Ġto bol
Ġto leman
ĠTh oli
ĠTh rone
ĠTh iel
ĠTh irds
ĠTh iessen
Ġele na
ĠGr oton
te x
te ch
te ga
ier o
ier nan
uit i
uit es
ord a
ord en
ord ini
ord inary
ft a
iss man
16 00
25 9
25 00
ern ia
ern ess
ern liga
Ġgr Ã¼n
Ġgr Ãª
Ġ26 00
Ġ26 92
omin ations
cc i
ase k
Ġ29 8
ĠSh ut
ĠSh ock
ĠSh ots
ĠSh ows
ĠSh aron
ĠSh eep
ĠSh annon
ĠSh awn
ĠSh ÄĽ
ĠSh anghai
ĠSh arp
ĠSh ulman
mber g
aw i
aw k
aw l
aw al
aw ai
aw aka
Ġper i
Ġper pet
Ġper gusa
Ġra k
Ġra ff
Ġra zz
Ġra oul
Ġra ison
Ġra fa
Ġra dom
Ġra hat
Ġra ptors
30 2
30 85
man ager
lish ing
Ġal y
Ġal iz
Ġal co
Ġal aj
Ġal ma
Ġal ta
Ġal ves
Ġal bury
Ġal bers
Ġal onz
Ġal gi
Ġal garve
Ġal zira
Ġal ongside
ĠTop lyn
Ġat co
Ġat kins
Ġat kinson
val le
ont inued
ĠApp le
ĠApp lian
enn es
ors k
Ġ28 3
Ġ28 20
ĠFin eness
Ġsh a
Ġsh an
Ġsh ay
Ġsh ap
Ġsh iz
Ġsh ree
Ġsh rew
Ġsh ipp
Ġsh enz
Ġsh elly
Ġsh aron
Ġsh ares
Ġsh uji
Ġsh unter
Ġsh uttle
Ġsh elley
Ġsh oulder
Ġsh eehan
Ġsh ahar
Ġsh ingo
Ġsh andong
Ġsh ildon
Ġsh abazz
ĠQu ick
ĠQu icken
ĠQu attro
ĠQu entin
ĠQu antum
28 72
ĠEle ct
ĠEle na
Ġar on
Ġar is
Ġar min
Ġar und
Ġar ron
Ġar na
Ġar ctic
Ġar chie
Ġar iane
Ġar menia
Ġar istoph
ons ide
ons hire
ĠRo x
ĠRo pe
ĠRo vers
ĠRo of
ĠRo che
ĠRo chester
ĠRo osev
ith ic
ĠMon ster
eth an
eth ing
eth yl
Ġnov i
ĠUn form
ĠUn known
ĠUn inter
17 73
rd oba
18 94
18 83
ĠDirector ate
Ġor al
Ġor ville
Ġor chestra
Ġor iol
Ġor nith
Ġor ioles
ĠCo les
ĠCo pper
ĠCo cker
ĠCirc us
de v
de cember
de auna
erv ell
per Trans
len nium
ĠCap itol
Ġclass ical
Ġclass ified
ure l
ure ÅŁ
int ree
int osh
int oli
ok er
Ġcar n
Ġcar ry
Ġcar ac
Ġcar ne
Ġcar lin
Ġcar ole
Ġcar ibbean
Ġcar pent
Ġcar ruthers
ix Ã£o
ĠPri or
ĠPri son
ĠPri ority
70 3
anc o
orn o
orn is
Ġth en
Ġth ing
Ġth un
Ġth ial
Ġth orn
Ġth iago
Ġth rashers
Ġth olus
Ġth ilan
Ġth atcher
Ġth yroid
Ġnew ell
Ġnew field
Ġnew found
Ġsp ear
Ġsp ur
Ġsp ence
Ġsp ann
Ġsp lit
Ġsp aces
ob b
ob o
ob u
ob le
ob ar
ob ank
ob ie
ob ran
ĠSp in
ĠSp ar
ĠSp ine
ĠSp urs
ĠSp ender
ĠSp arks
ĠSp read
ĠSp icer
ĠCar ries
ĠCar lock
ĠCar bine
ĠCar ried
ets k
ets ried
Ġleg ends
27 6
27 26
form ula
68 7
68 9
50 8
50 33
Ġfr anÃ§
Ġfr aser
Ġmay a
Ġmay s
Ġmay er
Ġmay otte
Ġmay hem
69 4
69 6
69 9
ĠModel s
ĠRep lic
ĠRep lication
ĠRep ublika
ĠEx am
ĠEx hib
ĠEx plan
tr an
tr anet
ĠArt ies
cot e
ĠInter im
ĠInter face
ĠInter vention
73 2
73 7
AA F
ĠGen Bank
ĠTrans lator
ash ion
ash ire
cent ration
ne a
ne al
ne ill
ne all
72 2
72 3
72 4
72 11
05 8
ke ham
ats ch
ats abod
lic able
lic an
Ġass ist
Ġass emb
Ġad t
Ġad cc
Ġad ler
Ġwon ju
Ġcom ics
Ġcom fort
Ġcom ptrol
24 00
24 86
Ġpro ops
Ġpro cess
Ġpro gressive
Ġ38 11
Ġ38 07
Ġ38 21
Ġ38 099
ax a
ib ank
ib ur
23 2
23 7
att o
att ed
att ers
att endance
att ah
Ġ34 1
Ġ34 9
eg i
eg art
09 1
09 2
09 4
ĠUS C
ĠUS N
ĠUS CA
ĠUS AAF
Ġus mc
Ġ35 1
Ġ35 00
Ġ35 000
Ġ35 93
ĠAv ge
ĠAv ail
ll s
ll in
go ire
Ġjohn stone
ail ing
ail les
gh a
74 3
74 5
74 6
74 9
Ġas l
Ġas ia
Ġas vel
Ġas ics
Ġas ano
Ġas pir
Ġas pel
Ġâ ĺª
ĠLa o
ĠLa uda
ĠLa Mar
ĠLa urier
66 2
66 3
66 6
ator q
iz awa
iz li
iz ares
Ġcap iross
Ġcap ricorn
ev ent
ev ik
ĠNew ell
ĠNew ark
ĠNew castle
que ira
que Ã±o
uth a
uth ier
uth rie
Ġcol t
Ġcol les
Ġcol ony
Ġcol ours
Ġcol omb
Ġcol ogne
FL s
ĠMan hunt
ĠMan thai
ĠMeth yl
04 11
Ġz ack
Ġz ind
Ġz hu
Ġz vez
Ġz heng
Ġz hong
Ġz lat
Ġz older
Ġz vereva
Ġz olot
Ġz etec
Ġz acatecol
Ġz avody
07 5
07 8
07 85
az a
az i
az ak
az oo
az ione
let ion
let own
ins a
ins ula
bert i
bert adores
ĠAth eism
ĠMethod ist
ĠFor et
ĠFor um
ĠFor get
ĠFor fe
ĠFor ename
co x
der ick
ĠNick y
ĠNick erie
urr ing
ex act
ex uality
Ġi ed
Ġi rish
Ġi Phone
Ġi gea
Ġgre ch
Ġgre aves
Ġgre lla
49 0
49 3
Ġbr s
Ġbr an
Ġbr ay
Ġbr und
Ġbr ink
Ġbr ampton
Ġbr ands
33 6
33 9
75 1
75 2
75 3
erm a
erm aritz
ike fjord
Ġaugust o
ĠAn y
ĠAn and
ĠAn other
ĠAn alysis
ĠAn astasia
ĠAn atoly
Ġman x
Ġman ning
Ġman ly
Ġman alo
Ġqu in
Ġqu amb
Ġnorth field
Ġnorth wich
ĠStage manager
Ġam c
Ġam g
Ġam s
Ġam on
Ġam al
Ġam it
Ġam sterdam
Ġam bros
Ġam enem
Ġam anmu
Ġge o
Ġ100 00
lin da
Ġu v
Ġu ber
Ġu ip
Ġu we
Ã© r
Ã© ment
Ã© cy
Ã© mon
Ã© rie
Ã© lez
Ã© nez
Ã© otron
Ġ[ #
Ġ[ [[|
Ã¡ b
Ã¡ z
Ã¡ in
Ã¡ ns
Ã¡ Å¡
Ã¡ Åĭ
Ġpri est
Ġpri mi
Ġpri met
Ġpri viv
Ġpri mor
67 6
67 9
ĠOff enses
ram i
34 2
34 4
34 8
34 00
ai jan
Ġwest port
Ġwest pac
ĠChar leston
ĠChar iot
Ġcon ner
Ġcon voy
Ġcon iston
Ġcon stant
Ġcon flict
Ġcon klin
Ġcon seco
Ġcon centration
35 7
35 8
35 00
35 46
ham ra
ham mer
ham mad
ki ri
Ġph illips
Ġ40 362
ĠOpen GL
mp el
ps y
ps ip
Ġco imb
Ġco ppa
Ġ33 8
Ġ33 14
Ġ33 84
lor stown
Ġrun yan
64 04
inc up
any an
any ol
aj un
aj ima
Ġ45 2
Ġ45 5
Ġ54 7
Ġ54 8
Ġ54 18
Ġmc p
Ġmc mill
Ġmc nam
Ġmc donald
Ġmc neil
Ġmc alpine
Ġmc lachlan
ĠEar ned
03 8
03 9
yd d
yd on
95 2
95 7
95 8
95 9
Ġrich ter
Ġrich ards
ĠJo y
ĠJo anna
ĠJo aqu
Ġeng a
Ġeng al
Ġeng agement
mm equ
98 05
ĠMed iator
Ġ36 0
Ġ36 1
Ġ36 3
Ġ36 72
Ġ44 5
ĠGrand e
44 1
44 5
44 6
44 23
44 406
Ġ50 1
ĠScor pions
ari at
Ġrank s
sh in
sh ane
sh ina
sh ore
sh irt
sh Ã¬
Ġq c
Ġq i
Ġq in
Ġq Å«
Ġq mjhl
Ġq atar
Ġ39 4
Ġ39 7
Ġ39 00
Ġind ore
Ġind icative
illiam s
38 7
DP I
Ġbar n
Ġbar ack
Ġbar ron
Ġbar rac
Ġbar bers
Ġbar wa
Ġbar cell
Ġbar rios
Ġbar angay
ĠPerform ing
ĠPerform ances
ales e
Ġed en
Ġed ge
Ġed son
ĠJohn stone
ren heit
els ki
ford e
lim ited
ĠMc Int
Ġ48 0
Ġ48 1
Ġ48 2
Ġ48 3
Ġ48 4
Ġ68 0
Ġoff y
Ġoff ense
Ġoff aly
ĠComm une
ĠComm anding
ĠComm odity
ĠComm esso
uck erman
als ki
oy ne
Ġon line
Ġon pointer
ĠOw ens
ĠOw ns
Ġ49 0
Ġ49 3
org ente
org arh
Ġapp licable
eak house
ĠAg ency
ĠAg ustin
45 3
45 8
45 00
Ġmin i
Ġmin ab
Ġmin ing
Ġmin ero
Ġmin ority
Ġmin yip
Ġmin isters
Ġnot ts
76 2
76 35
ĠZ ap
ĠZ ares
ĠZ abel
ĠZ hu
ĠZ irbel
ĠZ aza
ĠZ uckerman
Ġsu pp
Ġsu cceeded
Ġsu icide
ĠHost ess
ĠBar n
ĠBar ons
ĠBar ney
ec utive
ater inburg
ĠDay e
ĠDay time
ael ic
Ġx l
Ġx u
Ġx x
Ġx in
Ġx ing
Ġx et
Ġx yl
Ġx enia
Ġx aus
Ġx hosa
ino les
ĠDis k
ĠDis ease
its a
its ky
84 3
84 6
84 7
ĠMen ard
Ġ46 0
Ġ46 1
ĠBy ron
ĠBy rne
55 5
ka idÅį
oth o
ĠHead stamp
39 1
39 7
39 9
39 34
ied a
ĠSing h
ĠThe y
Ġgu aran
Ġgu idi
Ġgu atemala
Ġgu intoli
ĠSw itch
ĠSw eet
ĠAd ri
ĠAd rian
ĠAd mir
ĠAd verbial
Ġ55 3
rad o
rad ova
CA N
af a
af in
af ila
af ico
af sson
af jord
af ogo
Ġcount ies
Ġcarl sen
ĠAuthor izing
ana e
Ġmon o
Ġpr att
Ġpr inz
Ġpr zezn
Ġbe em
Ġbe ck
Ġbe autiful
Ġbe verly
ett o
ett an
ett ing
ett ino
ox es
Ġol ga
Ġol iveira
ough lin
part y
uss is
ĠGre ensboro
ĠGre goire
ĠEd berg
ĠEd iting
ĠSu k
ĠSu kovÃ¡
ĠSu Ã¡rez
ĠCurrent ly
ĠOr son
ĠOr kut
ĠOr tega
Ġex a
Ġex tra
Ġex cel
Ġex hibition
Ġex mouth
ĠPar ity
ĠPar ma
ĠPar chment
ĠPar achute
Ġsan ctuary
Ġsan remo
78 3
78 6
78 9
ĠSouth western
Ġcomp act
Ġcomp ression
Ġcomp ilation
Ġcomp arison
Ġcomp letion
yl us
yl ov
ĠMas erati
Ġsl ough
Ġsl utskaya
ĠDav ies
ĠDav ina
ĠDav ao
Ġscor pions
Ġme an
Ġme et
Ġme ans
Ġme che
Ġme eting
Ġme ikle
Ġchar leston
89 7
ve Å¡
ĠGe omet
ĠGe phardt
Ġhe j
Ġhe in
Ġhe ights
Ġhe lena
Ġhe aley
Ġhe pburn
Ġhe ffern
ha ÊĶ
red uced
ĠTor re
ĠTor rent
Ġpre is
Ġpre mi
Ġpre ston
Ġpre mult
tra k
ald a
Ġsw iss
Ġsw eep
Ġsw allow
2000 4
Ġpart on
Ġpart ido
Ġgame cube
48 3
ij k
ij ssen
Ġab e
Ġab u
Ġab br
Ġab ueva
Ġab bott
Ġab surd
Ġab erdeen
ĠVal ves
ĠVal kov
59 2
59 6
Ġcor si
Ġcor nwall
Ġcor vette
ĠSem idoubles
ĠPh i
ĠPh arm
ĠPh ilipp
ara igosa
ars a
ars o
ars ki
ars uguda
ĠMay lands
Ġcoll ard
Ġcoll ars
ĠJune au
ĠAll ou
Ġan as
Ġan hui
Ġan imania
Ġan agennis
ĠField house
ĠLap ua
ĠTerm inus
Ġsc g
Ġsc ri
Ġsc rew
Ġsc ience
Ġsc anlon
Ġwh ale
Ġwh itley
Ġwh incup
ati ya
ĠAlbum s
US HS
Ġtor o
Ġtor ey
Ġtor rance
Ġgoal ie
Ġgoal kicker
Ġrichmond shire
Ġposition al
62 68
88 2
88 3
áĥ Ŀáĥ
Ġtom lin
ĠWest ly
ĠWest field
ĠWest brook
ĠWest pac
ĠWest cott
ĠRoll ing
ĠMe ade
ĠMe era
ĠMe iy
ĠMe ighan
arter ed
me j
me ka
Ġval ues
Ġval ves
Ġval dez
Ġval uair
ĠSk in
ĠSk ib
ĠSk inner
amb i
Ġpl ates
Ġpl ata
Ġpl anes
Ġpl ovd
ung a
ĠCont emporary
ĠCont ested
Ġ58 0
Ġ58 2
58 0
58 3
ili iga
Ġ60 501
Ġdef unct
fl ow
ĠOb verse
ĠOb amac
Ġinter face
Ġinter laced
Ġinter mediate
Ġinter nacional
Ġrep airs
yst er
Ġel le
Ġel on
Ġel len
Ġel mer
Ġel ke
Ġel sthorpe
Ġess ex
Ġhard court
ĠÐ ²
ĠÐ ĳ
ĠÐ ŀ
ĠÐ ¤Ñĥ
ĠÐ ¿Ðµ
ĠPoll utant
ĠBe es
ĠBe ers
ĠBe au
ĠBe ht
ĠBe aub
ĠBe eson
ĠBe verly
ĠBe kele
96 1
ano phil
ĠTy ner
Ġ65 1
Ġis n
Ġis aac
Ġis erlo
Ġsub iaco
Ġsub nets
Ġbu c
Ġbu ell
Ġbu che
Ġbu chan
Ġbu tter
Ġbu isson
Ġbel k
Ġbel lett
Ġbel fast
Ġbel vieu
Ġbel shina
94 7
ush in
ger t
ger y
ger boards
lot t
Ġcl p
Ġcl one
Ġcl osed
Ġcl utch
Ġpat ton
ĠEst es
ĠStar ion
ĠStar nes
ĠStar ling
Ġjun ie
Ġjun queira
ĠGeneral s
Ġend s
Ġappoint ed
ng u
ĠWh alers
ĠWh yte
ĠFr Ã©dÃ©
ĠAnd ers
ĠAnd reas
ĠAnd retti
Ġcent ro
Ġcent enario
Ġcent erville
Ġ64 3
ĠIHS A
ĠInd y
ĠInd ians
ĠInd icia
oo o
ĠFL X
ĠIs ao
ĠIs lam
ĠIs ospin
ĠLeft fielder
iro v
onn i
Ġbill abong
Ġdes par
Ġdes igner
Ġfin n
Ġfin ch
Ġjo est
Ġjo ey
Ġjo ining
Ġjo anne
Ġjo akim
br and
pm ann
80 5033
Ġmil os
Ġmil ton
Ġmil ano
Ġpaul ine
Ġpaul istano
Ġ59 3
Ġjim mie
Ġdavid son
54 1
54 2
54 00
Ġ75 3
Ġred den
Ġred emption
Ġred shirt
hold s
ma ak
ĠMax xForce
Ġ56 1
uc ia
Ġhigh lands
Ġmark ets
Ġmark eta
ĠOffic ers
bor os
gar eth
mon th
ÃŃ fa
Ġest es
Ġest ablish
Ġest evan
Ġest Ã¡d
ĠPres eason
ĠPres idency
ĠPres ervation
ĠBow led
Ġwestern s
56 1
56 3
aff ey
aff iliation
ron ome
ĠSub continent
Ġà ²ī
ĠLand rie
Ġbob cats
cl osing
cl utha
Ġcd zap
ht ar
pl ank
Ġall ison
Ġall iance
ĠPat ten
ĠPat man
ĠSer ver
ĠSer vers
ĠSer bo
ĠSer bia
ĠAb ate
ĠAb road
ĠAb ility
ĠAb ove
ĠAb bre
ĠAb sor
ĠLi qin
Ġspe ci
Ġspe akers
Ġmont ichi
ĠRev ised
Ġloc oten
con i
con o
con orte
ĠSan ath
ĠSan ctioning
ĠMiss ions
Ġmart ial
Ġmart inez
Ġmag ny
Ġmag alh
Ġmag gert
use k
ĠX D
ĠX E
ĠX X
ĠX II
ĠX uer
ĠX LE
ĠX eon
ĠX enon
ĠWeb b
ĠWeb ber
ĠWeb ster
ĠPort a
ĠRock enfeller
eh r
eh un
eh usk
eh dat
gr unn
Ġem anuel
Ġem cg
Ġem irates
Ġem ilio
Ġem elec
Ġem bassy
Ġart e
Ġart icle
Ġart illery
ĠHor ner
ĠHor ford
ĠHor ror
Ġgen k
ĠSte p
ĠSte phanie
ĠSte emans
ĠSte phenson
Ġatl Ã¨
51 20
ny i
ny der
ny Ä«n
oul idis
Ġport e
Ġport o
Ġport as
Ġport age
Ġport ales
Ġchrist y
ĠElector al
ĠRom ance
Ġsch w
Ġsch en
Ġsch ra
Ġsch lier
Ġsch effers
Ġmas uri
ĠEl on
ĠEl les
ĠEl sen
ĠEl mers
ĠEl izabeth
Ġgreen ock
Ġfriend ship
Ã¶ llin
Ġtrans car
Ġtrans literation
ĠPanel ists
ĠVol kov
ĠVol vo
ĠVol antes
Ġwal k
Ġwal ton
Ġwal chuk
ado es
ĠPlat a
va al
ĠSuper liga
ĠSuper ettan
Ġwar p
Ġwar road
Ġwar rack
Ġwar fare
Ġhar per
Ġhar ada
Ġhar vey
Ġhar rogate
ĠÃ ĺ
ĠÃ ŀ
ĠSc ania
ĠSc ien
ĠSc enes
ĠSc anner
ĠSc imit
ĠSc anning
Ġtra cy
Ġtra vers
Ġtra ining
Ġtra cks
Ġmot ion
Ġmot oyama
Ġbl ount
Ġbl anca
Ġben e
Ġben z
Ġben ito
Ġben jamin
Ġben etton
ĠRec urring
Ġ78 00
Ġeast wood
ĠRoad s
ĠMcC ul
Ġolymp iques
Ġolymp ique
Ã³ l
Ã³ vil
Ã³ bili
Ã³ dÅ
Ã³ rdoba
ãģ ¡
ãģ §
ãģ ²ãģ¨
ãģ ĽãģĦãģ
ĠVac cine
Ġkn ow
Ġkn oxville
lement ation
ĠDraft ed
ĠMil ano
Ġwins low
Ġmcg ill
Ġmcg ourty
of oe
ty re
Ð¾ Ñĺ
Ġ. ..
ask ill
che k
Ġdec ima
ae i
ae us
Ġant lers
Ġant alya
ĠSun West
ĠAc ronym
Ġmus cat
Ġmus kete
Ġpol it
Ġpol ic
Ġpol ish
Ġden otes
Ġfl own
Ġfl uctus
Ġfl uminense
Ġact ivity
ga ard
Ð° ÑĨ
Ġen rollment
Ġen rique
Ġen vironment
Ġen rico
Ġcont inent
Ġcont igo
Ġmor ales
Ġmor rison
Ġmor aga
Ġmor rins
Ġbru guera
Ġbru chak
Ġalex andr
Ġev ents
Åį u
Åį ng
à® ±
à® ļà®®
à® Łà®®
ĠSol ution
ĠSol ih
ĠSol idat
ĠCl ippers
ĠCl ifford
unt a
Ġstart up
ows ka
ĠCapital s
ĠTrain ing
ker que
za ÅĤ
Ġri m
Ġri x
Ġri z
Ġri als
Ġann iversary
Ġtr z
Ġtr ab
Ġtr ina
Ġtr oubles
Ġtr anne
Ġtr entino
Ġtr anmere
Ġtr Ã©cy
ata irdate
Ġcal cul
ĠEast on
Ġnick y
Ġnick el
Ġag ric
Ġag uri
Ġry u
Ġry der
Ġry ota
Ġry croft
Ġry tas
erb ach
erb aij
ĠMal a
ĠMal one
ĠMal ins
ĠMal colm
ĠLar ge
Ġcle m
Ġcle ar
Ġfre eware
Ġer icksen
Ġath erton
Ġath anass
Ġath elstone
ĠWater loo
ĠNat asha
Ġsa pp
Ġsa unders
Ġsa udi
Ġsun bury
Ġdal y
Ġav anzza
Ġav usrennen
Ġav onside
ĠIt aip
Ġgra f
Ġgra ce
Ġgra ffen
Ġglen car
ĠUp date
ĠUp dated
Ġshare point
be ck
be autiful
get te
Ġå ¥
Ġå ®
Ġå ´
Ġå į
Ġå Ĳ
Ġå ľ
Ġå Ń
Ġå ±±
Ġå ¤ª
Ġå ¯¦æĥħ
Ġå Ľ½
Ġrid den
Ġdel ivery
Ġdel isted
Ġdel usion
Ġwat aru
ĠEnter asys
Ġchannel s
final ists
à´ Ļ
Ġes k
Ġim port
Ġim ola
Ġim elda
ĠAm it
ĠAm man
ĠAm sterdam
ĠAm trak
Ġmad hya
Ġmich elle
ira ud
Ġac id
Ġac adem
Ġac celer
ĠDevel oped
iet y
we iser
ys zaÅĤ
Ġæ Ħ
Ġæ Ī
Ġæ ĸ
Ġæ ĥħ
Ġæ ŀĹ
Ġæ ¢ģ
ĠGT U
ĠGar ry
Ġma eda
Ġma hela
Ġma ikel
Ġdu tt
Ġdu ong
Ġdu val
Ġfe i
Ġfe at
Ġfe jzi
Ġnor isring
Ġwood y
Ġwood burn
Ġwood ruff
Ġfrank ie
AR C
men igge
rs a
rs field
ĠTD s
ĠRober to
ĠGain es
Ġpe kin
Ġpe eters
Ġpan ionios
olf o
Ġbra ce
Ġbra ge
Ġbra ke
ĠVilla ges
Ġ88 69
Ġadmin istrative
SI X
ms ditch
ĠFl int
ĠFl ush
ĠFl uctus
Ġpal Ã©
Ġpal ma
Ġpal mas
Ġpal acio
Ġlu aka
St ories
ĠSch n
ĠSch arp
ĠFour somes
ĠFall on
ĠAf insa
ĠCor onie
Ġche ese
Ġche ca
Ġche uen
Ġche bet
Ġche adle
Ġche ylov
Ġmer id
Ġfield house
Ġgar age
Ġgar ib
Ġgar min
Ġgar cia
Ġfred lund
fe el
ns ley
ĠFoot scray
enz i
enz auer
enz etti
ĠTom ita
ĠRich er
ĠRich ards
Ġsim ple
last s
Ġbre l
Ġbre y
Ġbre mond
Ġbre athing
Ġback stroke
Ġback strom
ĠBlack well
ĠBlack hawks
Ġne j
Ġne ath
Ġne vers
Ġne ots
Ġne utral
ĠJud aism
Ġkar ine
Ġkar nat
Ġkar anvir
ĠProf essional
Ġreg n
Ġreg ions
Ġreg ister
Ġreg istered
Ġreg ional
Ġreg atta
Ġreg gina
lov ic
ĠCle ve
ĠTon ne
rag on
Ġhost ile
sk ogens
Ġiv ey
ĠDen is
ĠDen ominations
ĠDen izli
ĠRed line
ĠRed istrict
ĠMake up
Ġcos ma
Ġpet ra
ĠBel t
ĠBel fast
Ġvan wall
Ġret ief
Ġret ention
ãĥ ³
ãĥ ŀ
ãĥ ĴãĤ«
Ġir ene
Ġir ving
Ġir yna
Ġir aklis
ĠSim ister
Ġtim o
Ġtim ing
Ġtim etable
ĠPaul i
ĠLouis ville
lah assee
ĠGra f
ĠGra ham
ĠBall an
Ġover ton
Ġover ground
Ġover night
Ġover eem
Ġray croft
Ġrock ingham
Ġrock star
ather by
ĠExp laining
Ġspeed rome
Ġspeed run
AM A
In vent
In duced
li ari
li atti
ĠAustralian s
Ġ(Â ¥)
Ġshe a
Ġshe et
lad y
Ġcred entials
Ġmy re
Ġmy Dee
Ġmax ine
ears chool
Ġgian t
Ġhen man
Ġhen ke
Ġloss es
ĠComb est
ĠKick s
AL F
Ðµ ÑĢ
Ðµ ÑĤ
ĠDown town
Ġcons ultant
ĠEqu ivalence
Ġdon ington
Ġdon etsk
ĠBo at
ĠBo yd
ĠBo iler
ĠBle nd
ĠBas que
emb a
ĠJack y
Ġke ke
ific ent
loy ed
aug a
vent ure
Ġver t
Ġver izon
Ġver maak
Ġver plank
Ġsam ir
Ġsam oa
Ġsam arawe
ĠGu o
ĠGu anay
ĠGu errero
cha eris
Ġho an
Ġho ag
Ġho ak
Ġho osier
Ġjan ine
à¤ ®
à¤ ·
à¤ Ĥ
à¤ ķ
à¤ Ľ
Ġtv mk
ĠPet es
ĠPet ers
ĠPet erson
ĠPet rik
ĠLine backer
Ġmal ay
Ġmal ik
Ġdown stream
Ġdown hill
Ġdown town
ĠChrist mas
head s
Ġdev il
Ġdev lin
Ġdev itt
Ġdev icenzo
arn ica
ĠDon ington
ĠDon nera
ĠRad on
ĠMass a
cel os
Ġmi y
Ġmi riam
Ġdan ish
Ġdan iele
Ġdie gel
ĠBack stroke
ador ai
Ġje anne
Ġje lena
Ġje olla
Ġje ppesen
ĠHeadqu artered
Ġmartin ello
fm ann
ras bourg
ras adji
Ġtri o
Ġtri este
anch i
ĠPe eters
ĠRel ated
ĠMet as
ĠMart inez
Ġsant ana
Ġsant ander
Ġcas agrande
Ġcas ablanca
ĠHar vey
ĠHar monic
ĠHar Ã°ardÃ³ttir
Ġbo ar
Ġbo is
Ġbo ok
Ġbo ise
Ġwil cox
Ġweek es
sson i
Ġha ute
Ġha arhuis
Ġju les
ĠKn own
ĠKn ows
Ġroad ster
ĠâĢĶ âĢĶ
Ġang elis
Ġang aston
Ġang lican
Ġtur vey
ĠFound er
ĠMa usole
Ġsand on
Ġsand ra
Ġsand ers
Ġsand erson
Ġsand piper
Ġpres byterian
Ġny ah
ĠVeh lefanz
Ġap es
Ġap oll
Ġaut omotive
ĠBrand s
ĠDeb ris
ĠDeb bie
ĠDef ense
ĠDef ending
ĠDef ective
ĠMarri ages
Ġlaw s
Ġlaw ley
ĠThomas berg
oph ie
oph ilia
ran as
ĠÎ µ
ĠÎ ļ
Ġent ities
ĠTur key
ĠTur quoise
ĠLy on
Ġsur f
Ġcb on
Ġcb li
ĠOct ane
Ġmac ph
Ġmac far
Ġmac neall
Ġmcc askill
ĠBig gest
ĠBig gend
Ġjeff reys
Ġli bertadores
ĠJeff erson
ĠJeff rey
ĠKe pt
ĠKe iron
Ġrob ot
Ġrob by
Ġrob bins
bre gas
gy zstan
yr ate
à¦ ¤
à¦ ¨
à¦ ®
à¦ ¼
ãĤ ¤
ãĤ º
ãĤ ¿
ãĤ Ĭ
ãĤ µãĤ
Ġay an
Ġay ala
Ġay lesbury
ĠSa ult
ĠWe apons
ĠWe atherby
anish en
ĠTar iff
Ġdis play
Ġdis cs
Ġdis cus
Ġdis gu
Ġdis band
Ġdis affiliation
Ġgain sborough
Ġ86 136
Ġreport ed
Ġreport ing
Ġyam am
Ġrod in
Ġrod ney
Ġrod ger
Ġrod gers
Ġrad ford
rish nan
Ġmotors hip
sp ring
sp earschool
à¸ ²
à¸ ¤à¸
ĠSack ed
Ġter ri
Ġter re
Ġter rier
Ġter rain
Ġter rell
Ġter esa
ĠCross ing
ĠMag ic
ĠMag lia
ĠMag jist
Ġcast ell
Ġmat lock
Ġmel ton
Ġmel ville
Ġmel fi
Ġmel rose
Ġmel andri
Ġmap iu
ret ani
ĠEmp ire
Ġwork ing
Ġvilla in
ĠEnt ry
ĠEnt ities
Ġatt empt
ĠQuarter back
Ġgeneral s
Äģ t
Äģ y
à² °
Ġtak ers
Ġtak esh
Ġtak atÅį
Ġsport if
Ġbrad y
Ġbrad man
ĠBen edict
ĠBor is
ĠBor ac
Ġjul ia
Ġjul ian
Ġjul io
Ġjac que
Ġjac queline
Ġlo pez
ĠKar pov
ĠKar thik
ĠRoy als
Ã¼r k
Ar c
hl an
kov sk
xx T
xx QM
Ġup s
ĠST S
Ġte o
Ġte en
Ġtal lahassee
Ġtro is
Ġtro jans
ĠWal bom
ĠPen insula
ĠTechn ological
Ġmatt a
Ġmatt ers
Ġmatt ia
Ġmatt ias
Ġdam ien
Ġdam iano
Ġdick s
Ġdick ens
Ġdick son
Ġjer ome
Ġly ne
Ġly oto
ĠCommun ications
ĠAdmin istration
SP AN
iy ah
Ã± ero
ÑĢ Ð¸
ÑĢ Ð¾Ð²Ð¾
ÑĢ Ð½Ð¸
Ġriver side
Ġriver city
Ġriver front
ĠSy al
ĠSy mmons
Ġts eng
Ġts uk
ĠAlex is
ĠAlex andra
ĠCost a
ĠCost as
ĠCost ume
ĠCost anera
ĠDet ailed
ĠDet riment
Ġsen ate
Ġsal ary
Ġsal azar
Ġda ewoo
Ġdar ts
Ġdar by
Ġdar win
Ġdar lington
Ġdar ryl
Ġhy un
Ġhy de
Ġhol t
Ġlin ton
Ġlin eth
Ġlin de
Ġlin ks
Ġlin na
Ġlin dsey
ĠInv itational
Ġeuro pa
Ġeuro league
Ġros ier
Ġros ales
Ġros berg
Ġros ario
Ġthromb us
ho pe
ho ek
hp b
par ov
Äį iÄĩ
Äį iji
Äį ej
Ġeth er
Ġeth iopia
ĠSab eeth
ĠWil der
ĠWil ander
ĠWil hel
ĠWil frid
ato ok
ĠTri bun
ĠDo obie
ĠMor ning
ĠMor occo
Ġmost ly
Ġps i
Ġps v
Ġpass ing
Ġpass ions
Ġpass aic
ĠEr upt
Ġweb ser
Ġger etsried
Ġinv aders
Ġvol Ã©ro
Ġandrew s
Ġphil ip
ĠUnder card
AC s
FS E
cu le
oz o
pin arello
uy o
uy un
uy Åįbi
ÅĤ oÅĽ
ĠTim o
ĠTim othy
ĠLu cy
ĠNC HC
Ġcy ber
Ġmet auro
Ġdi atchenko
chen ko
chen jung
Ġacc ount
Ġline age
heim er
Ġcommun ications
Ġexp ires
Ġmagn ificent
Ð¾Ð ±
Ġlength s
ĠÉ ¨
ĠÉ Ķ
Ġ00 5
Ġ00 8
Ġ00 9103
ĠWar ner
ĠFire box
ĠDr atch
ĠDr Ã©
ĠDr ÃŃfa
ĠMac on
ĠMac row
Ġmov ements
Ġmov istar
Ġpi etro
Ġpi erson
Ġpi quet
Ġpi otti
Ġpi ovese
Ġpi Ã±ero
Ġbor chardt
Ġbank s
Ġbank ing
Ġbank north
Ġbud oni
Ġbud weiser
ĠBra kes
ĠBra xton
Ġher on
Ġher cules
Ġher itage
ĠShoot s
ĠDisc ussion
ĠDisc ontinued
Ġur b
Ġur uguay
Ġtou lo
ĠFar r
ĠFar es
ĠFar go
ĠFar iba
ĠFar entino
ĠAud io
ĠCamp os
ĠDVD s
ĠNot re
ĠNot ation
Ġsi ena
Ġsi rio
ici ent
ici ary
ici Ã³n
ĠGo es
ĠGo ats
Ġcamp ing
Ġcamp os
Ġcamp erdown
Ġmid west
Ġmid fielder
Ġbur k
Ġbur bank
Ġfar row
Ġfar rell
ĠRece ption
Ġlor i
Ġlor en
Ġlor is
ĠJun hong
Ġrem oval
ĠAlbert a
ĠAlbert ina
ĠRob bins
ĠRob bery
Ġsuccess ion
ĠRoman ian
ĠRoman ized
ĠRoman Ã©e
ON AR
aut ii
sy bw
ĠMy ers
ĠMod ule
ĠMod erate
Ġsm art
rik adze
Ġpav v
Ġpav ol
Ġpav lovic
Ġbrook ville
Ġbrook vale
ĠBud h
ĠBud ha
ĠBud dy
Ġko oga
Ġko ever
Ġrel igions
ĠArab idopsis
ĠAltern ante
600 4
mar ie
Ã§ a
Ã§ ay
Ġash ita
Ġtar ga
Ġtar ango
Ġtel mo
ĠWor cester
ĠWood bridge
ĠAC P
ĠAC GS
ĠLaw rance
Ġsy ria
Ġsab in
Ġsab ha
Ġsuper brawl
ĠOl ivier
ĠOccup ied
Ġbal clutha
Ġbol in
Ġbol ivia
Ġbus an
Ġbus ch
Ġbus iness
ĠEdu ardo
Ġdf x
ĠBank head
Ġflo or
Ġflo ors
Ġjoseph s
Ġvel jko
Ġvel abro
Ġvik toria
Ġrub y
Ġrub robacter
Ġ135 98
ĠKing dome
ĠKing fisher
ĠSpr ings
ĠAndrew s
ĠLibert ad
ĠLibert ies
gen y
lar ge
Ã¨ ge
Ðº Ñģ
Ðº Ñĸ
ÑĤ Ð¾Ð³
Ġet c
Ġet alk
Ġet ienne
Ġut c
Ġut ilities
ĠSat terfield
ĠSlov ene
ĠSlov akia
Ġtw enty
ĠAuth entication
ĠTe en
ĠTe Be
ĠTe quila
ĠTe achers
ĠRa fer
ĠNord in
Ġsource code
Ġcla ude
Ġcla usen
ĠBu yrate
Ġfem mes
Ġnorm s
Ġru les
Ġren Ã©
Ġren ova
Ġren ato
Ġren omination
Ġren ewable
Ġstud io
ĠProb lem
ĠKenn eth
Ġgree ley
Ġsimon celli
806 16
806 18
806 09
806 3200
bell ied
ci ennes
num a
Ġit f
Ġit v
Ġear l
Ġear le
Ġot ter
Ġty son
Ġty rol
ĠWill ie
ĠWill ow
ĠAut o
ĠCr icket
ĠDar ts
ĠDomin ic
ĠRid ge
ĠLind ley
ĠLind enwood
ĠNT IS
ĠNT SC
Ġsol o
ĠHo les
ĠHo op
ĠHol ly
ĠHol mes
ĠHot el
ĠHot chkiss
Ġmand y
Ġmck ey
Ġmck enzie
Ġpub lished
Ġbla ine
Ġbla ke
elf rank
elf ingen
Ġfort une
Ġnak amura
Ġnak ajima
ĠIm perative
Ġhung arian
Ġjos ie
Ġjud d
Ġjud ith
Ġkings ley
Ġequ ity
Ġequ iv
Ġrec lassification
CS T
EP R
col ithic
Ġou tside
ĠSal ma
Ġta q
ĠPan ther
ĠTr ue
ĠTr ance
ĠTr ine
ĠTr inidad
ĠMat rix
Ġso ares
Ġsilver stone
ĠGal vez
Ġcan al
Ġcan berra
Ġcro ck
Ġcro ydon
Ġpa ise
Ġpa quet
Ġpa ixÃ£o
ĠBlo g
ĠBlo od
ĠBlo gs
Ġgil berto
ĠStates men
Ġhay ley
ĠQue en
ĠQue chua
à¥ ģ
à¥ ĥ
Ġid rot
Ġold smobile
ĠSP R
Ġtelev end
ĠFed Ex
ĠCla pham
ĠPR K
alph abet
ĠDu o
ĠMid west
ĠMont a
ĠMont ana
ĠMont gom
Ġsold ier
lag os
Ġcart ier
Ġcart ello
ĠHaw aii
Ġmain e
Ġmain z
Ġba ier
Ġba udouin
Ġba fta
Ġbas in
Ġbul lock
Ġdo ors
ĠBul ldogs
ĠBus bey
ĠRem ington
ĠRem aining
ĠRest ing
Ġni Äįiji
Ġaaa a
Ġaaa aa
Ġwy combe
ĠImp ounded
ĠImp lementation
Ġgt i
Ġhale y
Ġhale akalÄģ
Ġven kates
Ġven geance
Ġvalen ciennes
Ġlb f
ĠChap el
ĠJul ian
Ġrest less
Ġrest ricted
ĠDev ices
oba Ã§a
Ġenerg ie
)/ (
Ch osong
do ctor
gu ay
oj ÃŃ
Ð» Ð°
Ð» Ð¾Ð²
ÑĮ Ñģ
Ġç Ľ
Ġtour enwagen
ĠFore ver
ĠTig rin
ĠTurn s
ĠTurn bull
ĠRen Ã©
ĠMer cer
ĠMer edith
ĠMer conorte
stra ÃŁe
oud et
oud emire
Ġsar gent
Ġsar onni
Ġcam ille
Ġcam eron
Ġcub an
Ġcub ic
Ġcost s
ĠHay es
ĠHay den
Ġpas adena
Ġpas quale
Ġbart lett
ĠET H
ĠEm ilia
ĠEll iott
ĠBR A
Ġflor ian
Ġflor io
Ġflor Ã¸
chan ical
Ġoper ational
Ġaz ul
Ġaz erbaij
Ġwater house
rav ar
Ġhong chaw
Ġvill anueva
Ġlight ning
Ġlight weight
Ġku erten
agu ete
ĠUt ica
ĠProcess ors
Ġsep ang
ĠKil rea
ĠKil gore
ĠUSA F
ĠâĨ ĳ
Ġbarb ados
Ġbarb agallo
Ġclar ence
ĠUndec lined
Ġesp anyol
app a
mund o
wis ata
Ñģ ÑĤ
Ñģ ÐºÐ¸
Ġè ¾
Ġè ĺĩæ°
Ġé ĿĴæµ·
Ġles ley
Ġles lie
Ġles otho
ĠAU X
inz ani
ĠCP C
ĠRh od
ĠRh ine
ĠRh onda
ĠRain a
ĠRain s
Ġsn p
Ġsn ow
Ġcur se
Ġcur ved
ĠHam mond
Ġmir za
Ġmod ena
Ġmah ia
Ġmah one
Ġmah araj
Ġmah jong
Ġmah arashtra
Ġmah affey
Ġbang alore
Ġdin ar
ĠBa ia
ĠBa oru
ĠBay ot
ĠBay onet
ĠBay ernliga
Ġfle isher
Ġwol lek
Ġgri msditch
Ġgas ol
Ġlock s
Ġlock hart
Ġlyn x
Ġep cor
Ġep ik
Ġrev enue
Ġrev olving
ĠKen enisa
ocal ypst
Ġlas ker
Ġalb ania
Ġalf onse
Ġarm ada
ĠSports person
Ġreserv ation
ĠXI V
Ġliberal ism
hol land
Å¾ uf
Ġrow ed
Ġáĥ ª
Ġáĥ £áĥ
Ġáĥ ŀáĥĲáĥ
ĠWy ka
ĠWy keham
ĠFI FA
ĠFI FTH
ĠPak istani
ĠDur and
ĠDur onto
ĠRet urning
ĠLiter ary
ĠLetter er
ĠNO SA
Ġsoc ial
Ġsoc ialist
Ġsoc iety
Ġserg i
Ġserg iy
Ġmf inder
Ġmitch el
Ġbreak down
Ġbreak through
Ġdomin ic
Ġdomin ican
Ġfab i
Ġfab rice
Ġfra zier
ĠVo ith
Ġwhe at
Ġwhe els
ĠIP A
ĠIP EA
Ġgood year
Ġhal ard
Ġhal mstad
Ġhal lescher
Ġhur st
Ġjoh anna
Ġlow ry
Ġlow ood
usk aya
Ġunder going
Ġunder water
ĠArg onauts
ĠExt ension
ĠExt reme
ĠSchedu led
bl r
bl om
ĠSix pence
ĠCred it
ĠCred ited
ĠCred ibility
ĠCouncil ors
ĠDem et
ĠMi B
ĠMi ÅĤoÅĽ
ĠMo ines
Ġsil vio
Ġcav alcante
ĠOtt oman
Ġmu ay
Ġmu hammad
Ġmale k
Ġpent ru
Ġpent athlon
Ġply mouth
Ġball ots
Ġboy z
Ġboy chuk
Ġboy lston
Ġdx t
ĠBer linger
Ġng c
Ġng all
Ġng Åĵ
Ġob ama
Ġob last
Ġast ana
Ġast rodome
ĠIg nition
ĠIg iehon
Ġrand all
ubb ock
Ġlie pins
illip o
ĠKey board
ĠPhon emic
ĠPhil ip
Ġplat te
ĠActive E
805 25
Se ason
Trans literation
lis i
ÄĹ Å¾
Ð² Ð¾Ð´
å¤ ©
å¤ ľ
Ġtem u
Ġtem perature
Ġtem atico
Ġtem agami
ĠAsh tag
ĠPa asonen
ĠPione ers
ĠTong an
ĠTele phony
ĠDX GH
ĠMel man
ĠMel anie
stan bul
Ġsus ana
Ġsak ai
Ġsak akita
Ġslo op
Ġserv us
Ġserv ette
ĠHal pern
Ġpla ins
Ġpla za
Ġpier carlo
Ġbeng ali
Ġbroad way
Ġbroad moor
Ġdur ham
Ġdur atec
Ġdur atorq
Ġdest iny
Ġdest ruction
Ġdale field
ĠBear ing
Ġok ri
Ġok ur
Ġok pro
ĠVer geer
ĠIr win
Ġgro ÃŁ
Ġgir ona
Ġgill is
Ġrams gate
Ġlat v
Ġlat via
Ġlat vian
Ġlat riciÃ¨res
ĠJose f
Ġkang chenjung
Ġsec ret
ĠKim ball
Ġunivers idad
Ġunivers itario
ĠPrec ision
ĠMinor u
Ġà´ µ
Ġà´ ķ
ĠBullet ins
625 2
GR R
]] ]
uh iro
uv os
Ãł É½É¯
Ð´ ÑĢÐ¾Ð²Ð¾
ÑĨ ÐºÐ°
à³ ģ
Ġif l
ĠShe pard
Ġtechn ology
ĠFort un
ĠFly ing
ĠAle c
ĠCancel led
aru ang
ĠTer ps
ĠTer rel
ĠTer rain
ĠDoug lass
ĠRam apo
ĠRam achandran
ĠMir anda
ĠLL WS
ĠLor en
ĠGB R
ĠGil les
Ġmik ee
Ġmik aela
Ġmob ili
Ġmiddle weight
Ġpatt illo
Ġbah amas
Ġbah awal
Ġdun hill
Ġdun lop
Ġdun kerque
ĠBur ton
ĠBur lington
ĠBurn s
Ġfig ue
Ġnord ica
Ġos good
Ġak ron
Ġak iko
Ġak asvayu
ĠIps wich
Ġhs in
Ġhel du
Ġhel pmann
ĠReserv ation
Ġvil nius
Ġrud olf
Ġrud yard
Ġlib by
ĠJac ques
Ġkg f
Ġkh omri
Ġkat rin
Ġkot or
Ġkey s
Ġkey nes
Ġkaw amura
Ġkaw erau
Ġrequ iem
ĠCondu ction
ĠCongress woman
Ġye ung
Ġye ovil
Ġmarl ins
Ġmarl boros
Ġgran ville
Ġgran ollers
Ġshin ichi
Ġprop osed
ĠMcG e
ĠMcG ee
ĠMcG uinn
ĠMcK in
ĠMcK inney
ĠMcN air
ĠSubject s
ãģ® æ
ĠBelg rade
000000000000 1
000000000000 001
ĠSmall pox
Ġderby shire
ĠMatthew s
Con f
NC AA
cr antz
ih ad
ih iro
mir al
rin ka
rone ves
Ġul ster
ĠSus an
ĠSus ie
ĠSus pension
ĠSant ee
ĠSant ista
ĠSant iago
Ġtam worth
ĠFel ton
ĠCro atia
ĠPens ke
ĠPac Bio
ĠTerr or
ĠRos ewall
ĠRos kilde
ĠMut ya
ĠMath ura
ĠMath ias
ĠMath ematics
Ġsat oshi
Ġsat oko
Ġsat rio
Ġsix th
ĠGib bons
Ġcer i
Ġcer ro
Ġcer Ã¡mica
Ġcer retani
ĠOs una
ĠOs born
Ġmall on
Ġmak en
Ġmak ar
Ġmak arski
Ġmetro dome
Ġpur dy
Ġpur ple
Ġpresent ers
Ġ318 51
Ġbou le
Ġbou log
Ġbag hlan
ĠBad en
Ġfer din
ĠReb els
ĠReb uilt
Ġwolf gang
Ġhi royuki
ĠSector s
Ġkas autii
agg art
Ġmarri ed
Ġlav illa
Ġlav azza
Ġshar p
Ġshar ed
Ġshar ma
Ġfranc s
ĠRepublic ans
ĠExec utive
Ġadv anced
Ġcomb ined
ĠMunicipal ities
Ġmead en
ĠGeograph ic
Ġwhit aker
Ġwhit worth
ĠBeat les
ĠWhit ney
ĠWhit aker
Ġà¤ ¸
Ġportug uesa
Ð°Ð½ Ð´ÑĢÐ¾Ð²Ð¾
Ġjacob son
ĠAtl antic
ĠAtl Ã©tico
Ð¾Ð² Ð¸
ĠAutom obile
ĠAutom Ã³vil
525 4
AB B
Ex ecutive
For um
Re f
UR CC
cul us
fol k
fig ure
sf ort
war ra
with out
à§ ĩ
ìŀ ĺíķ
Ġing all
ĠSL B
ĠSL M
ĠFla sh
ĠFur cifer
ĠCA D
ĠPP D
ĠDuch ovny
ĠRub io
ĠRud y
ĠRud olph
ĠRose hill
ĠMill wall
ĠNar ain
Ġsett led
Ġsylv ie
Ġcong o
Ġcond e
Ġcrist iano
ĠHa id
ĠHart ford
Ġmult ijet
Ġmult iple
Ġmoh r
Ġmoh an
Ġmath iasen
Ġpors grunn
Ġpict ure
Ġpetro v
Ġpetro sian
Ġpetro leum
Ġpetro chemical
Ġbro ck
Ġbro omfield
Ġdw ight
Ġdow ner
Ġdow dy
Ġfro g
Ġnar va
Ġnar rator
Ġnec axa
Ġod isha
Ġod jid
ĠVill ar
ĠVill araigosa
Ġave iro
Ġwk t
Ġgh antoot
Ġgh inzani
Ġhear n
Ġhear t
Ġhend erson
Ġva ud
Ġve iÄĩ
Ġrick y
ĠJon as
ĠJan ina
ĠJay asuri
Ġkra jice
Ġforest s
Ġyoun gest
ĠRegul ating
ĠRegul ations
Ġraf ter
Ġrah ul
Ġspr int
Ġext reme
Ġext remad
Ġparticip ation
ĠValid ation
ĠMuslim s
ĠÐ³ ÑĮ
ĠÐ³ ÓĻ
ĠÐ³ ÑĥÐ
ĠCylin ders
Ġcontrol net
ĠSchw ante
ĠJackson ian
ĠJackson ville
ĠÉĻ Êī
520 4
566 0
919 2
919 8
Bo at
OR E
iel ow
³ç İĭ
Çİ i
àµ ģ
á¹ ĥ
á¹ Ľ
á¹ Ńam
áł ¡áł
æĸ ĩ
æĺ İ
ĠSi ena
ĠSi oux
ĠSi lence
ĠFil ipino
ĠAI DS
ĠAI RLIN
ĠAk im
ĠCu atro
ĠPun ar
ĠPun ishment
ĠPerson al
ĠDi aper
ĠDi Mart
ĠMic hele
ĠLim oges
ĠLim burgish
ĠNI MT
ĠNI GHT
Ġson jay
Ġsent ences
Ġsup ern
ĠGloss ed
Ġcall us
Ġcru icksh
Ġcourt ney
ĠOx en
rient os
ĠHy un
ĠHy poten
ĠHy perTrans
Ġmore au
Ġmore head
Ġmore camb
Ġpot ts
Ġpir aeus
Ġpeg ram
Ġpeg asus
Ġpeg nitz
Ġbun ker
Ġbush man
ĠEs iliiga
ĠBab bit
Ġfun k
Ġnation ality
Ġnation ale
ĠVen ugopal
Ġgamb le
ĠStand ings
Ġhis ense
Ġhis amatsu
Ġjin onice
Ġindu cted
Ġindu ction
Ġindu ced
Ġindu rain
Ġinstit uto
Ġinaug ural
Ġvale ria
Ġvalent ijn
Ġrou ssillon
Ġrus edski
Ġrash id
Ġstock ton
Ġlind a
ĠSecret ariat
ĠJu ries
ĠJer usalem
Ġkan emoto
Ġkre uz
Ġkyr gyzstan
ĠInf iltration
ĠUl tra
ĠUl timate
Ġek etah
Ġek aterina
Ġeug enio
Ġdepend ent
Ġlaur ence
Ġspring er
Ġspring field
Ġcommission er
ĠSpect rum
Ġzamb ia
ĠAnne ke
Ġxii i
Ġguy ana
Ġprote us
Ġtrack ir
Ġæľ ¨
Ġæľ Ī
Ġæľ ĭåı
Ġhapp onen
ĠKarl sson
Ġpasseng er
Ġintrodu ction
ĠHydro graph
ĠVoiv odinÅ£
Al bum
Al titude
Al ameda
Res ident
bra id
born e
fs borg
gor z
gor ÃŃa
ÄĽ k
Ġrig a
ĠÃ¡ ngel
ĠÃ¡ rann
Ġvers ailles
ĠÅ¾ iv
ĠÅ¾ algi
ĠSM U
ĠSM PT
Ġtot deauna
Ġtru ss
Ġtele market
Ġturn out
ĠWonder ers
ĠFO URCC
ĠFerr er
ĠFred erick
ĠAh li
ĠAp ocalypst
ĠCH N
ĠCab ar
ĠCra zy
ĠTre en
ĠTorn adoes
ĠDra ke
ĠRod riguez
ĠRio ja
ĠRams ey
ĠMur rieta
ĠMack ay
ĠMoon ee
ĠLyn n
ĠNeg o
ĠNeg ative
ĠNeg oti
Ġsame time
ĠGa uthier
ĠGau ttier
ĠGrad ed
Ġcass ette
Ġcass idy
Ġcant erbury
Ġcann ons
Ġcross ing
ĠOt ago
ĠPot assium
ĠHel g
Ġmess ina
Ġmack ey
Ġmack enzie
Ġmog u
Ġmog li
Ġmog ilev
ĠmÃ¥ chan
Ġpor angah
Ġpil on
Ġpil ot
Ġpap er
Ġpap illon
Ġbac chus
Ġbac canel
ĠBos ch
ĠBos nian
ĠBoy ard
ĠBoy kin
Ġfen way
Ġfen cers
Ġful d
Ġful ler
Ġfuk uda
Ġfuk ushima
Ġfuk asawa
ĠVot er
ĠVocal ist
Ġgo osen
Ġgior gos
Ġgib son
Ġgib bs
Ġherr on
Ġinf otalent
Ġins ider
Ġincl uding
Ġincl udes
Ġvas il
Ġll anishen
ĠSequ encer
ĠJa Vale
Ġkr f
Ġkel len
Ġkun duz
Ġkur ume
Ġkap unda
Ġkid ston
Ġchurch ill
ĠKle in
ĠKost oma
ĠKost roma
Ġlen ka
Ġpost o
Ġpost poned
ĠCole ite
Ġadvent ures
Ġbranch es
755 3546
ĠAng ry
Ġquick step
Ġphr ueh
Ġappro aching
scri pt
Ġmechan ical
ĠÐŁ Ð°Ð½
ĠÐŁ Ð»Ð¾
Ġà¦ ¸
Ġåı ¤
Ġåı ¶
Ġtrip lett
ĠMarty red
Ġautos port
ĠDrum s
ĠRapid ity
ĠINT s
ĠMcDon ough
AK A
He len
Mar gin
Pr ince
Pre vious
Th ere
Th rows
brook lyn
ful ness
gart en
mal aysia
sch acher
à¼ į
æľ Ī
çĶ Ł
ĠÅ ł
Ġ× Ĳ×ķ
Ġans ikte
Ġond rag
Ġign ition
Ġris k
Ġtat iana
Ġtan unda
Ġtuc umÃ¡n
ĠWes laco
ĠPO SIX
ĠPas c
ĠPas o
ĠPad illa
ĠPont iac
ĠPair ing
ĠTun isia
ĠTac acoma
ĠDY FJ
ĠDj ibouti
ĠRand wick
ĠMul len
ĠMul atto
ĠMans laugh
ĠMik ey
ĠMik hail
ĠMoh sen
ĠMeg son
ĠLang don
ĠLAN E
Ġsor rent
ĠGent oo
ĠGir l
ĠGir ona
Ġcour ic
Ġcag liari
Ġcec ilia
ĠHur ley
Ġmom ent
Ġmach in
Ġmach ida
Ġmex ican
Ġmind ark
Ġmind fulness
Ġmyst ic
Ġpath f
Ġbit di
Ġbog or
Ġbeth el
ĠEgypt ian
Ġdia z
Ġdia lect
Ġdob re
Ġdob bert
ĠBY uT
ĠBre chin
ĠBart on
ĠButt on
Ġfres vik
Ġfood s
Ġnu ova
Ġnav arro
Ġnatural point
ĠVe ach
ĠVit ols
ĠVerm eu
ĠIME D
Ġgun fire
Ġ734 0
ĠStump ings
Ġhist oric
Ġhud son
Ġjh arsuguda
Ġjob ing
Ġjob urg
Ġjoy ce
Ġstatist ic
Ġlg pl
Ġlanc aster
ĠJe ans
ĠJe anne
Ġkad uck
Ġkad ima
Ġkerr ville
ĠInn habitants
iak os
ĠUI C
ĠUk raine
ĠUk rainian
Ġeff igie
Ġecon omy
ĠKo Å¾uf
ĠKas oulidis
ĠKern s
Ġlex us
204 00000000000001
Ġander lecht
Ġmargar et
ĠShin ya
Ġsher ri
Ġsher wood
ĠElement ary
Ġarc ade
Ġarc iero
ĠCook ers
ĠCoordin ator
ĠSpo iled
Ġlegion ary
gher u
Ġâī ¥
ĠBarb our
Ġxi uyun
Ġcompet ed
Ġscar borough
áĥł áĥĲáĥ
áĥł áĥĺ
Ġvalpara ÃŃso
Ġspecial s
Ã¶r gy
Ð°ÑĤ Ð¸Ð½
ĠWheat land
ĠClar ence
ĠåįĹ å±±
Ġesc ape
Ġæĺ İå
Ġæĺ Įé»İ
Ġrockets ports
Ġjuvent ud
à²¤ à²°
Ġfeder ico
Ġfedex field
ĠDimit ri
ĠDimit rova
ĠDispos als
Õ¡Õ ¯
Õ¡Õ ¶
433 61875
AI DS
AP X
AZ O
DT W
En field
Mon ica
Mon roe
Pe ace
Pop Up
Un iverse
count y
uqu erque
wh ite
yÃ¼ kak
±Ðµ ÑĢÐ½Ð¸
Ã¦ g
Ã´ n
É¡ Ê²
É¡ Ê·
É¨ s
à· ı
ĠÄ Į
ĠÙ ĪØ§
Ġì ķł
Ġãģ ¡ãĤ
ĠÅ¡ t
ĠSax ony
ĠSax by
Ġtu ition
Ġtram wajar
ĠWas p
ĠWyn n
ĠFab ien
ĠFav ors
ĠFav orite
ĠFitz gerald
ĠFitz Bra
ĠFull back
ĠFoss il
ĠAB BA
ĠPie ces
ĠPix ie
ĠTau ziat
ĠTau zin
ĠTai wan
ĠDig s
ĠDig its
ĠMort imer
ĠMess age
ĠMess enger
ĠLF N
ĠsÃ¤ w
ĠGV M
Ġcraw ley
Ġcraw ford
Ġcrew s
ĠOst rich
ceph al
ĠHend rick
ĠHem ingway
ĠHud son
ĠHud lin
ĠHob bs
Ġmr f
Ġmr t
Ġment or
Ġmann heim
Ġpon ce
Ġpon son
Ġpes o
Ġpear l
Ġpad res
Ġban bury
Ġblo od
Ġblo emfonte
Ġboh ra
Ġboh lander
Ġbach elorette
Ġborg arnes
Ġberg en
ĠbjÃ¶ rkman
Ġdib rugarh
ĠBri ar
ĠBri anne
ĠBark ing
ĠBark ley
ĠBuch anan
ĠBuch schacher
Ġfou zee
Ġfir man
Ġfus ion
Ġfus ai
Ġnr l
Ġnag y
Ġohl und
Ġwes lake
Ġwis dom
Ġwis niew
Ġworm s
Ġworm atia
ĠIo annis
Ġglass on
Ġgust avo
Ġgav ril
Ġgav ros
Ġglo be
Ġglo bular
Ġgross eto
Ġgould s
Ġhink le
Ġhink ler
Ġhutch ins
ĠResident ial
Ġlamb orgh
ĠChin adorai
ĠJill ian
Ġkash ima
Ġkash mir
ĠIndepend ence
Ġcham bers
Ġcham berlin
Ġrein er
accent ure
Ġsepar ation
Ġdela ge
ĠKy alami
ĠKiss es
ĠKrist j
ĠKrist en
ĠDeput ies
Ġformer ly
ĠComplex e
ĠArc ade
Ġtoo heys
Ġarab ia
ĠSpring field
Ġphilipp e
ĠMcL aren
Ġapple by
Ġmeh met
ĠÐĲ Ð»Ðµ
ĠÐĴ Ð¾Ñĺ
ĠÐĴ Ð°ÑĤÐ¸Ð½
ĠÐĵ ÑĮ
ĠÐĵ ÓĻ
ĠSerge i
Ġknock out
Ġknock outs
Ġpanam ax
Ġdayton a
Ġkarp ov
Ġkarp ets
ĠSaturn us
ĠSignific ant
Ġstanis lav
ĠKnock hill
Ġgregor io
Ġmccar thy
Ð¸Ð½ ÑĨÐ¸
Ġmetal urh
ĠBuddh ist
ĠCrus ade
tegration ist
Ġhydro chaeris
ĠDiscover ed
Ġsettlement s
Ġhendrick x
Ang lian
Bry an
Bry ant
Cont i
De ficit
Des ktop
House holds
Po ints
Po pulation
buk do
hel wood
hur st
hur ricane
host s
john son
lÃ³ pez
rab bit
ä¼ ļ
ä¾ Ŀ
å® ¤
çľ ģ
éĽ Ħå
ĠUM ass
Ġult ima
Ġeld er
Ġiz od
Ġiz mir
ĠãĤ ¯ãĥŃ
ĠÊĴ o
ĠSle eves
ĠSor ority
ĠSom erset
Ġtac uary
Ġtac loban
Ġtosh iaki
ĠFlor in
ĠCit rate
ĠCov entry
ĠCitiz enship
ĠPD L
ĠPin borough
ĠTT kl
ĠTu S
ĠTu ft
ĠTang ing
ĠTuck er
ĠTuck ey
ĠDri ving
ĠDri vetrain
ĠDaw son
ĠRah al
ĠRET TÃ
oura ge
ĠLom avren
ĠLud wig
ĠLanc ashire
ĠNuc lide
ĠNuc lear
Ġsid ney
Ġsag inaw
Ġsams ung
ĠGR Ãľ
ĠGat unda
ĠGri ff
ĠGard ner
Ġcust om
Ġcust oms
Ġcai ro
Ġcush man
Ġcott bus
Ġmang rum
Ġmald ives
Ġpit onak
Ġpel oso
Ġpard alis
Ġpard ubice
Ġbent ley
Ġbian ca
Ġbian chi
Ġbrig ham
ĠdB m
Ġdul gheru
Ġdag gerboards
Ġdup ont
Ġdess el
ĠBet ween
ĠBrid ges
ĠBuck ley
ĠBright est
ĠBene Å¡ovÃ¡
Ġfant asy
Ġfant astic
Ġfitz gerald
ĠRect ified
ĠRect ifier
Ġnw az
[...]
