{"!":0,"\"":1,"#":2,"$":3,"%":4,"&":5,"'":6,"(":7,")":8,"*":9,"+":10,",":11,"-":12,".":13,"/":14,"0":15,"1":16,"2":17,"3":18,"4":19,"5":20,"6":21,"7":22,"8":23,"9":24,":":25,";":26,"<":27,"=":28,">":29,"?":30,"@":31,"A":32,"B":33,"C":34,"D":35,"E":36,"F":37,"G":38,"H":39,"I":40,"J":41,"K":42,"L":43,"M":44,"N":45,"O":46,"P":47,"Q":48,"R":49,"S":50,"T":51,"U":52,"V":53,"W":54,"X":55,"Y":56,"Z":57,"[":58,"\\":59,"]":60,"^":61,"_":62,"`":63,"a":64,"b":65,"c":66,"d":67,"e":68,"f":69,"g":70,"h":71,"i":72,"j":73,"k":74,"l":75,"m":76,"n":77,"o":78,"p":79,"q":80,"r":81,"s":82,"t":83,"u":84,"v":85,"w":86,"x":87,"y":88,"z":89,"{":90,"|":91,"}":92,"~":93,"¡":94,"¢":95,"£":96,"¤":97,"¥":98,"¦":99,"§":100,"¨":101,"©":102,"ª":103,"«":104,"¬":105,"®":106,"¯":107,"°":108,"±":109,"²":110,"³":111,"´":112,"µ":113,"¶":114,"·":115,"¸":116,"¹":117,"º":118,"»":119,"¼":120,"½":121,"¾":122,"¿":123,"À":124,"Á":125,"Â":126,"Ã":127,"Ä":128,"Å":129,"Æ":130,"Ç":131,"È":132,"É":133,"Ê":134,"Ë":135,"Ì":136,"Í":137,"Î":138,"Ï":139,"Ð":140,"Ñ":141,"Ò":142,"Ó":143,"Ô":144,"Õ":145,"Ö":146,"×":147,"Ø":148,"Ù":149,"Ú":150,"Û":151,"Ü":152,"Ý":153,"Þ":154,"ß":155,"à":156,"á":157,"â":158,"ã":159,"ä":160,"å":161,"æ":162,"ç":163,"è":164,"é":165,"ê":166,"ë":167,"ì":168,"í":169,"î":170,"ï":171,"ð":172,"ñ":173,"ò":174,"ó":175,"ô":176,"õ":177,"ö":178,"÷":179,"ø":180,"ù":181,"ú":182,"û":183,"ü":184,"ý":185,"þ":186,"ÿ":187,"Ā":188,"ā":189,"Ă":190,"ă":191,"Ą":192,"ą":193,"Ć":194,"ć":195,"Ĉ":196,"ĉ":197,"Ċ":198,"ċ":199,"Č":200,"č":201,"Ď":202,"ď":203,"Đ":204,"đ":205,"Ē":206,"ē":207,"Ĕ":208,"ĕ":209,"Ė":210,"ė":211,"Ę":212,"ę":213,"Ě":214,"ě":215,"Ĝ":216,"ĝ":217,"Ğ":218,"ğ":219,"Ġ":220,"ġ":221,"Ģ":222,"ģ":223,"Ĥ":224,"ĥ":225,"Ħ":226,"ħ":227,"Ĩ":228,"ĩ":229,"Ī":230,"ī":231,"Ĭ":232,"ĭ":233,"Į":234,"į":235,"İ":236,"ı":237,"Ĳ":238,"ĳ":239,"Ĵ":240,"ĵ":241,"Ķ":242,"ķ":243,"ĸ":244,"Ĺ":245,"ĺ":246,"Ļ":247,"ļ":248,"Ľ":249,"ľ":250,"Ŀ":251,"ŀ":252,"Ł":253,"ł":254,"Ń":255,"ĠS":256,"le":257,"Ġt":258,"Ġ=":259,"ĠW":260,"ĠF":261,"ab":262,"able":263,"Ġtable":264,"EC":265,"OM":266,"ĠSE":267,"ĠFR":268,"ECT":269,"LECT":270,"ĠFROM":271,"ĠSELECT":272,"ER":273,"HER":274,"ĠWHER":275,"ĠWHERE":276,"ĠA":277,"on":278,"er":279,"in":280,"ĠAN":281,"ĠAND":282,"at":283,"ĠC":284,"en":285,"Ġ1":286,"an":287,"or":288,"am":289,"ĠP":290,"ar":291,"ĠT":292,"Ġ2":293,"al":294,"ĠD":295,"ĠR":296,"ĠM":297,"it":298,"ion":299,"st":300,"es":301,"ou":302,"ate":303,"Ġ(":304,"ĠL":305,"ĠN":306,"Ġs":307,"la":308,"eam":309,"cor":310,"ic":311,"ent":312,"00":313,"Ġ>":314,"om":315,"Ġ<":316,"ed":317,"ĠG":318,"Ġc":319,"ĠO":320,"ĠDate":321,"ĠPo":322,"ce":323,"ri":324,"ĠH":325,"Ġm":326,"re":327,"ĠCO":328,"UN":329,"ation":330,"ĠCOUN":331,"ĠCOUNT":332,"Ġp":333,"ol":334,"is":335,"core":336,"Ġ3":337,"oun":338,"Ġb":339,"ame":340,"il":341,"Ġ19":342,"ear":343,"ing":344,"ĠY":345,"as":346,"ĠE":347,"Ġd":348,"ot":349,"Ġteam":350,"ĠPla":351,"ĠB":352,"ct":353,"el":354,"ĠYear":355,"Ġf":356,"et":357,"ro":358,"ay":359,"ch":360,"ĠRe":361,"ul":362,"ts":363,"Ġn":364,"ver":365,"Ġ200":366,"Ġ4":367,"Ġo":368,"ĠV":369,"ir":370,"Ġa":371,"IN":372,"pp":373,"un":374,"ĠMIN":375,"ĠPlay":376,"ue":377,"ĠMA":378,"ĠMAX":379,"ber":380,"ĠScore":381,"ĠTeam":382,"ge":383,"ĠLo":384,"ome":385,"um":386,"ig":387,"th":388,"and":389,"ition":390,"Ġ5":391,"Ġw":392,"Ġ6":393,"im":394,"âĢ":395,"ss":396,"ĠPlayer":397,"ra":398,"ints":399,"ĠName":400,"ĠI":401,"ity":402,"ĠOpp":403,"ĠHome":404,"âĢĵ":405,"ank":406,"od":407,"Ġg":408,"onent":409,"ĠOpponent":410,"Ġof":411,"ĠWin":412,"ur":413,"ound":414,"end":415,"Ġ7":416,"ad":417,"ĠSt":418,"Ġ0":419,"ĠAV":420,"ĠAVG":421,"Ġh":422,"Ġ20":423,"ount":424,"ist":425,"Ġj":426,"way":427,"ers":428,"ĠPos":429,"em":430,"ance":431,"ry":432,"ĠPoints":433,"UM":434,"Ġin":435,"ĠSUM":436,"ĠRank":437,"ap":438,"art":439,"otal":440,"cord":441,"tt":442,"ĠPosition":443,"ĠRes":444,"ĠAway":445,"igh":446,"ĠRecord":447,"ĠCount":448,"ĠTotal":449,"ult":450,"Ġv":451,"enue":452,"id":453,"Ġr":454,"ub":455,"itle":456,"Ġ8":457,"our":458,"inal":459,"ĠVenue":460,"endance":461,"ick":462,"Ġst":463,"ĠAtt":464,"ner":465,"Ġl":466,"ĠResult":467,"ee":468,"us":469,"ĠAttendance":470,"ĠCh":471,"ĠLoc":472,"Ġscore":473,"ĠSe":474,"ĠJ":475,"ime":476,"Ġ201":477,"Ġ9":478,"ie":479,"Ġk":480,"ĠLocation":481,"ĠIn":482,"ĠCountry":483,"ill":484,"ia":485,"ain":486,"ck":487,"ason":488,"Ġ10":489,"ow":490,"ard":491,"ĠRound":492,"Ġ199":493,"ag":494,"he":495,"ĠTime":496,"ĠTitle":497,"Ġ#":498,"est":499,"ĠU":500,"all":501,"age":502,"ourn":503,"up":504,"ĠEn":505,"ies":506,"ip":507,"eek":508,"Ġby":509,"if":510,"ĠNo":511,"oal":512,"les":513,"lub":514,"ĠWeek":515,"ut":516,"Ġ12":517,"Ġ11":518,"ric":519,"ode":520,"os":521,"lass":522,"pe":523,"Ġe":524,"ĠGame":525,"ĠGoal":526,"ary":527,"iv":528,"ze":529,"Ġch":530,"ens":531,"old":532,"ool":533,"ĠNation":534,"ions":535,"umber":536,"ian":537,"ĠTo":538,"ĠSeason":539,"ĠCom":540,"Ġ18":541,"chool":542,"ire":543,"ast":544,"ĠCol":545,"ish":546,"Ġ)":547,"ĠLe":548,"ember":549,"ĠPro":550,"ament":551,"river":552,"ctor":553,"Ġre":554,"rig":555,"ace":556,"ournament":557,"ĠBr":558,"rid":559,"cted":560,"Ġ14":561,"ĠGoals":562,"ĠCon":563,"Ġpar":564,"ĠPart":565,"aps":566,"ov":567,"ight":568,"10":569,"Ġ15":570,"ac":571,"Ġse":572,"raw":573,"ĠWins":574,"ort":575,"ning":576,"Ġde":577,"ĠHigh":578,"Ġ13":579,"ĠPick":580,"Ġthe":581,"ĠK":582,"amp":583,"ass":584,"ĠDe":585,"ru":586,"ĠSchool":587,"ant":588,"ĠTournament":589,"ong":590,"ĠDist":591,"ĠOrig":592,"ction":593,"ine":594,"row":595,"qu":596,"Ġ198":597,"ak":598,"ment":599,"Ġ16":600,"gain":601,"ter":602,"ĠLaps":603,"eries":604,"ĠPlace":605,"ĠOriginal":606,"ĠDraw":607,"ĠClass":608,"gainst":609,"Ġle":610,"ĠDire":611,"lege":612,"ey":613,"Ġfor":614,"ff":615,"rit":616,"ĠDriver":617,"ĠComp":618,"ĠEv":619,"Ġun":620,"ates":621,"ĠCollege":622,"own":623,"iew":624,"pul":625,"Ġy":626,"du":627,"onze":628,"ĠGold":629,"ĠBronze":630,"ess":631,"rict":632,"ud":633,"ilver":634,"ĠGrid":635,"11":636,"20":637,"nd":638,"ĠCity":639,"Ġpo":640,"ĠSilver":641,"ĠLoss":642,"ality":643,"ĠDistrict":644,"Ġdate":645,"orm":646,"Ġ\"":647,"pulation":648,"irst":649,"ĠRun":650,"ĠInc":651,"ium":652,"ans":653,"umb":654,"land":655,"Ġ2008":656,"ĠEvent":657,"Ġ$":658,"ust":659,"ĠNumber":660,"ĠHe":661,"ĠCrow":662,"Ġ17":663,"ang":664,"ague":665,"ĠCrowd":666,"ew":667,"ĠPopulation":668,"ĠClub":669,"ĠWinning":670,"Ġand":671,"ory":672,"pis":673,"ĠMar":674,"ĠWinner":675,"av":676,"hip":677,"000":678,"ĠFirst":679,"12":680,"ype":681,"ton":682,"iewers":683,"ames":684,"cy":685,"'s":686,"ĠEng":687,"ug":688,"anu":689,"umbent":690,"io":691,"ph":692,"ĠWrit":693,"ond":694,"ĠIncumbent":695,"Ġno":696,"pt":697,"fer":698,"Ġair":699,"ĠReg":700,"19":701,"ĠEpis":702,"Ġ197":703,"se":704,"lo":705,"Ġ25":706,"Ġmar":707,"ence":708,"ich":709,"ited":710,"eb":711,"port":712,"etition":713,"ĠNationality":714,"atch":715,"14":716,"Ġ22":717,"Ġ2010":718,"13":719,"ĠPlayed":720,"ĠAr":721,"Ġ24":722,"ice":723,"rea":724,"ril":725,"ĠLost":726,"ack":727,"ision":728,"ĠCompetition":729,"Ġpoints":730,"Ġ/":731,"ik":732,"og":733,"ĠProdu":734,"ost":735,"Ġ2009":736,"Ġ2007":737,"ten":738,"ĠEpisode":739,"ĠArea":740,"Ġ2011":741,"ĠSeries":742,"verage":743,"op":744,"ial":745,"Ġ21":746,"Ġcode":747,"ĠType":748,"ĠLeague":749,"ĠAgainst":750,"adium":751,"oc":752,"Ġ23":753,"ĠOver":754,"ĠQ":755,"km":756,"ive":757,"ĠPer":758,"ication":759,"oh":760,"outh":761,"eng":762,"are":763,"Ġtitle":764,"Ġro":765,"ĠVis":766,"rom":767,"ach":768,"Ġunited":769,"ĠParty":770,"ober":771,"mill":772,"Ġ%":773,"ĠDirected":774,"ly":775,"ĠWritten":776,"ency":777,"ite":778,"ĠVisit":779,"ĠSur":780,"Ġla":781,"ork":782,"ath":783,"Ġ196":784,"face":785,"Ġ+":786,"ĠOverall":787,"Ġ30":788,"pril":789,"son":790,"ĠAl":791,"ĠOut":792,"ired":793,"ĠYears":794,"Ġfinal":795,"eld":796,"Ġwin":797,"otes":798,"ĠChamp":799,"ĠConst":800,"ĠProduction":801,"ann":802,"Ġ27":803,"ĠRace":804,"Ġ2006":805,"ign":806,"oll":807,"ale":808,"ell":809,"15":810,"Ġto":811,"ification":812,"ĠSurface":813,"ĠCup":814,"ĠTh":815,"Ġele":816,"ĠGr":817,"te":818,"ward":819,"ĠFre":820,"ier":821,"ĠAverage":822,"200":823,"Ġname":824,"uit":825,"ctober":826,"iver":827,"res":828,"ord":829,"ft":830,"iss":831,"Ġ2012":832,"ĠState":833,"16":834,"25":835,"ern":836,"Ġgr":837,"Ġ26":838,"omin":839,"ists":840,"ĠLosses":841,"cc":842,"ase":843,"act":844,"Ġ29":845,"ĠSh":846,"mber":847,"aw":848,"ĠRunner":849,"cember":850,"Ġper":851,"ĠVisitor":852,"Ġra":853,"irc":854,"30":855,"Ġnumber":856,"odel":857,"Ġ195":858,"ane":859,"man":860,"etired":861,"come":862,"lish":863,"Ġviewers":864,"ĠHeight":865,"Ġal":866,"ionship":867,"ĠTop":868,"ated":869,"ohn":870,"Ġat":871,"ĠMatch":872,"val":873,"ont":874,"anuary":875,"ĠApp":876,"enn":877,"ors":878,"ĠGames":879,"Ġ28":880,"Retired":881,"uil":882,"orth":883,"ĠFin":884,"Ġsh":885,"ference":886,"Club":887,"lay":888,"elb":889,"ĠQu":890,"ĠDrawn":891,"28":892,"ĠEle":893,"Ġar":894,"ons":895,"ĠRo":896,"andid":897,"ĠRegion":898,"ith":899,"ĠMon":900,"eth":901,"Ġnov":902,"ĠUn":903,"ld":904,"rans":905,"17":906,"ourne":907,"rd":908,"ĠEngine":909,"18":910,"ruary":911,"ĠDirector":912,"ebruary":913,"Ġor":914,"elbourne":915,"gory":916,"pen":917,"ĠCo":918,"quency":919,"ield":920,"ĠCirc":921,"ptember":922,"de":923,"erv":924,"Ġagainst":925,"Ġelected":926,"ĠFrequency":927,"per":928,"len":929,"ĠCandid":930,"gin":931,"ĠCounty":932,"assis":933,"ries":934,"Ġapril":935,"ĠCap":936,"ange":937,"ategory":938,"Ġclass":939,"une":940,"ure":941,"ĠChassis":942,"Ġseason":943,"ĠForm":944,"Ġ2005":945,"Ġseries":946,"ĠAir":947,"int":948,"ok":949,"Ġcar":950,"ix":951,"ĠFinal":952,"ĠCircuit":953,"ĠPri":954,"70":955,"ina":956,"anc":957,"orn":958,"Ġstates":959,"Ġsouth":960,"ĠOpponents":961,"bound":962,"ler":963,"oup":964,"ĠRele":965,"ley":966,"Ġth":967,"Ġnovember":968,"Ġ-":969,"Ġnew":970,"ĠConstru":971,"ood":972,"Ġsp":973,"Ġ2004":974,"ob":975,"bounds":976,"ict":977,"ĠOutcome":978,"ĠSp":979,"ĠCar":980,"ĠPre":981,"ets":982,"millions":983,"ah":984,"one":985,"Ġleg":986,"27":987,"form":988,"oub":989,"Ġmelbourne":990,"68":991,"50":992,"Ġfr":993,"29":994,"Ġmay":995,"ĠFinish":996,"Ġoctober":997,"Ġoval":998,"ider":999,"ĠDec":1000,"69":1001,"ore":1002,"ĠLab":1003,"mer":1004,"atal":1005,"ĠModel":1006,"uly":1007,"ral":1008,"ĠRep":1009,"ele":1010,"ĠEx":1011,"tr":1012,"eight":1013,"ĠDraws":1014,"ĠArt":1015,"Â²":1016,"Ġpark":1017,"ugust":1018,"ĠCandidates":1019,"cot":1020,"ĠStadium":1021,"vin":1022,"atus":1023,"ĠTie":1024,"Ġ2003":1025,"ĠInter":1026,"ior":1027,"ris":1028,"Ġseptember":1029,"ced":1030,"oubles":1031,"73":1032,"AA":1033,"ating":1034,"ĠGen":1035,"ĠBuil":1036,"ĠTrans":1037,"ash":1038,"cent":1039,"ne":1040,"ĠSet":1041,"71":1042,"72":1043,"ĠConstructor":1044,"05":1045,"ke":1046,"ats":1047,"ĠCategory":1048,"ĠRelease":1049,"lic":1050,"Ġass":1051,"Ġ&":1052,"orld":1053,"Ġad":1054,"Ġwon":1055,"ĠArtist":1056,"ĠCatal":1057,"Ġcom":1058,"ĠChampionship":1059,"ĠFormat":1060,"24":1061,"enter":1062,"Ġ2001":1063,"ivers":1064,"ĠTra":1065,"ilm":1066,"ivision":1067,"ĠCatalog":1068,"Ġpro":1069,"Ġ38":1070,"ax":1071,"ib":1072,"ational":1073,"ade":1074,"ĠCall":1075,"Ġclassification":1076,"ĠRider":1077,"ĠLane":1078,"06":1079,"ĠTries":1080,"ĠViewers":1081,"ĠLabel":1082,"23":1083,"ile":1084,"att":1085,"ĠStatus":1086,"ĠMoney":1087,"Ġdecember":1088,"ĠEnglish":1089,"ĠSong":1090,"ital":1091,"Ġrebounds":1092,"ĠNet":1093,"Ġ34":1094,"ĠLead":1095,"ude":1096,"eg":1097,"ĠNotes":1098,"ille":1099,"ards":1100,"09":1101,"26":1102,"ĠUS":1103,"ĠPartner":1104,"Ġmarch":1105,"Ġassists":1106,"Ġus":1107,"Ġ35":1108,"Ġsing":1109,"Ġ31":1110,"rat":1111,"Ġ,":1112,"ĠEntr":1113,"22":1114,"ĠAv":1115,"ll":1116,"ners":1117,"ock":1118,"ress":1119,"itude":1120,"go":1121,"Ġtime":1122,"ĠAss":1123,"ark":1124,"ese":1125,"Ġjohn":1126,"ail":1127,"ds":1128,"gh":1129,"74":1130,"Ġas":1131,"ĠSpe":1132,"Ġfebruary":1133,"Ġâ":1134,"Ġ2000":1135,"ĠEntrant":1136,"ĠâĢĵ":1137,"Ġstadium":1138,"ĠWom":1139,"ĠLa":1140,"66":1141,"irth":1142,"ide":1143,"ĠMargin":1144,"iversity":1145,"ator":1146,"iz":1147,"Ġcap":1148,"ĠFilm":1149,"ony":1150,"Ġ2002":1151,"ĠNov":1152,"ev":1153,"ĠNew":1154,"que":1155,"uth":1156,"Ġcol":1157,"FL":1158,"iam":1159,"ĠMan":1160,"ĠMeth":1161,"ouse":1162,"Ġdoubles":1163,"ĠStart":1164,"Ġjanuary":1165,"ĠMatches":1166,"04":1167,"Ġz":1168,"alif":1169,"07":1170,"az":1171,"ĠApps":1172,"let":1173,"ins":1174,"bert":1175,"ense":1176,"ĠAth":1177,"ĠAward":1178,"ĠMethod":1179,"oot":1180,"ĠFor":1181,"ounded":1182,"Ġvict":1183,"co":1184,"ĠLong":1185,"ublic":1186,"der":1187,"ĠNick":1188,"acity":1189,"name":1190,"urr":1191,"21":1192,"ex":1193,"wer":1194,"Ġi":1195,"Ġgre":1196,"ution":1197,"49":1198,"cond":1199,"lace":1200,"08":1201,"au":1202,"Ġbr":1203,"icket":1204,"33":1205,"75":1206,"erm":1207,"omet":1208,"unior":1209,"ike":1210,"Ġaugust":1211,"ĠAn":1212,"Ġman":1213,"ustral":1214,"nes":1215,"Ġqu":1216,"ĠFast":1217,"Ġnorth":1218,"ird":1219,"ĠStage":1220,"ĠAvg":1221,"Ġam":1222,"Ġge":1223,"Ġ100":1224,"Ġjune":1225,"off":1226,"Ġ1999":1227,"angu":1228,"by":1229,"lin":1230,"Ġu":1231,"Ġstate":1232,"%)":1233,"Ã©":1234,"lete":1235,"ous":1236,"Ġcity":1237,"Ġ[":1238,"Ġ194":1239,"Ġround":1240,"ĠPl":1241,"Ġ32":1242,"bur":1243,"Ã¡":1244,"Ġpri":1245,"Ġjuly":1246,"cing":1247,"ĠWeight":1248,"Ġ2013":1249,"ifference":1250,"vince":1251,"67":1252,"ĠPr":1253,"ĠHomet":1254,"ĠHometown":1255,"ena":1256,"icip":1257,"ĠOff":1258,"Ġmill":1259,"Ġkm":1260,"fact":1261,"ram":1262,"stit":1263,"emoc":1264,"anufact":1265,"34":1266,"ai":1267,"vel":1268,"ĠOth":1269,"Ġwest":1270,"ĠChar":1271,"ager":1272,"Ġchamp":1273,"Ġcon":1274,"rist":1275,"Ġ1998":1276,"anguage":1277,"35":1278,"65":1279,"day":1280,"ham":1281,"urer":1282,"ĠNickname":1283,"ki":1284,"roll":1285,"icense":1286,"ĠStation":1287,"out":1288,"ĠPower":1289,"Ġph":1290,"Ġ40":1291,"million":1292,"ĠCapacity":1293,"amil":1294,"ical":1295,"ĠOpen":1296,"Ġgrand":1297,"mp":1298,"ĠDivision":1299,"ĠRac":1300,"ild":1301,"ĠLos":1302,"ĠAthlete":1303,"date":1304,"ps":1305,"work":1306,"ĠFA":1307,"erman":1308,"Ġco":1309,"Ġ33":1310,"annel":1311,"Ġsingles":1312,"mond":1313,"ĠRating":1314,"anufacturer":1315,"lor":1316,"Ġrun":1317,"osition":1318,"64":1319,"inc":1320,"any":1321,"ĠSeg":1322,"ervice":1323,"ĠFastest":1324,"aj":1325,"ĠPole":1326,"ings":1327,"road":1328,"Ġ45":1329,"Ġ54":1330,"nings":1331,"HL":1332,"Ġmc":1333,"ĠEar":1334,"Ġnomin":1335,"Ġ1996":1336,"emocrat":1337,"03":1338,"cast":1339,"yd":1340,"ĠFounded":1341,"anad":1342,"95":1343,"ington":1344,"Ġrich":1345,"ĠJo":1346,"ission":1347,"rollment":1348,"ual":1349,"ville":1350,"Ġeng":1351,"ĠNomin":1352,"ĠInstit":1353,"ĠSegment":1354,"02":1355,"mm":1356,"eral":1357,"Ġdav":1358,"ĠJanuary":1359,"ĠEnrollment":1360,"98":1361,"ĠMed":1362,"Ġ(%)":1363,"Ġ36":1364,"Ġ44":1365,"ĠPercent":1366,"ĠQual":1367,"uro":1368,"Ġmade":1369,"ree":1370,"ĠGrand":1371,"urrent":1372,"ect":1373,"national":1374,"onus":1375,"ind":1376,"Ġfrom":1377,"44":1378,"Hz":1379,"atur":1380,"ative":1381,"ĠManufacturer":1382,"ĠBirth":1383,"Ġ50":1384,"Ġ1994":1385,"ĠNovember":1386,"ĠInstitution":1387,"AT":1388,"wood":1389,"ĠScor":1390,"ari":1391,"ĠLanguage":1392,"Ġrank":1393,"mi":1394,"sh":1395,"Ġq":1396,"Ġ39":1397,"ĠBest":1398,"Ġwith":1399,"ength":1400,"ĠLength":1401,"Ġdriver":1402,"uest":1403,"Ġind":1404,"illiam":1405,"ĠDecember":1406,"38":1407,"DP":1408,"Ġsign":1409,"Ġbar":1410,"ĠReport":1411,"Ġopen":1412,"unicip":1413,"ĠPerform":1414,"77":1415,"ales":1416,"Ġed":1417,"ita":1418,"apan":1419,"uthor":1420,"01":1421,"aul":1422,"tain":1423,"Ġclub":1424,"Ġplay":1425,"ĠJohn":1426,"85":1427,"ĠDifference":1428,"ensity":1429,"itt":1430,"reet":1431,"ĠChampion":1432,"ĠNetwork":1433,"ney":1434,"ren":1435,"els":1436,"Ġ42":1437,"ford":1438,"lim":1439,"ĠMc":1440,"ĠLast":1441,"ĠNHL":1442,"ote":1443,"Ġ48":1444,"Ġ68":1445,"Ġoff":1446,"Ġ1997":1447,"ĠComm":1448,"ĠProvince":1449,"elev":1450,"kg":1451,"uck":1452,"als":1453,"unch":1454,"Ġ69":1455,"ĠConference":1456,"oy":1457,"Ġon":1458,"ĠMember":1459,"ĠOw":1460,"Ġ49":1461,"Ġ70":1462,"Ġ1990":1463,"org":1464,"ross":1465,"Ġapp":1466,"ĠEnds":1467,"ĠEvents":1468,"ption":1469,"eak":1470,"ĠAg":1471,"Ġschool":1472,"Ġhaw":1473,"Ġyes":1474,"ĠGroup":1475,"45":1476,"ĠTown":1477,"ĠMov":1478,"Ġcup":1479,"Ġmin":1480,"Ġnot":1481,"76":1482,"vi":1483,"ĠZ":1484,"Ġsu":1485,"raft":1486,"Ġticket":1487,"ined":1488,"itz":1489,"ĠHost":1490,"ĠBar":1491,"ec":1492,"ĠÂ":1493,"ĠSite":1494,"etro":1495,"Ġ1993":1496,"ose":1497,"ĠWriter":1498,"ĠTransfer":1499,"ĠâĪ":1500,"ublican":1501,")-":1502,"err":1503,"ater":1504,"ĠDay":1505,"ĠOctober":1506,"rew":1507,"ael":1508,"bum":1509,"Ġx":1510,"ĠFrom":1511,"ino":1512,"ĠDis":1513,"its":1514,"Ġ41":1515,"ĠSecond":1516,"ĠOther":1517,"31":1518,"36":1519,"84":1520,"Ġtype":1521,"ĠMen":1522,"ĠMunicip":1523,"Ġ46":1524,"Ġyear":1525,"ama":1526,"ĠDemocrat":1527,"ĠBy":1528,"ountain":1529,"Ġ1995":1530,"55":1531,"ila":1532,"ka":1533,"mier":1534,"ĠGDP":1535,"Ġworld":1536,"ĠDistance":1537,"ĠWon":1538,"oth":1539,"ular":1540,"ource":1541,"ĠHead":1542,"ĠUniversity":1543,"39":1544,"ied":1545,"ĠSing":1546,"ĠTV":1547,"ĠThe":1548,"Ġsite":1549,"0000":1550,"Ġgu":1551,"ĠMarch":1552,"ĠEarnings":1553,"field":1554,"ĠSw":1555,"ĠAd":1556,"Ġ55":1557,"rad":1558,"illion":1559,"ĠClassification":1560,"ĠThird":1561,"Ġvictory":1562,"ustralia":1563,"CA":1564,"af":1565,"ĠTelev":1566,"Ġcount":1567,"Ġcarl":1568,"79":1569,"ĠAuthor":1570,"ĠCode":1571,"ana":1572,"orts":1573,"ouis":1574,"Ġmon":1575,"Ġpr":1576,"Ġbe":1577,"ett":1578,"Ġ71":1579,"Ġ1991":1580,"rice":1581,"ĠLaunch":1582,"air":1583,"ox":1584,"Ġol":1585,"ough":1586,"ccess":1587,"ĠTrack":1588,"Ġchampionship":1589,"ize":1590,"part":1591,"uss":1592,"Ġ@":1593,"ĠMens":1594,"ston":1595,"ĠGre":1596,"ĠEd":1597,"ĠMark":1598,"Ġwind":1599,"uts":1600,"ĠSu":1601,"ĠCurrent":1602,"ĠMin":1603,"ĠOr":1604,"Ġbonus":1605,"Ġ1992":1606,"Ġex":1607,"Ġracing":1608,"oint":1609,"ĠPar":1610,"ĠDes":1611,"ĠLat":1612,"Ġsan":1613,"las":1614,"lack":1615,"Ġcanad":1616,"Ġ43":1617,"ssue":1618,"ensus":1619,"ake":1620,"ĠPrix":1621,"ĠWomen":1622,"ĠOwner":1623,"ĠMunicipality":1624,"78":1625,"sc":1626,"ĠSouth":1627,"ĠActor":1628,"ĠApril":1629,"2011":1630,"Ġcomp":1631,"ray":1632,"yl":1633,"Ġtotal":1634,"ĠFebruary":1635,"ĠMas":1636,"Ġsl":1637,"lock":1638,"ances":1639,"ĠBuilt":1640,"32":1641,"ĠDav":1642,"Ġscor":1643,"Ġme":1644,"ota":1645,"eter":1646,"ago":1647,"Ġchar":1648,"ichael":1649,"ĠDecision":1650,"roadcast":1651,"89":1652,"mph":1653,"ĠNorth":1654,"anding":1655,"ĠChannel":1656,"ĠElection":1657,"Ġmanager":1658,"ve":1659,"view":1660,"ĠMHz":1661,"ĠMountain":1662,"ĠGe":1663,"illa":1664,"ull":1665,"vers":1666,"Ġhe":1667,"ĠMascot":1668,"40":1669,"ball":1670,"ha":1671,"red":1672,"ĠTor":1673,"Ġservice":1674,"Ġpre":1675,"Ġ37":1676,"Ġrecord":1677,"Ġyork":1678,"Ġmillions":1679,"ks":1680,"tra":1681,"ĠSport":1682,"ĠWorld":1683,"ERP":1684,"ald":1685,"Ġsw":1686,"eme":1687,"Ġlicense":1688,"Ġ1987":1689,"ĠRaces":1690,"2000":1691,"min":1692,"ani":1693,"Ġpart":1694,"ults":1695,"odes":1696,"Ġgame":1697,"48":1698,"ij":1699,"Ġab":1700,"ĠERP":1701,"ica":1702,"ĠOrd":1703,"ĠVal":1704,"und":1705,"ister":1706,"ĠHeat":1707,"ĠSpeed":1708,"59":1709,"Ġcor":1710,"ĠSem":1711,"ĠShip":1712,"ĠPh":1713,"ara":1714,"ars":1715,"ĠMay":1716,"Ġcoll":1717,"ĠPoles":1718,"Ġpm":1719,"Ġvotes":1720,"ĠJune":1721,"ĠAll":1722,"ĠPercentage":1723,"100":1724,"37":1725,"Ġan":1726,"ĠFlo":1727,"ĠField":1728,"ĠCFL":1729,"ĠLap":1730,"Ġbest":1731,"2010":1732,"ĠRepublican":1733,"going":1734,"lex":1735,"erem":1736,"ĠTerm":1737,"Ġsc":1738,"ico":1739,"icago":1740,"ĠPod":1741,"ĠYards":1742,"Ġwh":1743,"Ġwinner":1744,"club":1745,"oss":1746,"yn":1747,"ĠSource":1748,"ati":1749,"ĠOper":1750,"Ġ47":1751,"iana":1752,"antity":1753,"ĠAlbum":1754,"ĠOutgoing":1755,"resent":1756,"ĠCoach":1757,"US":1758,"Ġtor":1759,"ĠCuts":1760,"ĠGP":1761,"Ġgoal":1762,"erson":1763,"Ġ1989":1764,"ĠGround":1765,"acter":1766,"onto":1767,"ĠPrize":1768,"Ġrichmond":1769,"ATA":1770,"99":1771,"junior":1772,"Ġtournament":1773,"laced":1774,"Ġposition":1775,"Ġfoot":1776,"Ġaward":1777,"ander":1778,"endon":1779,"Ġhill":1780,"ident":1781,"62":1782,"88":1783,"uel":1784,"áĥ":1785,"Ġtom":1786,"ĠWest":1787,"ĠAs":1788,"ĠRoll":1789,"ĠMe":1790,"ĠMus":1791,"Ġmodel":1792,"ĠID":1793,"Ġ72":1794,"arter":1795,"ĠDecile":1796,"Ġprix":1797,"me":1798,"yle":1799,"ĠPts":1800,"Ġval":1801,"Ġstreet":1802,"Ġgroup":1803,"ĠAirport":1804,"ĠBuilder":1805,"ashington":1806,"limin":1807,"ĠTelevision":1808,"oice":1809,"ĠSk":1810,"ona":1811,"amb":1812,"Ġpl":1813,"ays":1814,"ung":1815,"ĠCont":1816,"ĠGenre":1817,"ĠMoving":1818,"60":1819,"but":1820,"ased":1821,"Ġ58":1822,"ĠIssue":1823,"ida":1824,"oston":1825,"onsor":1826,"urope":1827,"58":1828,"ĠâĢ":1829,"ones":1830,"ĠCensus":1831,"ics":1832,"ili":1833,"Ġ60":1834,"Ġ67":1835,"Ġchange":1836,"Ġdef":1837,"ĠLeading":1838,"Ġrunner":1839,"CAO":1840,"ĠPodium":1841,"cer":1842,"fl":1843,"ling":1844,"ya":1845,"ancy":1846,"ĠPeak":1847,"Ġscot":1848,"ĠOb":1849,"Ġ51":1850,"Ġ66":1851,"Ġinter":1852,"ower":1853,"Ġrep":1854,"ĠRole":1855,"ĠSpec":1856,"ĠByes":1857,"57":1858,"gram":1859,"ject":1860,"yst":1861,"Ġel":1862,"Ġess":1863,"ĠCenter":1864,"roy":1865,"thorn":1866,"Ġgerman":1867,"Ġhard":1868,"ues":1869,"ĠÐ":1870,"ĠPoll":1871,"ĠBe":1872,"Ġ52":1873,"Ġ73":1874,"96":1875,"inese":1876,"ano":1877,"ĠTy":1878,"olina":1879,"Ġ65":1880,"ĠResults":1881,"uper":1882,"Ġ1983":1883,"Ġ1986":1884,"ĠInterview":1885,"ĠWomens":1886,"alify":1887,"offs":1888,"ĠJoined":1889,"ĠDemocratic":1890,"46":1891,"The":1892,"Ġis":1893,"atio":1894,"anel":1895,"Ġsub":1896,"Ġbu":1897,"Ġbel":1898,"ĠWinners":1899,"uration":1900,"ĠQuantity":1901,"ĠAssists":1902,"94":1903,"ko":1904,"led":1905,"Ġtown":1906,"erry":1907,"ania":1908,"ĠPass":1909,"ĠTry":1910,"elong":1911,"Ġaustralia":1912,"ĠIATA":1913,"Ġjack":1914,"ush":1915,"ĠRuns":1916,"ĠShare":1917,"Ġnomination":1918,"ĠPerformer":1919,"HS":1920,"ger":1921,"lot":1922,"Ã¼":1923,"Ġcl":1924,"Ġpat":1925,"ise":1926,"ameter":1927,"ĠEst":1928,"Ġ53":1929,"ĠICAO":1930,"ĠStar":1931,"Ġjun":1932,"ĠGeneral":1933,"amily":1934,"Ġcarlton":1935,"ĠFloors":1936,"Ġgoals":1937,"Ġessendon":1938,"$)":1939,"90":1940,"back":1941,"Ġend":1942,"Ġused":1943,"Ġappoint":1944,"Ġhawthorn":1945,"parture":1946,"eff":1947,"ng":1948,"ĠWh":1949,"ĠFr":1950,"ĠAnd":1951,"ĠRate":1952,"itu":1953,"ican":1954,"Ġcent":1955,"Ġaf":1956,"Ġ57":1957,"Ġ63":1958,"Ġ64":1959,"ĠIHS":1960,"ĠInd":1961,"areer":1962,"ĠTheme":1963,"ydney":1964,"ĠOrder":1965,"bo":1966,"oo":1967,"ĠFL":1968,"Ġplace":1969,"ĠIs":1970,"Ġchicago":1971,"ĠLeft":1972,"ĠCompany":1973,"ĠElev":1974,"ĠUSD":1975,"ĠPodiums":1976,"Ġappointment":1977,"82":1978,"iro":1979,"ĠAge":1980,"onn":1981,"ening":1982,"ĠTou":1983,"alt":1984,"icles":1985,"ations":1986,"Ġbill":1987,"Ġdes":1988,"Ġfin":1989,"ural":1990,"Ġ74":1991,"Ġjo":1992,"ersey":1993,"ĠJuly":1994,"ĠRegular":1995,"Ġrace":1996,"ixed":1997,"ornia":1998,"ĠInternational":1999,"alifornia":2000,"exas":2001,"ĠAgg":2002,"ĠIHSAA":2003,"br":2004,"billion":2005,"my":2006,"pm":2007,"Ġclay":2008,"uns":2009,"ĠRanking":2010,"rica":2011,"osing":2012,"Ġ1988":2013,"ĠCharacter":2014,"ĠLosing":2015,"vious":2016,"Ġcanada":2017,"80":2018,"Att":2019,"bin":2020,"ĠSoc":2021,"ĠWork":2022,"ĠCy":2023,"Ġmil":2024,"Ġpaul":2025,"ĠVers":2026,"Ġ59":2027,"ures":2028,"Ġjim":2029,"Ġvac":2030,"ĠSeats":2031,"ansas":2032,"area":2033,"2009":2034,"Ġgeelong":2035,"Ġdavid":2036,"Ġoffice":2037,"ĠSwim":2038,"eremony":2039,"54":2040,"ech":2041,"ky":2042,"Â°":2043,"ĠAug":2044,"oria":2045,"ĠDensity":2046,"omas":2047,"ĠGross":2048,"ĠBroadcast":2049,"Ġfri":2050,"urs":2051,"Ġ75":2052,"Ġred":2053,"ĠJapan":2054,"Ġuniversity":2055,"ĠLongitude":2056,"cri":2057,"del":2058,"hold":2059,"kW":2060,"ma":2061,"year":2062,"ĠAmer":2063,"ere":2064,"ĠMax":2065,"ĠTeams":2066,"Ġ56":2067,"Ġwilliam":2068,"ĠStud":2069,"Ġhouse":2070,"Ġ1985":2071,"Ġleague":2072,"phia":2073,"ĠReplaced":2074,"ĠExtra":2075,"etroit":2076,"scray":2077,"uc":2078,"ĠDates":2079,"ingwood":2080,"ender":2081,"Ġhigh":2082,"ĠChinese":2083,"Ġmark":2084,"ĠOffic":2085,"cription":2086,"91":2087,"bor":2088,"ces":2089,"gar":2090,"iod":2091,"iameter":2092,"mon":2093,"ÃŃ":2094,"Ġest":2095,"Ġarea":2096,"ĠAugust":2097,"ĠPres":2098,"Ġboston":2099,"ĠBow":2100,"irt":2101,"Ġres":2102,"Ġlouis":2103,"Ġairdate":2104,"Ġwestern":2105,"ĠLatitude":2106,"Ġcollingwood":2107,"Ġfootscray":2108,"56":2109,"87":2110,"BA":2111,"aff":2112,"ron":2113,"zz":2114,"ĠSub":2115,"itch":2116,"ĠBill":2117,"urn":2118,"phy":2119,"Ġ]":2120,"Ġà":2121,"ĠAAA":2122,"ants":2123,"ĠLand":2124,"Ġbay":2125,"Ġbob":2126,"oto":2127,"Ġfee":2128,"Ġincome":2129,"Ġ80":2130,"arden":2131,"Ġ1984":2132,"owns":2133,"ĠRunners":2134,"lers":2135,"ĠPremier":2136,"ockey":2137,"lorida":2138,"ĠÂ£":2139,"ĠAuthority":2140,"Ġgermany":2141,".)":2142,"42":2143,"cl":2144,"over":2145,"erland":2146,"Ġcd":2147,"ĠPlayoffs":2148,"Ġ62":2149,"ester":2150,"ridge":2151,"ĠConstitu":2152,"azz":2153,"ilda":2154,"itzroy":2155,"iladel":2156,"Ġvacancy":2157,"ĠConstituency":2158,"iladelphia":2159,"86":2160,"92":2161,"ht":2162,"mary":2163,"mith":2164,"pl":2165,"Ġall":2166,"ĠPat":2167,"ĠTro":2168,"Ġ61":2169,"ody":2170,"ountry":2171,"Ġking":2172,"ifinal":2173,"Ġ1980":2174,"ĠCalls":2175,"Ġcapita":2176,"47":2177,"Le":2178,"ban":2179,"na":2180,"ĠSer":2181,"ĠAb":2182,"ĠLi":2183,"Ġspe":2184,"Ġmatch":2185,"Ġmont":2186,"ĠBl":2187,"ĠRev":2188,"Ġloc":2189,"ĠVisiting":2190,"eve":2191,"Ġscorer":2192,"con":2193,"fc":2194,"ming":2195,"ĠSan":2196,"ĠPenn":2197,"ĠMiss":2198,"Ġmart":2199,"Ġmag":2200,"Ġ76":2201,"use":2202,"Ġkilda":2203,"Ġlap":2204,"nesota":2205,"ĠNominee":2206,"ĠâĪļ":2207,"ĠMountains":2208,"ĠOfficial":2209,"ii":2210,"ĠX":2211,"Ġital":2212,"ĠWeb":2213,"ert":2214,"ĠPort":2215,"ĠDuration":2216,"Ġcenter":2217,"ott":2218,"ĠOpposing":2219,"ĠRock":2220,"ĠScored":2221,"Ġtournaments":2222,"ĠSkip":2223,"ĠSocial":2224,"League":2225,"500":2226,"dition":2227,"eh":2228,"gr":2229,"place":2230,"Ġem":2231,"Ġart":2232,"ince":2233,"rie":2234,"ĠHor":2235,"ĠVotes":2236,"Ġgen":2237,"ĠSte":2238,"ĠInt":2239,"iff":2240,"ĠHighest":2241,"Ġ1981":2242,"Ġ1982":2243,"Ġatl":2244,"Ġprodu":2245,"ĠDavid":2246,"ĠStarts":2247,"ĠCallsign":2248,"51":2249,"TV":2250,"ny":2251,"qmi":2252,"errit":2253,"oul":2254,"Ġport":2255,"oung":2256,"Ġfitzroy":2257,"Ġwashington":2258,"ĠRounds":2259,"Ġchrist":2260,"Ġ$)":2261,"ĠElector":2262,"Ġfrance":2263,"ĠValue":2264,"mission":2265,"ymp":2266,"ĠPrice":2267,"ĠRom":2268,"ĠMixed":2269,"ster":2270,"Ġsch":2271,"Ġmas":2272,"Ġmember":2273,"ison":2274,"Ġbuil":2275,"ĠEl":2276,"ots":2277,"Ġferr":2278,"irgin":2279,"imes":2280,"ĠDeath":2281,"ĠEpisodes":2282,"ĠPrevious":2283,"Ġgreen":2284,"ĠOffice":2285,"Ġnominated":2286,"ĠPasseng":2287,"ĠVersion":2288,"Ġfriend":2289,"ĠJapanese":2290,"Ã¶":2291,"Ġtrans":2292,"ĠAct":2293,"ination":2294,"ĠPanel":2295,"ĠNFL":2296,"ents":2297,"Ġmast":2298,"reak":2299,"chd":2300,"ĠVol":2301,"Ġwal":2302,"ado":2303,"Ġjames":2304,"ickets":2305,"ĠChange":2306,"ĠEvening":2307,"oper":2308,"ĠAirdate":2309,"ĠPlat":2310,"Ġwindow":2311,"93":2312,"Country":2313,"gate":2314,"va":2315,"ĠSuper":2316,"ĠAff":2317,"orge":2318,"alle":2319,"ĠList":2320,"ĠGuest":2321,"ĠPop":2322,"ĠHouse":2323,"berg":2324,"Ġwar":2325,"Ġhar":2326,"ĠEnd":2327,"ĠProd":2328,"Ġform":2329,"Ġ1979":2330,"Ġvictoria":2331,"ccessor":2332,"Ġtoronto":2333,"ĠMusic":2334,"Junior":2335,"fa":2336,"uk":2337,"Â·":2338,"ĠÃ":2339,"ĠSc":2340,"Ġtra":2341,"Ġcategory":2342,"Ġmot":2343,"Ġmike":2344,"Ġbl":2345,"Ġben":2346,"Ġdensity":2347,"ĠRec":2348,"ĠRebounds":2349,"Ġ78":2350,"Ġhc":2351,"ĠSeptember":2352,"ĠJersey":2353,"ĠkW":2354,"osed":2355,"Ġeast":2356,"Ġdeath":2357,"Ġdeparture":2358,"alen":2359,"ĠRoad":2360,"burg":2361,"ĠMcC":2362,"Ġguard":2363,"Ġolymp":2364,"ylv":2365,"63":2366,"Ceremony":2367,"bs":2368,"ole":2369,"Ã³":2370,"ãģ":2371,"ĠCaps":2372,"rian":2373,"Ġblack":2374,"Ġft":2375,"ĠVac":2376,"ourse":2377,"Ġkn":2378,"ally":2379,"anta":2380,"rown":2381,"erved":2382,"ustralian":2383,"Ġqualify":2384,"Ġengland":2385,"ĠTorque":2386,"ĠTouchd":2387,"Ġferrari":2388,"53":2389,"61":2390,"97":2391,"gs":2392,"suit":2393,"Ġ*":2394,"ĠSen":2395,"lement":2396,"ĠProm":2397,"alo":2398,"ĠDraft":2399,"ĠMil":2400,"Ġdivision":2401,"ĠReason":2402,"pper":2403,"ury":2404,"Ġ08":2405,"emp":2406,"idd":2407,"Ġrate":2408,"ĠColor":2409,"ĠBranding":2410,"Ġwins":2411,"ĠCaptain":2412,"ceded":2413,"Ġmcg":2414,"ĠGreen":2415,"ĠSwimsuit":2416,"83":2417,"kes":2418,"of":2419,"ty":2420,"Ð¾":2421,"Ġ.":2422,"ini":2423,"ĠCent":2424,"ĠPur":2425,"ĠLicense":2426,"ĠNe":2427,"ility":2428,"ask":2429,"ĠElimin":2430,"Ġdetroit":2431,"ĠBlock":2432,"che":2433,"urt":2434,"Ġstro":2435,"ova":2436,"Ġdec":2437,"Ġ1974":2438,"Ġ1977":2439,"Ġlake":2440,"ĠManner":2441,"ĠâĪĴ":2442,"Ġinternational":2443,"ĠSpecies":2444,"Attendance":2445,"ĠStudio":2446,"ae":2447,"lation":2448,"pend":2449,"ula":2450,"Ġant":2451,"ĠSun":2452,"ĠWilliam":2453,"ĠAc":2454,"ĠPil":2455,"ĠDiameter":2456,"ities":2457,"laide":2458,"Ġmus":2459,"Ġpol":2460,"Ġden":2461,"Ġfl":2462,"Ġact":2463,"andard":2464,"Ġjapan":2465,"Ġ90":2466,"osh":2467,"Ġ1971":2468,"dex":2469,"delaide":2470,"Ġcaptain":2471,"orgia":2472,"Ġfriendly":2473,"ĠTouchdowns":2474,"ga":2475,"Â¹":2476,"Ð°":2477,"Ġen":2478,"ĠWhe":2479,"Ġsize":2480,"Ġcont":2481,"Ġmor":2482,"Ġmichael":2483,"Ġbru":2484,"ĠReact":2485,"Ġalex":2486,"Ġgold":2487,"articles":2488,"Ġste":2489,"Ġev":2490,"ensive":2491,"ĠDebut":2492,"Ġ1970":2493,"opa":2494,"Ġ1966":2495,"lished":2496,"enness":2497,"ancis":2498,"Ġspain":2499,"ĠCatalogue":2500,"Ġphiladelphia":2501,"ĠDesign":2502,"ystem":2503,"ĠPlatform":2504,"Ġhcards":2505,"81":2506,"OT":2507,"Åį":2508,"à®":2509,"ĠSol":2510,"ĠCl":2511,"ĠGender":2512,"real":2513,"earances":2514,"unt":2515,"Ġstart":2516,"ows":2517,"ians":2518,"Ġrobert":2519,"order":2520,"ĠCapital":2521,"ĠRepresent":2522,"ĠTrain":2523,"leted":2524,"Ġslam":2525,"istered":2526,"ĠRevenue":2527,"erritory":2528,"ennessee":2529,"43":2530,"bit":2531,"ker":2532,"lb":2533,"oor":2534,"sen":2535,"za":2536,"Ġri":2537,"Ġann":2538,"Ġtr":2539,"erg":2540,"ata":2541,"Ġcal":2542,"ria":2543,"ĠEast":2544,"ĠEurope":2545,"Ġnick":2546,"Ġag":2547,"Ġvs":2548,"ĠNational":2549,"onda":2550,"Ġ1978":2551,"Ġorig":2552,"ĠCandidate":2553,"ĠChampionships":2554,"ĠRacing":2555,"ajor":2556,"version":2557,"iliation":2558,"overn":2559,"Ġartist":2560,"irginia":2561,"rick":2562,"Ġry":2563,"Ġze":2564,"Ġtig":2565,"ĠFamily":2566,"erb":2567,"aning":2568,"aland":2569,"ĠMal":2570,"iter":2571,"str":2572,"ĠLar":2573,"Ġcle":2574,"Ġdid":2575,"ĠBB":2576,"ctric":2577,"Ġfre":2578,"urch":2579,"ĠUnd":2580,"ample":2581,"mentator":2582,"Ġ1976":2583,"Ġengine":2584,"ca":2585,"dom":2586,"play":2587,"site":2588,"ura":2589,"Ġer":2590,"Ġath":2591,"Ġout":2592,"ĠWater":2593,"ĠFC":2594,"iny":2595,"orial":2596,"ĠPark":2597,"ĠMain":2598,"ĠNat":2599,"Ġsa":2600,"Ġsun":2601,"Ġmed":2602,"rest":2603,"Ġpeter":2604,"Ġbrit":2605,"Ġdal":2606,"Ġav":2607,"Ġaverage":2608,"ume":2609,"igan":2610,"ĠIt":2611,"Ġgra":2612,"Ġglen":2613,"ĠUp":2614,"Ġroy":2615,"awa":2616,"Ġshare":2617,"Ġparty":2618,"Ġjunction":2619,"ĠElevation":2620,"52":2621,"be":2622,"get":2623,"iles":2624,"kn":2625,"olen":2626,"wo":2627,"wick":2628,"west":2629,"weight":2630,"Ġå":2631,"Ġrid":2632,"inn":2633,"Ġbirth":2634,"ĠYork":2635,"Ġdel":2636,"Ġfc":2637,"chester":2638,"Ġwat":2639,"Ġgames":2640,"ĠEnter":2641,"Ġchannel":2642,"Ġunion":2643,"angers":2644,"ĠArena":2645,"Ġyears":2646,"ĠSingles":2647,"ĠLaunched":2648,"ĠSemifinal":2649,"Ġmasters":2650,"ylvania":2651,"cm":2652,"final":2653,"ipp":2654,"opp":2655,"oft":2656,"à´":2657,"Ġes":2658,"Ġim":2659,"ĠService":2660,"ĠSize":2661,"ĠAm":2662,"ĠCareer":2663,"ĠCourse":2664,"ĠDoubles":2665,"ĠMichael":2666,"ĠNames":2667,"Ġmen":2668,"Ġmad":2669,"Ġmich":2670,"ira":2671,"Ġac":2672,"ief":2673,"Ġchris":2674,"ension":2675,"ĠDevel":2676,"ustin":2677,"ĠWinnings":2678,"Ġ250":2679,"Ġ1967":2680,"ĠAnn":2681,"ĠNominated":2682,"Ġafrica":2683,"Ġitaly":2684,"ĠEliminated":2685,"41":2686,"PP":2687,"gan":2688,"iet":2689,"kw":2690,"sylvania":2691,"we":2692,"ys":2693,"Ġæ":2694,"ĠFle":2695,"ink":2696,"allen":2697,"ĠRatio":2698,"ĠGT":2699,"ĠGar":2700,"ĠHD":2701,"Ġma":2702,"Ġdu":2703,"ĠBike":2704,"Ġfe":2705,"Ġfirst":2706,"Ġnor":2707,"Ġactor":2708,"pport":2709,"iga":2710,"Ġ500":2711,"Ġwood":2712,"Ġguest":2713,"Ġ79":2714,"Ġruss":2715,"ĠJockey":2716,"ife":2717,"tern":2718,"ondon":2719,"ĠElected":2720,"ouple":2721,"Ġfrank":2722,"Ġamer":2723,"ĠMedian":2724,"Ġminnesota":2725,"Ġpremier":2726,"AR":2727,"Final":2728,"ected":2729,"hz":2730,"ji":2731,"men":2732,"rs":2733,"ĠScot":2734,"ablished":2735,"ĠTD":2736,"ĠRober":2737,"oma":2738,"ĠGain":2739,"rival":2740,"Ġpe":2741,"Ġpan":2742,"olf":2743,"Ġbra":2744,"ĠVilla":2745,"Ġ77":2746,"Ġheld":2747,"Ġ88":2748,"Ġepis":2749,"ĠProgram":2750,"ave":2751,"Ġ1973":2752,"ĠPeriod":2753,"ĠAppearances":2754,"ĠCoast":2755,"Ġadmin":2756,"attle":2757,"burgh":2758,"ĠPerformance":2759,"Ġchampionships":2760,"Ġscott":2761,"Ġmontreal":2762,"known":2763,"ĠEntered":2764,"SI":2765,"ja":2766,"ms":2767,"ym":2768,"ĠFl":2769,"Ġ1000":2770,"ĠTexas":2771,"oming":2772,"eden":2773,"Ġcalifornia":2774,"Ġpal":2775,"Ġprice":2776,"olog":2777,"Ġfm":2778,"gest":2779,"Ġlu":2780,"ĠLocal":2781,"Ġ97":2782,"aker":2783,"Ġlee":2784,"Ġpoint":2785,"ĠClubs":2786,"Ġ1964":2787,"ĠManager":2788,"Ġplayed":2789,"other":2790,"ĠPassengers":2791,"ĠAffiliation":2792,"St":2793,"Up":2794,"dress":2795,"oen":2796,"ta":2797,"Ġversion":2798,"ĠSch":2799,"ĠFour":2800,"ĠFall":2801,"ĠAf":2802,"ĠCor":2803,"ĠPct":2804,"ĠRd":2805,"ĠMot":2806,"icle":2807,"Ġche":2808,"Ġmer":2809,"Ġpower":2810,"Ġfat":2811,"Ġfield":2812,"rook":2813,"Ġnational":2814,"Ġgar":2815,"ada":2816,"estant":2817,"ĠConceded":2818,"Ġunknown":2819,"Ġ1968":2820,"Ġfred":2821,"Ġmillion":2822,"ĠPresident":2823,"imeslot":2824,"ĠListed":2825,"ao":2826,"fe":2827,"gers":2828,"hio":2829,"ns":2830,"win":2831,"Ġenter":2832,"ĠSn":2833,"ĠFoot":2834,"ines":2835,"enz":2836,"anic":2837,"ams":2838,"ĠPack":2839,"ĠTom":2840,"ĠRich":2841,"ste":2842,"Ġsim":2843,"Ġsmith":2844,"last":2845,"Ġbre":2846,"Ġback":2847,"ĠYoung":2848,"ĠEp":2849,"Ġday":2850,"ĠBlack":2851,"Ġflorida":2852,"Ġne":2853,"imb":2854,"Ġhonda":2855,"Ġ89":2856,"Ġlist":2857,"ĠJud":2858,"Ġ95":2859,"Ġ98":2860,"Ġ99":2861,"Ġkar":2862,"ĠUK":2863,"ified":2864,"ĠProf":2865,"Ġreg":2866,"ĠIncome":2867,"Ġ1975":2868,"Ġ1969":2869,"Ġarena":2870,"Ġcarolina":2871,"ĠPrimary":2872,"Ġprof":2873,"inois":2874,"Ġprinc":2875,"Ġwindy":2876,"Ġwilliams":2877,"Ġzealand":2878,"ĠFleet":2879,"den":2880,"draw":2881,"lov":2882,"rban":2883,"Ġone":2884,"Ġque":2885,"ĠCle":2886,"ĠTon":2887,"ĠML":2888,"ĠMelbourne":2889,"rag":2890,"Ġhost":2891,"apol":2892,"Ġ93":2893,"ival":2894,"Ġrele":2895,"right":2896,"ĠBrit":2897,"ĠConstell":2898,"2002":2899,"Ġ1950":2900,"ĠAssets":2901,"aniel":2902,"ĠAmerican":2903,"ĠConstellation":2904,"GC":2905,"cial":2906,"hab":2907,"oon":2908,"sk":2909,"Ġiv":2910,"Ĥ¬":2911,"Ġtest":2912,"ĠFe":2913,"inence":2914,"ĠCouple":2915,"ĠDen":2916,"ĠRed":2917,"ĠMake":2918,"itts":2919,"stru":2920,"ouston":2921,"Ġsydney":2922,"Ġcos":2923,"Ġmem":2924,"Ġpet":2925,"ĠPlacing":2926,"ĠBel":2927,"beral":2928,"ĠStyle":2929,"Ġvan":2930,"Ġ81":2931,"Ġlos":2932,"Ġ102":2933,"ĠSeasons":2934,"Ġret":2935,"ĠOrigin":2936,"ffalo":2937,"ĠProducer":2938,"ĠFree":2939,"Ġperform":2940,"ĠUnit":2941,"ĠCover":2942,"ĠOpened":2943,"ĠSuccessor":2944,"ĠTyre":2945,"Ġhousehold":2946,"ĠProminence":2947,"oenix":2948,"ĠFootball":2949,"fold":2950,"lication":2951,"mun":2952,"ãĥ":2953,"Ġir":2954,"Ġange":2955,"Ġarden":2956,"Ġorder":2957,"ĠSim":2958,"ĠSatur":2959,"Ġtim":2960,"erati":2961,"ĠPaul":2962,"arian":2963,"ĠLouis":2964,"lah":2965,"ĠGra":2966,"ĠEcon":2967,"ĠBall":2968,"ĠBody":2969,"Ġover":2970,"ump":2971,"ĠOpposition":2972,"Ġ09":2973,"Ġray":2974,"Ġ84":2975,"Ġsteve":2976,"Ġlost":2977,"ĠJazz":2978,"Ġ91":2979,"Ġbye":2980,"ĠWeekly":2981,"utes":2982,"Ġ125":2983,"Ġchina":2984,"ĠCondition":2985,"Ġ1972":2986,"ĠArch":2987,"Ġrock":2988,"ather":2989,"Ġ1961":2990,"Ġ1965":2991,"ĠShirt":2992,"ĠExp":2993,"ĠBuild":2994,"exico":2995,"ĠOthers":2996,"Ġindian":2997,"oseph":2998,"ĠCyril":2999,"Ġspeed":3000,"ĠHorse":3001,"Ġolympic":3002,"ancisco":3003,"ĠDeveloper":3004,"Ġprinces":3005,"AM":3006,"ES":3007,"II":3008,"In":3009,"cons":3010,"li":3011,"ola":3012,"ring":3013,"ves":3014,"well":3015,"Å¡":3016,"ĠSign":3017,"ĠSydney":3018,"ĠAustralian":3019,"ene":3020,"ĠPub":3021,"ĠTies":3022,"ĠRnd":3023,"Ġ(Â":3024,"Ġshe":3025,"lad":3026,"ĠGovern":3027,"Ġcred":3028,"ĠHand":3029,"Ġmy":3030,"Ġmax":3031,"ears":3032,"rop":3033,"ulgar":3034,"Ġwe":3035,"ĠId":3036,"Ġgian":3037,"ĠStreak":3038,"Ġhen":3039,"Ġvote":3040,"Ġ82":3041,"Ġ83":3042,"Ġ85":3043,"ours":3044,"Ġloss":3045,"ĠChurch":3046,"Ġ101":3047,"ipi":3048,"ĠComb":3049,"ove":3050,"ĠKick":3051,"Ġlead":3052,"Ġpopulation":3053,"2005":3054,"Ġ1958":3055,"ĠReleased":3056,"Ġsponsor":3057,"elected":3058,"Ġjohnson":3059,"ĠMarket":3060,"Ġcharles":3061,"ĠCenterfold":3062,"ĠEstablished":3063,"ĠIsland":3064,"Ġraceway":3065,"echn":3066,"Ġbuilt":3067,"Ġstrokes":3068,"Ġadministered":3069,"ittsburgh":3070,"ĠCyrillic":3071,"AL":3072,"aa":3073,"cos":3074,"han":3075,"ship":3076,"Ðµ":3077,"ĠWickets":3078,"ĠDest":3079,"ĠDown":3080,"ĠMission":3081,"Ġcons":3082,"ĠEqu":3083,"Ġdon":3084,"ĠBo":3085,"ĠBle":3086,"ĠBas":3087,"ĠBob":3088,"etres":3089,"rodu":3090,"ĠStreet":3091,"Ġ07":3092,"Ġjones":3093,"emb":3094,"ultural":3095,"ĠJim":3096,"ĠJack":3097,"Ġke":3098,"Ġ107":3099,"ific":3100,"loy":3101,"acht":3102,"ĠChampions":3103,"2006":3104,"2008":3105,"Ġthomas":3106,"ĠConstruction":3107,"ĠCarolina":3108,"ĠSett":3109,"ĠMedal":3110,"atural":3111,"uckland":3112,"Ġhawks":3113,"ĠSemi":3114,"affected":3115,"erlands":3116,"ĠSerial":3117,"Ġlocal":3118,"ĠSocialist":3119,"Ġmaserati":3120,"ĠVacator":3121,"inyin":3122,"ĠPackage":3123,"Ġrelease":3124,"IS":3125,"Sh":3126,"aug":3127,"mark":3128,"pg":3129,"put":3130,"ration":3131,"vent":3132,"Äĩ":3133,"Ġver":3134,"ĠAdelaide":3135,"ĠCanad":3136,"amed":3137,"arm":3138,"ĠRight":3139,"Ġ($)":3140,"ĠNon":3141,"Ġsam":3142,"lav":3143,"ĠGu":3144,"cha":3145,"Ġho":3146,"Ġham":3147,"Ġjan":3148,"arters":3149,"idth":3150,"Ġratio":3151,"ages":3152,"aryland":3153,"Ġchoice":3154,"Ġairport":3155,"ople":3156,"2007":3157,"enny":3158,"etherlands":3159,"ĠSponsor":3160,"Ġcommentator":3161,"iami":3162,"Ã¡n":3163,"Ġconstru":3164,"ĠObama":3165,"Ġkingdom":3166,"EO":3167,"com":3168,"dy":3169,"line":3170,"rpm":3171,"utt":3172,"ware":3173,"à¤":3174,"Ġtv":3175,"Ġtop":3176,"ĠCrew":3177,"ĠPet":3178,"ĠPinyin":3179,"ĠDance":3180,"ĠMem":3181,"ĠLine":3182,"ĠNor":3183,"Ġsk":3184,"eding":3185,"ĠGown":3186,"ĠGerman":3187,"Ġcr":3188,"Ġmal":3189,"rel":3190,"isp":3191,"Ġber":3192,"Ġdown":3193,"elson":3194,"ros":3195,"ĠStolen":3196,"iders":3197,"Ġrangers":3198,"Ġlab":3199,"ĠChrist":3200,"Ġ105":3201,"head":3202,"ipal":3203,"pect":3204,"Ġeurope":3205,"Ġdev":3206,"ments":3207,"Ġ1955":3208,"Ġ1959":3209,"ĠFinals":3210,"ĠPrinc":3211,"ĠProto":3212,"veland":3213,"ĠCommission":3214,"ĠEdition":3215,"Ġbelg":3216,"monton":3217,"placement":3218,"ĠItal":3219,"ĠScott":3220,"Ġangeles":3221,"ĠBleeding":3222,"kee":3223,"mitt":3224,"net":3225,"range":3226,"sqmi":3227,"zil":3228,"Ã¸":3229,"ĠSki":3230,"ĠSales":3231,"leans":3232,"ĠFuel":3233,"arn":3234,"ĠTour":3235,"ĠTonn":3236,"ĠDon":3237,"ĠDel":3238,"ĠRad":3239,"ĠMass":3240,"ouver":3241,"Ġsum":3242,"cel":3243,"rizz":3244,"Ġmi":3245,"Ġdan":3246,"Ġdie":3247,"ĠBack":3248,"ĠVote":3249,"rac":3250,"ĠIS":3251,"ador":3252,"Ġje":3253,"Ġlar":3254,"ĠChief":3255,"oward":3256,"ardin":3257,"ardinal":3258,"utch":3259,"Ġ113":3260,"aki":3261,"dust":3262,"2012":3263,"lando":3264,"ĠThurs":3265,"Ġ1956":3266,"ennis":3267,"Ġarg":3268,"oke":3269,"ancouver":3270,"Ġthis":3271,"centage":3272,"ĠRatings":3273,"ĠHeadqu":3274,"ĠDescription":3275,"ĠPremiere":3276,"ĠPennsylvania":3277,"Ġmartin":3278,"Ġatlanta":3279,"ĠMcCain":3280,"ĠSenior":3281,"ĠLargest":3282,"drawn":3283,"ĠSettlement":3284,"ĠTonnage":3285,"Team":3286,"cs":3287,"fm":3288,"ius":3289,"ilers":3290,"lies":3291,"por":3292,"ras":3293,"to":3294,"ven":3295,"worth":3296,"Ġtri":3297,"ĠWith":3298,"ero":3299,"ĠCopa":3300,"anch":3301,"amie":3302,"ĠPe":3303,"ĠPeter":3304,"alf":3305,"ĠRel":3306,"ĠMet":3307,"ĠMart":3308,"Ġ($":3309,"ĠLate":3310,"ĠNGC":3311,"Ġsant":3312,"Ġcas":3313,"ĠHar":3314,"Ġmiss":3315,"Ġbo":3316,"ayne":3317,"aylor":3318,"igital":3319,"Ġwil":3320,"Ġweek":3321,"sson":3322,"ĠStandard":3323,"Ġha":3324,"istan":3325,"Ġju":3326,"Ġ87":3327,"Ġstan":3328,"illions":3329,"Ġ103":3330,"ardo":3331,"ĠKn":3332,"Ġroad":3333,"Ġlaps":3334,"Ġground":3335,"Ġpercentage":3336,"Ġclassic":3337,"ĠPref":3338,"rench":3339,"00000000":3340,"ĠâĢĶ":3341,"ĠElectorate":3342,"ĠkWh":3343,"Ġrider":3344,"apolis":3345,"ĠBritish":3346,"ĠDestination":3347,"ĠPrincipal":3348,"TC":3349,"ba":3350,"car":3351,"fo":3352,"rol":3353,"ved":3354,"Ġang":3355,"Ġtur":3356,"Ġtexas":3357,"ĠWed":3358,"ĠFound":3359,"ĠFem":3360,"ĠAirc":3361,"era":3362,"ĠCast":3363,"ĠCalifornia":3364,"ench":3365,"ĠTues":3366,"ĠMa":3367,"Ġsand":3368,"ĠGEO":3369,"Ġcc":3370,"Ġpres":3371,"Ġbrown":3372,"Ġdem":3373,"Ġfa":3374,"Ġny":3375,"ĠVeh":3376,"Ġap":3377,"Ġaut":3378,"Ġ06":3379,"Ġrome":3380,"Ġrfc":3381,"Ġ92":3382,"ĠIndex":3383,"agles":3384,"ĠUrban":3385,"ĠTook":3386,"ĠBrand":3387,"Ġseats":3388,"ĠDeb":3389,"ĠDef":3390,"ĠMarri":3391,"ache":3392,"Ġlaw":3393,"Ġ1960":3394,"Ġ1963":3395,"ĠThomas":3396,"ĠShow":3397,"Ġ1954":3398,"mercial":3399,"Ġprogram":3400,"Ġasc":3401,"Ġgreg":3402,"ildren":3403,"ĠLoser":3404,"aji":3405,"ucky":3406,"oys":3407,"ĠLatin":3408,"Ġmeaning":3409,"Ġrecords":3410,"Ġsweden":3411,"Ġisland":3412,"ĠPurse":3413,"Ġdallas":3414,"ĠEconom":3415,"ĠIdent":3416,"rizzlies":3417,"ĠHeadquarters":3418,"ĠAircraft":3419,"Option":3420,"ees":3421,"ges":3422,"oph":3423,"ran":3424,"Ã¤":3425,"ĠÎ":3426,"Ġent":3427,"less":3428,"eria":3429,"ining":3430,"ĠTur":3431,"ĠMint":3432,"sted":3433,"ĠLy":3434,"ĠNum":3435,"Ġsur":3436,"Ġcb":3437,"Ġcareer":3438,"ĠOct":3439,"Ġmac":3440,"Ġmcc":3441,"rey":3442,"Ġpeak":3443,"Ġpittsburgh":3444,"ĠBin":3445,"ĠBig":3446,"ĠBonus":3447,"Ġfif":3448,"Ġ05":3449,"Ġjeff":3450,"Ġli":3451,"ĠJeff":3452,"Ġ94":3453,"Ġ96":3454,"Ġkim":3455,"ĠWeeks":3456,"Ġ120":3457,"Ġ150":3458,"ĠKe":3459,"2013":3460,"Ġrob":3461,"ĠFinale":3462,"ĠUnited":3463,"aha":3464,"Ġaddress":3465,"atting":3466,"Ġcolor":3467,"Ġqual":3468,"bury":3469,"Ġphoenix":3470,"amilton":3471,"reek":3472,"Ġcounty":3473,"Ġwhite":3474,"Ġawards":3475,"ĠContent":3476,"ĠContestant":3477,"Ġdefensive":3478,"Ġscotland":3479,"ĠWheel":3480,"ĠSnatch":3481,"Ġ(Â£":3482,"Ġconstructor":3483,"bre":3484,"cus":3485,"gy":3486,"gary":3487,"ias":3488,"kansas":3489,"titude":3490,"uri":3491,"yr":3492,"Ð½":3493,"à¦":3494,"ãĤ":3495,"Ġay":3496,"ĠSa":3497,"ĠSm":3498,"ĠWe":3499,"ĠFrench":3500,"ĠAcc":3501,"inas":3502,"anz":3503,"anish":3504,"ĠTar":3505,"ĠTimeslot":3506,"ala":3507,"ional":3508,"ĠNatural":3509,"entucky":3510,"Ġcurrent":3511,"riots":3512,"rett":3513,"regate":3514,"Ġbb":3515,"Ġbroadcast":3516,"ĠYacht":3517,"Ġdis":3518,"Ġdifference":3519,"Ġdays":3520,"ĠBush":3521,"Ġfamily":3522,"una":3523,"thony":3524,"imate":3525,"Ġgain":3526,"Ġhome":3527,"ights":3528,"Ġvancouver":3529,"idence":3530,"Ġrom":3531,"Ġ86":3532,"Ġstage":3533,"aint":3534,"ĠLevel":3535,"Ġreport":3536,"ĠCons":3537,"ques":3538,"aka":3539,"Ġyam":3540,"umbia":3541,"avy":3542,"ackle":3543,"ĠQuest":3544,"Ġrod":3545,"romb":3546,"achus":3547,"2003":3548,"Ġrad":3549,"ĠFinalist":3550,"ĠPrelimin":3551,"rish":3552,"ization":3553,"rama":3554,"ĠJoe":3555,"ĠÂ°":3556,"Ġcountry":3557,"ĠToronto":3558,"Ġvalue":3559,"Ġcentre":3560,"Ġjoe":3561,"Ġmotors":3562,"opposed":3563,"ĠFourth":3564,"ardinia":3565,"ĠMintage":3566,"Ġqualification":3567,"UK":3568,"cats":3569,"list":3570,"sp":3571,"uch":3572,"à¸":3573,"ĠSC":3574,"ĠSam":3575,"ĠSack":3576,"Ġter":3577,"Ġtony":3578,"Ġtennessee":3579,"Ġtackle":3580,"ĠCross":3581,"ĠPitch":3582,"ĠMag":3583,"ites":3584,"ĠLM":3585,"ĠNBA":3586,"Ġsf":3587,"laps":3588,"Ġcast":3589,"ĠOn":3590,"ĠOne":3591,"Ġmat":3592,"Ġmel":3593,"Ġmap":3594,"ret":3595,"oli":3596,"olong":3597,"Ġborn":3598,"ĠEmp":3599,"Ġdemocrat":3600,"ĠBatting":3601,"ette":3602,"aya":3603,"Ġwork":3604,"raig":3605,"ĠWind":3606,"Ġvilla":3607,"ĠChris":3608,"ĠJames":3609,"ĠIndust":3610,"owa":3611,"estival":3612,"ĠEnt":3613,"ĠPartial":3614,"Ġsecond":3615,"Ġford":3616,"Ġatt":3617,"ĠQuarter":3618,"ĠExample":3619,"ocket":3620,"Ġcapital":3621,"Ġcollege":3622,"Ġii":3623,"ĠDisplacement":3624,"ĠOrlando":3625,"Ġjackson":3626,"lotte":3627,"ĠBowl":3628,"ĠWebsite":3629,"Ġgeneral":3630,"ĠDeaths":3631,"ĠRepresentative":3632,"Ġorigin":3633,"ĠBBC":3634,"allenge":3635,"ĠRobert":3636,"ĠVillage":3637,"ĠVehicle":3638,"Ġcolorado":3639,"ĠQuestions":3640,"olonged":3641,"GS":3642,"Territory":3643,"ien":3644,"mit":3645,"pool":3646,"uj":3647,"Äģ":3648,"Ð¸":3649,"à²":3650,"Ġtak":3651,"Ġterm":3652,"ĠFri":3653,"ario":3654,"ali":3655,"ĠRuss":3656,"ĠMost":3657,"stone":3658,"oug":3659,"Ġsem":3660,"Ġsport":3661,"Ġmexico":3662,"Ġmpg":3663,"Ġpenn":3664,"Ġbrad":3665,"Ġbillion":3666,"ĠBen":3667,"ĠBor":3668,"Ġfree":3669,"Ġ400":3670,"âĢ²":3671,"âĢĻ":3672,"Ġjul":3673,"Ġjac":3674,"Ġlo":3675,"Ġlong":3676,"Ġkardinia":3677,"ips":3678,"ute":3679,"pec":3680,"ivil":3681,"iano":3682,"Ġrece":3683,"ĠKar":3684,"Ġforward":3685,"ĠDrivers":3686,"pular":3687,"acher":3688,"Ġ1962":3689,"Ġ1951":3690,"Ġ1957":3691,"ĠRoy":3692,"ĠMonth":3693,"depend":3694,"ervative":3695,"Ġfrench":3696,"Ġusa":3697,"Ġgreat":3698,"Ġquarter":3699,"Ġuk":3700,"Ġufc":3701,"ĠPlate":3702,"Ġrichard":3703,"ĠMeet":3704,"Ġbuffalo":3705,"Ã¼r":3706,"ĠFrank":3707,"ĠAggregate":3708,"ĠWorks":3709,"borough":3710,"alent":3711,"ĠPilot":3712,"Ġryan":3713,"Ġmichigan":3714,"ĠAnnual":3715,"ĠGarfield":3716,"ĠProgramming":3717,"Ġgiants":3718,"ispanic":3719,"rangement":3720,"Ġsummer":3721,"Ar":3722,"Eng":3723,"Reg":3724,"for":3725,"hl":3726,"ience":3727,"kov":3728,"mo":3729,"xx":3730,"Ġup":3731,"ĠST":3732,"Ġte":3733,"Ġtal":3734,"Ġtre":3735,"Ġtro":3736,"ĠWal":3737,"ĠAustralia":3738,"ĠAuckland":3739,"ĠPen":3740,"ĠTechn":3741,"ĠDigital":3742,"stic":3743,"esp":3744,"oute":3745,"Ġsky":3746,"Ġsqmi":3747,"ĠOld":3748,"Ġmatt":3749,"ĠYES":3750,"Ġdam":3751,"Ġdick":3752,"etts":3753,"rovince":3754,"cher":3755,"Ġnamed":3756,"ĠVerb":3757,"unc":3758,"ando":3759,"Ġwing":3760,"imal":3761,"imore":3762,"istrat":3763,"istration":3764,"Ġjer":3765,"Ġvfl":3766,"Ġly":3767,"Ġ106":3768,"Ġ108":3769,"ireland":3770,"ishop":3771,"ĠDele":3772,"ĠThree":3773,"Ġ1953":3774,"ĠAppar":3775,"Ġseasons":3776,"Ġsports":3777,"ĠLeader":3778,"Ġgeorge":3779,"Ġgeorgia":3780,"Ġchampion":3781,"Ġcoach":3782,"Ġdave":3783,"ĠMedals":3784,"ĠCommun":3785,"Ġsupport":3786,"ĠAdmin":3787,"ĠOperator":3788,"anderers":3789,"ĠAsian":3790,"ledon":3791,"Ġcentral":3792,"Ġdesign":3793,"ĠBowling":3794,"ĠRockets":3795,"ĠSteals":3796,"Ġblue":3797,"ĠCentral":3798,"ĠBlocks":3799,"imbledon":3800,"ĠJudge":3801,"ĠCombined":3802,"Ġprograms":3803,"Ġascension":3804,"Ġfifa":3805,"achusetts":3806,"lapsed":3807,"istrative":3808,"ET":3809,"MW":3810,"Rank":3811,"SP":3812,"bane":3813,"cle":3814,"cal":3815,"iy":3816,"klah":3817,"mel":3818,"pet":3819,"ports":3820,"Ã±":3821,"ÑĢ":3822,"Ġriver":3823,"ĠSy":3824,"ĠSocket":3825,"Ġts":3826,"ĠWashington":3827,"ĠFlorida":3828,"ĠAlex":3829,"inch":3830,"ature":3831,"ĠCost":3832,"ĠTwo":3833,"ĠDet":3834,"ĠMich":3835,"ĠMike":3836,"Ġsen":3837,"Ġsal":3838,"Ġsystem":3839,"omot":3840,"Ġmiami":3841,"Ġda":3842,"Ġdar":3843,"Ġdrama":3844,"ella":3845,"ello":3846,"elly":3847,"ĠReal":3848,"ĠVirginia":3849,"omestic":3850,"Ġwill":3851,"urg":3852,"Ġ01":3853,"Ġhy":3854,"Ġhol":3855,"Ġhouston":3856,"Ġstar":3857,"Ġlin":3858,"Ġkore":3859,"ĠInv":3860,"Ġ112":3861,"Ġeuro":3862,"Ġeagles":3863,"101":3864,"ĠKit":3865,"anger":3866,"Ġros":3867,"ivery":3868,"ĠUnopposed":3869,"Ġthromb":3870,"ĠCarl":3871,"Ġfrancisco":3872,"risbane":3873,"ĠTranslation":3874,"ĠâĤ¬":3875,"Ġqf":3876,"ĠBarang":3877,"ĠDays":3878,"ĠMinister":3879,"ĠMinutes":3880,"Ġcompetition":3881,"ĠGeorgia":3882,"ĠObject":3883,"alifying":3884,"Ġpatriots":3885,"altimore":3886,"unswick":3887,"ĠTrophy":3888,"ĠIntrodu":3889,"Ġtranslation":3890,"ĠVolume":3891,"Ġdeaths":3892,"Ġtiger":3893,"Ġrussia":3894,"ĠKickoff":3895,"Share":3896,"Ġdemocratic":3897,"klahoma":3898,"211":3899,"Laps":3900,"ME":3901,"bar":3902,"cia":3903,"ho":3904,"hp":3905,"par":3906,"pson":3907,"uz":3908,"}}":3909,"Äį":3910,"Å«":3911,"Ġ'":3912,"Ġeth":3913,"ĠSab":3914,"Ġtech":3915,"ĠWil":3916,"ĠWord":3917,"ato":3918,"ĠCru":3919,"ĠCivil":3920,"ĠTri":3921,"ĠDo":3922,"ĠMor":3923,"esh":3924,"Ġser":3925,"Ġsong":3926,"ĠPost":3927,"rier":3928,"Ġmost":3929,"Ġps":3930,"Ġpass":3931,"Ġ300":3932,"ounc":3933,"ĠEr":3934,"ĠBand":3935,"Ġfern":3936,"Ġfox":3937,"Ġweb":3938,"Ġwales":3939,"imum":3940,"Ġger":3941,"Ġgary":3942,"ĠSteve":3943,"Ġ04":3944,"Ġhold":3945,"Ġinv":3946,"Ġvol":3947,"Ġkansas":3948,"ifier":3949,"Ġ111":3950,"osc":3951,"oser":3952,"Ġ180":3953,"ĠColors":3954,"ĠLegs":3955,"ampa":3956,"ffield":3957,"ĠCompleted":3958,"Ġandrew":3959,"phen":3960,"ferrie":3961,"ĠArrival":3962,"ika":3963,"ogra":3964,"ops":3965,"ĠPerth":3966,"rombin":3967,"athan":3968,"anny":3969,"ells":3970,"Ġelectric":3971,"Ġ1952":3972,"lisher":3973,"Ġalbert":3974,"Ġarrangement":3975,"ĠFormula":3976,"ĠPartnering":3977,"ailable":3978,"ĠLaid":3979,"letic":3980,"nesday":3981,"ĠProth":3982,"Ġphil":3983,"Ġplayer":3984,"ĠTownland":3985,"Ġmoney":3986,"ĠGeorge":3987,"ĠâĢ¢":3988,"ĠPolling":3989,"Ġsubject":3990,"Ġsubmission":3991,"ĠLiberal":3992,"ĠÃĹ":3993,"urtis":3994,"Ġanton":3995,"Ġmusic":3996,"Ġactress":3997,"ĠDesignation":3998,"stream":3999,"ĠUnder":4000,"Ġglenferrie":4001,"Ġamerican":4002,"ĠMLS":4003,"ĠCommissioned":4004,"Ġdiego":4005,"Ġyamaha":4006,"ĠEmploy":4007,"ĠAdministrative":4008,"ĠProthrombin":4009,"300":4010,"AC":4011,"AN":4012,"FA":4013,"FS":4014,"RT":4015,"Spec":4016,"VD":4017,"cu":4018,"da":4019,"east":4020,"har":4021,"haw":4022,"iÄĩ":4023,"kin":4024,"nic":4025,"oz":4026,"pin":4027,"uy":4028,"uff":4029,"wau":4030,"ÅĤ":4031,"ĠSystem":4032,"ĠSave":4033,"ĠAA":4034,"ĠAt":4035,"oni":4036,"ora":4037,"ĠTim":4038,"ĠDomestic":4039,"ĠRiver":4040,"itan":4041,"Ġ(/":4042,"ĠLu":4043,"ĠNC":4044,"ominal":4045,"Ġca":4046,"Ġcy":4047,"Ġmet":4048,"Ġdi":4049,"Ġdraw":4050,"ĠBats":4051,"Ġfed":4052,"chen":4053,"Ġacc":4054,"uman":4055,"ima":4056,"rain":4057,"ĠIll":4058,"odd":4059,"Ġgarden":4060,"ĠStory":4061,"apore":4062,"Ġvirginia":4063,"Ġline":4064,"Ġlondon":4065,"ĠJamie":4066,"Ġken":4067,"Ġ109":4068,"heim":4069,"ĠCommercial":4070,"ĠLeg":4071,"103":4072,"Ġleng":4073,"140":4074,"ierre":4075,"ĠFormer":4076,"Ġcommun":4077,"ĠNetfl":4078,"illed":4079,"ĠAssist":4080,"eva":4081,"Ġbrunswick":4082,"Ġ1948":4083,"ĠLoses":4084,"ĠBirthplace":4085,"ittle":4086,"ĠTownship":4087,"itzerland":4088,"Ġexp":4089,"Ġmagn":4090,"ground":4091,"Ġproduct":4092,"ĠRomaji":4093,"iddle":4094,"Ð¾Ð":4095,"Ġcleveland":4096,"Ġepisode":4097,"stein":4098,"Ġhouseholds":4099,"ĠSaturday":4100,"Ġconservative":4101,"ĠTarget":4102,"omotive":4103,"waukee":4104,"Ġlength":4105,"ĠNetflix":4106,"210":4107,"Age":4108,"FC":4109,"GN":4110,"MHz":4111,"OL":4112,"bast":4113,"hill":4114,"nal":4115,"oa":4116,"à¯":4117,"ĠÉ":4118,"Ġ00":4119,"Ġill":4120,"Ġireland":4121,"ĠWk":4122,"ĠWar":4123,"ĠFire":4124,"ability":4125,"ĠCele":4126,"ĠPM":4127,"alam":4128,"ĠDr":4129,"ĠRange":4130,"ĠMac":4131,"ĠMetro":4132,"itation":4133,"stall":4134,"standing":4135,"omen":4136,"edu":4137,"ĠGrizzlies":4138,"ĠOf":4139,"ĠPoint":4140,"Ġmov":4141,"Ġpi":4142,"ism":4143,"Ġ350":4144,"Ġbor":4145,"Ġbank":4146,"Ġbud":4147,"otus":4148,"ĠBra":4149,"elle":4150,"Ġnations":4151,"Ġnetherlands":4152,"Ġoak":4153,"uefa":4154,"bers":4155,"Ġher":4156,"Ġhours":4157,"Ġjon":4158,"Ġinfo":4159,"Ġlp":4160,"Ġlions":4161,"ipts":4162,"ipinas":4163,"Ġ110":4164,"Ġ117":4165,"rican":4166,"aster":4167,"ĠProv":4168,"105":4169,"aco":4170,"ampton":4171,"ugh":4172,"ugu":4173,"loss":4174,"oplast":4175,"anne":4176,"Ġelector":4177,"ccup":4178,"ĠShoot":4179,"ixon":4180,"ouble":4181,"Ġadam":4182,"ails":4183,"Ġasian":4184,"Ġ1943":4185,"incinn":4186,"ĠScores":4187,"Ġindia":4188,"ĠAgric":4189,"ĠZone":4190,"ĠDisc":4191,"afs":4192,"airs":4193,"ĠEdward":4194,"Ġvalley":4195,"aysia":4196,"ĠTyres":4197,"Ġdescription":4198,"ĠRecipi":4199,"ĠPilipinas":4200,"Ġbritain":4201,"Ġwatson":4202,"ĠSemifinalists":4203,"ĠLouisiana":4204,"Ġindianapolis":4205,"Ġhenry":4206,"ĠItalian":4207,"ĠRadio":4208,"ĠWithdrawn":4209,"ĠDebt":4210,"ĠIdentifier":4211,"ĠLyric":4212,"ĠPitcher":4213,"Region":4214,"ĠInvest":4215,"Ġthromboplast":4216,"incinnati":4217,"Ġthromboplastin":4218,"),":4219,"cur":4220,"don":4221,"die":4222,"hh":4223,"je":4224,"kins":4225,"ls":4226,"ui":4227,"uki":4228,"Ã£":4229,"Ġur":4230,"Ġiss":4231,"Ġtou":4232,"Ġtko":4233,"ĠWC":4234,"ĠFt":4235,"ĠFar":4236,"ĠFac":4237,"abama":4238,"ĠAud":4239,"ĠCamp":4240,"ĠPublic":4241,"arch":4242,"ĠTennessee":4243,"ĠDiv":4244,"ĠDVD":4245,"ĠMult":4246,"itants":4247,"ouri":4248,"ĠLee":4249,"ĠNot":4250,"Ġsi":4251,"Ġsqu":4252,"Ġserved":4253,"ici":4254,"ential":4255,"ĠGo":4256,"Ġcamp":4257,"riz":4258,"rial":4259,"Ġmid":4260,"oln":4261,"isa":4262,"ised":4263,"Ġband":4264,"Ġbur":4265,"ĠEff":4266,"Ġfar":4267,"ĠRece":4268,"ĠVict":4269,"ĠVoice":4270,"igion":4271,"igures":4272,"thers":4273,"thew":4274,"Ġwild":4275,"Ġwanderers":4276,"adion":4277,"adem":4278,"istrict":4279,"Ġjason":4280,"Ġjets":4281,"Ġint":4282,"Ġinstall":4283,"Ġlor":4284,"ĠChart":4285,"ĠJun":4286,"Ġ2014":4287,"ĠInnings":4288,"iesel":4289,"Ġrem":4290,"102":4291,"rows":4292,"akh":4293,"Ġleon":4294,"ustria":4295,"oci":4296,"ĠAlbert":4297,"ordan":4298,"issipp":4299,"omination":4300,"ĠShort":4301,"Ġperiod":4302,"Ġalfa":4303,"280":4304,"ĠRob":4305,"ancer":4306,"ible":4307,"Ġbron":4308,"Ġmanchester":4309,"ĠCharles":4310,"ĠNomination":4311,"Ġdavis":4312,"indi":4313,"Ġedmonton":4314,"viation":4315,"Ġsuccess":4316,"ĠParish":4317,"Ġrepublican":4318,"board":4319,"ĠAAAAA":4320,"ĠBlue":4321,"ĠPennant":4322,"ĠRoman":4323,"Ġbuild":4324,"Ġformal":4325,"Ã³n":4326,"Ġqualifying":4327,"Ġcalgary":4328,"Ġoutstanding":4329,"Ġpremiere":4330,"enzo":4331,"habitants":4332,"mitted":4333,"ĠThursday":4334,"ĠBorough":4335,"ouncil":4336,"oscow":4337,"Ġinstallation":4338,"issippi":4339,"400":4340,"CL":4341,"OA":4342,"ON":4343,"VA":4344,"aun":4345,"aut":4346,"di":4347,"hib":4348,"lie":4349,"nip":4350,"ois":4351,"po":4352,"sy":4353,"ser":4354,"uart":4355,"uzz":4356,"Ġuefa":4357,"ĠAst":4358,"onz":4359,"anet":4360,"amo":4361,"ĠPict":4362,"arat":4363,"ĠTest":4364,"ĠTied":4365,"ĠMy":4366,"ĠMod":4367,"ĠMale":4368,"ĠMatt":4369,"ĠMaryland":4370,"ito":4371,"stal":4372,"Ġ(-":4373,"ĠNm":4374,"Ġsm":4375,"rik":4376,"ribut":4377,"ĠHard":4378,"Ġmajor":4379,"Ġpav":4380,"Ġbrook":4381,"Ġder":4382,"Ġdaniel":4383,"ĠBud":4384,"ĠBorn":4385,"cture":4386,"Ġoct":4387,"Ġohio":4388,"igi":4389,"the":4390,"andro":4391,"Ġwimbledon":4392,"Ġgi":4393,"Ġindex":4394,"ĠResidence":4395,"Ġvia":4396,"Ġ800":4397,"Ġlim":4398,"Ġko":4399,"Ġ104":4400,"ĠTitles":4401,"ipe":4402,"Ġ122":4403,"Ġ116":4404,"osa":4405,"Ġrel":4406,"Ġ140":4407,"106":4408,"Ġ130":4409,"Ġ136":4410,"ĠKerry":4411,"ĠDeparture":4412,"125":4413,"second":4414,"138":4415,"ĠArab":4416,"lyn":4417,"ĠAltern":4418,"Ġalbum":4419,"ĠAppoint":4420,"enna":4421,"Ġariz":4422,"lene":4423,"Ġsouthern":4424,"rism":4425,"ideo":4426,"Ġiowa":4427,"lination":4428,"Ġ1940":4429,"enault":4430,"incoln":4431,"Ġranking":4432,"ĠGreg":4433,"ĠWestern":4434,"Ġbills":4435,"brity":4436,"Ġmiller":4437,"plified":4438,"ĠAcqu":4439,"Ġmusical":4440,"Ġbruins":4441,"ĠSolo":4442,"ĠTrainer":4443,"Ġtigers":4444,"ĠFCC":4445,"Ġnorway":4446,"Ġraymond":4447,"Ġsheffield":4448,"ĠGovernor":4449,"ĠMemory":4450,"Ġargent":4451,"ĠPlatelet":4452,"Ġtrophy":4453,"ĠDelegate":4454,"Ġkorea":4455,"ĠBarangay":4456,"Ġillinois":4457,"ĠProvider":4458,"Ġarizona":4459,".(":4460,"600":4461,"GA":4462,"None":4463,"Qu":4464,"hard":4465,"hang":4466,"iens":4467,"mw":4468,"mar":4469,"ness":4470,"pol":4471,"side":4472,"ski":4473,"vate":4474,"yota":4475,"Ã§":4476,"Ãº":4477,"áŁ":4478,"Ġash":4479,"ĠSets":4480,"lett":4481,"Ġtar":4482,"Ġtel":4483,"ĠWor":4484,"ĠWood":4485,"ĠWicket":4486,"ĠWrest":4487,"ĠFa":4488,"ĠAC":4489,"ĠCan":4490,"ĠCart":4491,"ĠCant":4492,"ĠPap":4493,"ĠPBA":4494,"ĠTier":4495,"ĠRail":4496,"ĠMajor":4497,"ione":4498,"ĠLaw":4499,"ĠLink":4500,"ĠLondon":4501,"Ġsy":4502,"Ġsab":4503,"Ġsuper":4504,"Ġsaint":4505,"edy":4506,"Ġcf":4507,"ĠOl":4508,"ĠOccup":4509,"rike":4510,"ĠHill":4511,"Ġmass":4512,"Ġpac":4513,"Ġpunt":4514,"olph":4515,"olved":4516,"Ġbal":4517,"Ġbol":4518,"Ġbus":4519,"iling":4520,"ĠEdu":4521,"Ġdf":4522,"ĠBank":4523,"ĠBulgar":4524,"Ġflo":4525,"Ġfilm":4526,"vert":4527,"very":4528,"ĠVess":4529,"irk":4530,"Ġauthor":4531,"ĠLowest":4532,"Ġwomen":4533,"raight":4534,"ĠWinter":4535,"Ġhp":4536,"ista":4537,"Ġjoseph":4538,"ĠReserved":4539,"Ġvel":4540,"Ġvik":4541,"ids":4542,"Ġrub":4543,"Ġrating":4544,"icks":4545,"Ġstandard":4546,"ĠChe":4547,"owers":4548,"estyle":4549,"ift":4550,"Ġ123":4551,"Ġ115":4552,"zech":4553,"Ġreal":4554,"Ġ145":4555,"104":4556,"acon":4557,"Ġseattle":4558,"Ġ135":4559,"ĠKing":4560,"ĠKilled":4561,"antic":4562,"ĠGolden":4563,"115":4564,"ĠIncoming":4565,"ansk":4566,"Ġmario":4567,"141":4568,"athon":4569,"Ġthird":4570,"ĠSpr":4571,"ĠSpace":4572,"ĠLabor":4573,"aturated":4574,"ĠScorers":4575,"Ġedward":4576,"ĠCommon":4577,"organ":4578,"afe":4579,"Ġscored":4580,"ilipp":4581,"Ġclark":4582,"backer":4583,"ĠWhite":4584,"ĠAndrew":4585,"Ġfinish":4586,"ĠAAAA":4587,"ĠLibert":4588,"ĠBlank":4589,"Ġproduced":4590,"Ġpoland":4591,"Ġoriginal":4592,"Ġroyal":4593,"Ġacres":4594,"Ġbrazil":4595,"Ġepisodes":4596,"ology":4597,"Ġmemorial":4598,"ĠPublisher":4599,"Ġcredits":4600,"Ġcricket":4601,"ĠSkipper":4602,"ĠMassachusetts":4603,"celona":4604,"ĠPrefect":4605,"breviation":4606,"Ġelectorates":4607,"curity":4608,"nipeg":4609,"110":4610,"BN":4611,"DR":4612,"SU":4613,"craft":4614,"gen":4615,"gress":4616,"lar":4617,"low":4618,"lier":4619,"mad":4620,"ni":4621,"no":4622,"nam":4623,"rome":4624,"sl":4625,"tv":4626,"ua":4627,"wich":4628,"Ã¥":4629,"Ã¨":4630,"ÃĹ":4631,"Ðº":4632,"ÑĤ":4633,"Ġet":4634,"Ġut":4635,"Ġott":4636,"ĠSo":4637,"ĠSat":4638,"ĠSum":4639,"ĠSoft":4640,"ĠSlov":4641,"ĠSansk":4642,"Ġtw":4643,"ĠAuth":4644,"ĠClock":4645,"ories":4646,"ĠPA":4647,"ĠPC":4648,"aro":4649,"aron":4650,"ares":4651,"ĠTe":4652,"alyst":4653,"alcons":4654,"ĠRa":4655,"ĠRoute":4656,"Ġ(Â°":4657,"ĠLive":4658,"ĠNord":4659,"Ġsource":4660,"008":4661,"edo":4662,"Ġcla":4663,"Ġcandid":4664,"Ġcraig":4665,"ĠOly":4666,"Ġpack":4667,"olic":4668,"Ġbridge":4669,"Ġbrian":4670,"oted":4671,"ĠBu":4672,"ĠBase":4673,"ĠBroad":4674,"Ġfem":4675,"roe":4676,"chi":4677,"Ġna":4678,"Ġnorm":4679,"ĠVirt":4680,"uez":4681,"Ġweight":4682,"Ġgal":4683,"urd":4684,"Ġhockey":4685,"Ġhamilton":4686,"ancel":4687,"ided":4688,"Ġru":4689,"Ġren":4690,"Ġrpm":4691,"ourt":4692,"Ġstud":4693,"Ġstew":4694,"Ġlanguage":4695,"Ġlove":4696,"Ġlincoln":4697,"ĠSeat":4698,"ĠJew":4699,"iac":4700,"cks":4701,"owb":4702,"enson":4703,"ĠProb":4704,"Ġ148":4705,"ĠConne":4706,"ĠKenn":4707,"rowth":4708,"Ġunaffected":4709,"Ġyou":4710,"112":4711,"anuel":4712,"ĠProduct":4713,"Ġrobin":4714,"elli":4715,"ernie":4716,"Ġarrival":4717,"ĠInternet":4718,"Ġadmitted":4719,"Ġgree":4720,"Ġbrm":4721,"Ġ1941":4722,"Ġprize":4723,"ĠStations":4724,"ĠOpening":4725,"shire":4726,"ĠBarrel":4727,"ĠSingle":4728,"Ġresult":4729,"ĠTrofe":4730,"ditional":4731,"Ġchristian":4732,"finals":4733,"ĠMotors":4734,"Ġsimon":4735,"ĠDenomination":4736,"ĠBodyweight":4737,"ĠBuilding":4738,"ĠCanadian":4739,"ĠBackground":4740,"racuse":4741,"Ġwilson":4742,"ĠMarriage":4743,"Ġradio":4744,"ĠPreliminary":4745,"Ġjerk":4746,"ĠApparent":4747,"ĠIllinois":4748,"ĠCelebrity":4749,"ĠAgricultural":4750,"Ġsuccessors":4751,"hibition":4752,"ĠAppointed":4753,"ĠSanskrit":4754,"ĠOlymp":4755,"Ġstewart":4756,"ĠTrofeo":4757,"800":4758,"806":4759,"DS":4760,"Driver":4761,"Issue":4762,"Par":4763,"_{":4764,"aver":4765,"bell":4766,"bital":4767,"ci":4768,"cess":4769,"cont":4770,"liter":4771,"mouth":4772,"num":4773,"pa":4774,"province":4775,"rm":4776,"rong":4777,"vis":4778,"wa":4779,"Ñĥ":4780,"Ġit":4781,"Ġear":4782,"Ġot":4783,"ĠSl":4784,"ĠSmith":4785,"Ġty":4786,"ĠWill":4787,"aby":4788,"ĠAut":4789,"ĠANSI":4790,"atin":4791,"ĠCa":4792,"ĠCr":4793,"ĠCal":4794,"ĠCre":4795,"ĠCore":4796,"ĠPresent":4797,"ĠTamil":4798,"ĠDam":4799,"ĠDar":4800,"ĠDomin":4801,"ĠDrop":4802,"ĠRid":4803,"ĠLind":4804,"ĠNT":4805,"ĠNight":4806,"Ġsol":4807,"Ġship":4808,"enth":4809,"Ġcensus":4810,"Ġcincinnati":4811,"ĠOd":4812,"ĠOhio":4813,"ĠHo":4814,"ĠHol":4815,"ĠHot":4816,"ĠHoward":4817,"Ġmo":4818,"Ġmand":4819,"Ġmck":4820,"reg":4821,"Ġpub":4822,"isation":4823,"iscons":4824,"Ġbla":4825,"Ġbears":4826,"Ġbrisbane":4827,"Ġbaltimore":4828,"Ġbmw":4829,"earch":4830,"earance":4831,"Ġdn":4832,"Ġdances":4833,"elf":4834,"eline":4835,"Ġfort":4836,"etter":4837,"etwork":4838,"Ġnak":4839,"verse":4840,"Ġoilers":4841,"ĠVice":4842,"Ġaustralian":4843,"anda":4844,"ands":4845,"ĠIm":4846,"ĠIrish":4847,"Ġ03":4848,"Ġhung":4849,"Ġjos":4850,"Ġjud":4851,"Ġjust":4852,"Ġjustin":4853,"rystal":4854,"Ġvenue":4855,"ublin":4856,"ĠChildren":4857,"Ġkings":4858,"iago":4859,"cker":4860,"ĠNos":4861,"Ġ114":4862,"Ġequ":4863,"ivid":4864,"Ġrec":4865,"riday":4866,"Ġ147":4867,"ĠConf":4868,"Ġ155":4869,"Ġlevel":4870,"uderia":4871,"117":4872,"208":4873,"139":4874,"Ġtitles":4875,"tegr":4876,"2004":4877,"ĠQualifying":4878,"ĠRegional":4879,"Ġorleans":4880,"Ġaprilia":4881,"Ġthree":4882,"obile":4883,"ĠSpike":4884,"279":4885,"ĠTransmission":4886,"ressure":4887,"Ġcolts":4888,"Ġcolumbia":4889,"Ġiii":4890,"Ġchampions":4891,"amilies":4892,"Ġcoast":4893,"ĠCommander":4894,"Ġsuccessor":4895,"aterial":4896,"Ġcarlos":4897,"ĠMinnesota":4898,"ĠOrgan":4899,"Ġcanadiens":4900,"ĠSouthern":4901,"Ġcompany":4902,"Ġswitzerland":4903,"ijing":4904,"Ġscuderia":4905,"ĠOperating":4906,"Ġreplay":4907,"ĠWho":4908,"Ġjimmy":4909,"boro":4910,"Ġmotor":4911,"Ġdecision":4912,"ĠWilliams":4913,"ĠMalay":4914,"Ġsaints":4915,"Ġbritish":4916,"PPP":4917,"Ġamerica":4918,"ĠProfits":4919,"Ġprofit":4920,"ĠClean":4921,"ĠTonnes":4922,"Ġcosp":4923,"Ġkevin":4924,"ĠISBN":4925,"ĠMartin":4926,"Ġjuan":4927,"opher":4928,"ĠIntroduced":4929,"ograph":4930,"Ġantonio":4931,"Ġaccident":4932,"Ġlinebacker":4933,"Ġoakland":4934,"Ã£o":4935,"Ġbroncos":4936,"politan":4937,"ĠEduc":4938,"Drivers":4939,"isconsin":4940,"213":4941,"Away":4942,"CS":4943,"Cards":4944,"ED":4945,"EP":4946,"Loss":4947,"PM":4948,"Year":4949,"col":4950,"dart":4951,"ez":4952,"gi":4953,"hi":4954,"liga":4955,"math":4956,"mann":4957,"su":4958,"ued":4959,"wen":4960,"Ġou":4961,"Ġcore":4962,"Ġian":4963,"ĠSal":4964,"ĠSid":4965,"Ġta":4966,"Ġtax":4967,"Ġtampa":4968,"ĠFun":4969,"ĠFigures":4970,"abham":4971,"ering":4972,"atre":4973,"ators":4974,"ĠPan":4975,"ĠTr":4976,"ĠDetroit":4977,"ĠRap":4978,"ĠMat":4979,"ĠMad":4980,"itary":4981,"itive":4982,"Ġso":4983,"Ġsilver":4984,"ĠsSpec":4985,"ices":4986,"omb":4987,"ĠGal":4988,"Ġcan":4989,"Ġcro":4990,"Ġcardinal":4991,"ĠHall":4992,"ĠCON":4993,"Ġpa":4994,"Ġpanel":4995,"Ġbulgar":4996,"Ġ1929":4997,"Ġdrag":4998,"ĠBlo":4999,"ĠBrown":5000,"elt":5001,"eta":5002,"Ġnon":5003,"Ġaway":5004,"Ġaud":5005,"Ġadelaide":5006,"Ġwr":5007,"rael":5008,"Ġgil":5009,"ĠStates":5010,"ĠStanding":5011,"Ġhay":5012,"Ġjerry":5013,"Ġvot":5014,"Ġstraight":5015,"ĠAttemp":5016,"Ġlotus":5017,"ĠSept":5018,"Ġ128":5019,"ensions":5020,"Ġ187":5021,"ĠProject":5022,"righ":5023,"ĠContr":5024,"Ġparish":5025,"109":5026,"ĠKh":5027,"ĠKansas":5028,"ante":5029,"Ġleafs":5030,"ĠComposer":5031,"Ġyoung":5032,"114":5033,"Ġpopular":5034,"onday":5035,"ĠRegistration":5036,"1991":5037,"Ġmaria":5038,"134":5039,"ĠArkansas":5040,"ĠQue":5041,"oha":5042,"ĠAltitude":5043,"anna":5044,"ordon":5045,"288":5046,"ĠElectric":5047,"ĠUnaffected":5048,"ĠCapita":5049,"ĠSpouse":5050,"ĠDeclination":5051,"ibining":5052,"ĠAssemb":5053,"ailures":5054,"ĠAnge":5055,"Ġ1942":5056,"Ġ1946":5057,"Ġbeijing":5058,"ĠOpera":5059,"ĠMeaning":5060,"iseum":5061,"Ġfinale":5062,"Ġmatches":5063,"ĠHousehold":5064,"ĠNeut":5065,"pendit":5066,"Ġdenver":5067,"Ġalexander":5068,"Ġwoods":5069,"ĠMotor":5070,"Ġcosworth":5071,"ĠBalls":5072,"Ġbelgium":5073,"ĠLatest":5074,"ĠFemale":5075,"ĠTuesday":5076,"Ġromeo":5077,"Ġentries":5078,"ĠBinibining":5079,"Ġmaple":5080,"Art":5081,"ĠCrude":5082,"Ġfernando":5083,"Ġcommunity":5084,"Ġmagnitude":5085,"Ġsquare":5086,"ĠRailway":5087,"ĠAuthors":5088,"literation":5089,"ĠOdds":5090,"ividual":5091,"mathrm":5092,"ĠAttempts":5093,"'t":5094,"GP":5095,"Mark":5096,"TM":5097,"Total":5098,"UTC":5099,"bi":5100,"bal":5101,"dale":5102,"fall":5103,"kers":5104,"lan":5105,"nik":5106,"pal":5107,"pts":5108,"pose":5109,"rn":5110,"uins":5111,"uji":5112,"yy":5113,"à¥":5114,"ĠIN":5115,"Ġid":5116,"Ġold":5117,"ĠSP":5118,"Ġton":5119,"Ġtelev":5120,"Ġtower":5121,"Ġtalle":5122,"ĠFS":5123,"ĠFate":5124,"ĠFed":5125,"eric":5126,"ĠCla":5127,"ĠCurr":5128,"ĠCardinal":5129,"ĠPR":5130,"Ġ210":5131,"alph":5132,"ĠDu":5133,"ĠDaniel":5134,"ĠRy":5135,"ĠRowers":5136,"ĠMS":5137,"ĠMid":5138,"ĠMont":5139,"Ġss":5140,"Ġsold":5141,"lag":5142,"Ġcart":5143,"Ġcirc":5144,"Ġclim":5145,"ĠHaw":5146,"ĠHispanic":5147,"Ġmount":5148,"Ġmain":5149,"Ġped":5150,"Ġba":5151,"Ġbas":5152,"Ġbul":5153,"ils":5154,"Ġ1934":5155,"ĠEuro":5156,"ĠElapsed":5157,"Ġdo":5158,"Ġdiameter":5159,"Ġdiesel":5160,"ĠBul":5161,"ĠBus":5162,"ctic":5163,"ĠRea":5164,"ĠRem":5165,"ĠRest":5166,"Ġni":5167,"Ġnetwork":5168,"irm":5169,"Ġaaa":5170,"Ġaustria":5171,"iguel":5172,"thur":5173,"Ġwc":5174,"Ġwy":5175,"Ġwed":5176,"ĠImp":5177,"ĠITV":5178,"Ġgt":5179,"Ġgown":5180,"ĠStrike":5181,"Ġ02":5182,"Ġhall":5183,"Ġhale":5184,"ĠhCards":5185,"Ġjersey":5186,"eman":5187,"ĠCountries":5188,"Ġven":5189,"Ġvij":5190,"Ġvalen":5191,"Ġstation":5192,"Ġstorm":5193,"Ġlb":5194,"ĠChap":5195,"ĠChicago":5196,"ĠJul":5197,"ĠJoseph":5198,"aged":5199,"Ġ129":5200,"Ġ119":5201,"rich":5202,"ivity":5203,"Ġchel":5204,"ĠProhibition":5205,"Ġrest":5206,"ride":5207,"ĠParticip":5208,"Ġ1500":5209,"Ġ132":5210,"Ġ139":5211,"ĠDev":5212,"uda":5213,"113":5214,"116":5215,"ewan":5216,"Ġandy":5217,"atchewan":5218,"137":5219,"oster":5220,"ocity":5221,"ĠSurname":5222,"Ġtoyota":5223,"ĠFreq":5224,"iverse":5225,"iverpool":5226,"ĠMonarch":5227,"oba":5228,"egan":5229,"Ġsingle":5230,"Ġjohnny":5231,"Ġbrabham":5232,"ĠAnthony":5233,"Ġprimary":5234,"Ġruns":5235,"Ġindiana":5236,"Ġbarcelona":5237,"ĠJohnson":5238,"ĠSinger":5239,"Ġmonth":5240,"Ġoliv":5241,"ĠSupport":5242,"Ġhead":5243,"Ġabout":5244,"Ġcorio":5245,"ĠOperation":5246,"áĥĲ":5247,"ĠâĢł":5248,"Ġbilly":5249,"ĠCycl":5250,"ĠAmerica":5251,"Ġbobby":5252,"Ġproduction":5253,"ĠPassenger":5254,"Ġformula":5255,"ĠCentre":5256,"ĠPurpose":5257,"asket":5258,"askatchewan":5259,"Ġenerg":5260,"Ġanna":5261,"Ġroyals":5262,"ĠHDTV":5263,"Ġfeet":5264,"ĠRichard":5265,"ĠFounding":5266,"ĠEconomic":5267,"dependent":5268,"ĠCommunity":5269,"ĠEmployees":5270,"ĠShooter":5271,"ĠRecipient":5272,"uzzle":5273,"seconds":5274,"ĠWorst":5275,"ĠWrestler":5276,"ĠBulgarian":5277,"Ġpackers":5278,"owboys":5279,"ĠControl":5280,"Articles":5281,"Ġtallest":5282,"ĠCurrency":5283,"Ġvijay":5284,")/":5285,"120":5286,"212":5287,"700":5288,"Ch":5289,"Games":5290,"Metres":5291,"Town":5292,"cd":5293,"do":5294,"eased":5295,"gu":5296,"hou":5297,"ient":5298,"ios":5299,"jo":5300,"lit":5301,"mhz":5302,"ned":5303,"oj":5304,"ple":5305,"pth":5306,"rum":5307,"sa":5308,"vey":5309,"Ð»":5310,"ÑĮ":5311,"ĠÒ":5312,"Ġç":5313,"Ġels":5314,"ĠSail":5315,"ĠSince":5316,"Ġtour":5317,"Ġtwo":5318,"Ġtaylor":5319,"ĠFore":5320,"ĠFestival":5321,"abel":5322,"inter":5323,"anja":5324,"orf":5325,"ĠPal":5326,"aries":5327,"ĠTig":5328,"ĠTurn":5329,"ĠTally":5330,"alth":5331,"ĠRR":5332,"ĠRen":5333,"ĠRay":5334,"ĠRush":5335,"ĠMer":5336,"ĠMole":5337,"stra":5338,"oud":5339,"atell":5340,"ĠLife":5341,"ĠLOA":5342,"Ġsar":5343,"laus":5344,"eds":5345,"Ġcam":5346,"Ġcub":5347,"Ġcost":5348,"ĠHay":5349,"Ġmail":5350,"reas":5351,"Ġpas":5352,"Ġpay":5353,"oly":5354,"Ġbt":5355,"Ġbry":5356,"Ġbart":5357,"Ġbell":5358,"Ġbern":5359,"Ġ1939":5360,"ĠYes":5361,"ĠET":5362,"ĠEm":5363,"ĠEll":5364,"Ġdire":5365,"Ġdistrict":5366,"ĠPlaces":5367,"ĠBP":5368,"ĠBR":5369,"ĠBox":5370,"ĠBoston":5371,"Ġfight":5372,"Ġflor":5373,"Ġfull":5374,"roke":5375,"chan":5376,"char":5377,"Ġnc":5378,"Ġnight":5379,"Ġnone":5380,"Ġoper":5381,"Ġaz":5382,"unter":5383,"ĠLow":5384,"igner":5385,"Ġword":5386,"Ġwide":5387,"Ġwater":5388,"âĢ³":5389,"rav":5390,"raine":5391,"ader":5392,"Ġhon":5393,"Ġhong":5394,"Ġheight":5395,"Ġhoward":5396,"Ġhalf":5397,"Ġjay":5398,"ership":5399,"apon":5400,"Ġvill":5401,"Ġrab":5402,"icker":5403,"Ġstee":5404,"Ġstatus":5405,"Ġlq":5406,"Ġlight":5407,"Ġlittle":5408,"eep":5409,"ĠChoice":5410,"Ġku":5411,"Ġkaz":5412,"Ġkentucky":5413,"aining":5414,"agu":5415,"agle":5416,"ĠUt":5417,"Ġ121":5418,"Ġ124":5419,"Ġ126":5420,"Ġ127":5421,"iang":5422,"iant":5423,"ĠProcess":5424,"Ġreque":5425,"Ġ143":5426,"Ġparis":5427,"oviet":5428,"Ġ151":5429,"Ġ152":5430,"Ġ153":5431,"Ġsep":5432,"orton":5433,"ĠKil":5434,"ĠTournaments":5435,"akes":5436,"akia":5437,"ĠRunning":5438,"anga":5439,"pisode":5440,"ĠEngland":5441,"pha":5442,"1996":5443,"sea":5444,"season":5445,"143":5446,"144":5447,"opment":5448,"ĠOvers":5449,"Ġgrass":5450,"acters":5451,"Ġraiders":5452,"ĠApplication":5453,"Ġshot":5454,"Ġarsen":5455,"Ġoreg":5456,"ĠCoverage":5457,"leng":5458,"ĠSpok":5459,"ĠCargo":5460,"292":5461,"ĠFinished":5462,"ĠLabour":5463,"iba":5464,"ĠUSA":5465,"Ġsingh":5466,"ĠâĨ":5467,"auer":5468,"ĠAnton":5469,"irdate":5470,"Ã©t":5471,"Ġcoed":5472,"castle":5473,"Ġbarb":5474,"ĠMovie":5475,"Ġbeach":5476,"Ġoliver":5477,"ĠOrleans":5478,"ĠDavis":5479,"ulls":5480,"USD":5481,"Ġfootball":5482,"Ġawarded":5483,"Ġclar":5484,"Ġended":5485,"ĠIndiana":5486,"Ġfinland":5487,"kyo":5488,"ĠAbbr":5489,"ĠMissouri":5490,"ĠActual":5491,"Ġwalker":5492,"ĠScre":5493,"Ġknows":5494,"ĠUndec":5495,"Ġathletic":5496,"Ġgraham":5497,"Ġesp":5498,"ĠAfter":5499,"Ġqueens":5500,"ĠMLB":5501,"Ġcredit":5502,"ĠCanada":5503,"Ġeuropean":5504,"ĠPeople":5505,"ĠEconomy":5506,"Ġ(Â£)":5507,"ĠSacks":5508,"English":5509,"ĠPenalt":5510,"Ġdesignation":5511,"ĠMetropolitan":5512,"ĠFacility":5513,"ĠOccupation":5514,"Ġvikings":5515,"_{\\":5516,"ĠAngeles":5517,"Market":5518,"atellite":5519,"Ġsteelers":5520,"Ġrequested":5521,"Ġoregon":5522,")\"":5523,"215":5524,"BC":5525,"City":5526,"Episode":5527,"OP":5528,"app":5529,"bot":5530,"class":5531,"dt":5532,"een":5533,"ean":5534,"game":5535,"house":5536,"lia":5537,"met":5538,"mund":5539,"rence":5540,"rats":5541,"time":5542,"ties":5543,"town":5544,"vo":5545,"wis":5546,"weg":5547,"ye":5548,"Ñģ":5549,"à±":5550,"Ġ!":5551,"Ġ\\":5552,"Ġè":5553,"Ġé":5554,"ĠUN":5555,"Ġles":5556,"ĠSamp":5557,"Ġtodd":5558,"ĠFord":5559,"ĠFatal":5560,"ĠFriday":5561,"ĠAU":5562,"onia":5563,"inz":5564,"inent":5565,"inner":5566,"inson":5567,"ĠCP":5568,"ĠCam":5569,"ĠCas":5570,"ĠCultural":5571,"ĠCache":5572,"ami":5573,"ĠDie":5574,"ĠRh":5575,"ĠRain":5576,"ĠRog":5577,"ĠRetired":5578,"ĠMuzzle":5579,"itor":5580,"itiz":5581,"Ġsg":5582,"Ġsn":5583,"Ġsince":5584,"icc":5585,"ĠGood":5586,"ĠGreek":5587,"Ġcur":5588,"Ġczech":5589,"ĠPolish":5590,"rib":5591,"ĠHam":5592,"Ġmir":5593,"Ġmod":5594,"Ġmur":5595,"Ġmah":5596,"Ġmunicip":5597,"Ġmales":5598,"Ġmaryland":5599,"Ġmoscow":5600,"rell":5601,"Ġbang":5602,"Ġbase":5603,"Ġ190":5604,"Ġ1926":5605,"ingham":5606,"ĠYou":5607,"Ġdin":5608,"Ġdouble":5609,"ĠBa":5610,"ĠBay":5611,"ĠBrook":5612,"Ġfle":5613,"Ġfour":5614,"rolet":5615,"Ġns":5616,"Ġnik":5617,"Ġnico":5618,"ĠVideo":5619,"irming":5620,"irls":5621,"Ġale":5622,"unn":5623,"ument":5624,"umacher":5625,"andle":5626,"Ġwol":5627,"Ġwells":5628,"Ġ600":5629,"ĠIV":5630,"ĠIce":5631,"Ġgri":5632,"Ġgas":5633,"endo":5634,"ads":5635,"Ġhu":5636,"Ġhart":5637,"Ġjunior":5638,"Ġjose":5639,"Ġjordan":5640,"ape":5641,"ĠRecorded":5642,"Ġrange":5643,"Ġrenault":5644,"ĠAttribut":5645,"Ġland":5646,"Ġlock":5647,"Ġlyn":5648,"ĠChallenge":5649,"ardi":5650,"Ġep":5651,"ivan":5652,"Ġrev":5653,"ĠBranch":5654,"Ġ141":5655,"Ġ156":5656,"Ġseated":5657,"Ġsecs":5658,"Ġ131":5659,"ĠKen":5660,"ĠKentucky":5661,"ruck":5662,"Ġlev":5663,"ĠComplet":5664,"118":5665,"avi":5666,"aven":5667,"avier":5668,"123":5669,"phis":5670,"phone":5671,"ocal":5672,"Ġross":5673,"achine":5674,"Ġlas":5675,"atholic":5676,"250":5677,"Ġalb":5678,"Ġalf":5679,"281":5680,"Ġarm":5681,"Ġarrow":5682,"ĠPrime":5683,"leyball":5684,"ĠSports":5685,"ĠSpanish":5686,"cedes":5687,"cents":5688,"ĠTraditional":5689,"even":5690,"Ġbrand":5691,"burn":5692,"ĠProlonged":5693,"days":5694,"ualties":5695,"tainment":5696,"ĠAdam":5697,"Ġprolonged":5698,"ĠSupp":5699,"ĠParent":5700,"ĠDave":5701,"Ġchargers":5702,"Ġcharlotte":5703,"Ġpartners":5704,"ĠPhiladelphia":5705,"Ġtorque":5706,"Ġpatrick":5707,"ĠIndian":5708,"ĠElevated":5709,"ĠTourism":5710,"Ġmilan":5711,"Ġreserv":5712,"Ġlouisiana":5713,"Ġà®":5714,"ĠXI":5715,"ĠPortray":5716,"Ġatlantic":5717,"ĠMilwaukee":5718,"ĠMilitary":5719,"Ġstroke":5720,"Ġdenmark":5721,"ĠEuropean":5722,"orials":5723,"ĠSemifinals":5724,"Ġduke":5725,"Ġmercedes":5726,"Ġentertainment":5727,"Ġqueen":5728,"ĠFeatur":5729,"ĠPlacings":5730,"Ġperformer":5731,"Ġlarry":5732,"ĠWednesday":5733,"ĠFemales":5734,"Ġliberal":5735,"ĠLMS":5736,"ĠIndustry":5737,"ĠIndustrial":5738,"ĠEntre":5739,"ĠRussian":5740,"Ġsemifinal":5741,"ĠRoyal":5742,"ĠTechnology":5743,"ĠDetails":5744,"uguese":5745,"iciency":5746,"ociation":5747,"ĠPictorials":5748,"Ġargentina":5749,"áŁł":5750,"verted":5751,"ĠVessel":5752,"Ġottawa":5753,"ĠSoap":5754,"Ġcandidates":5755,"ĠBroadway":5756,"Ġnorman":5757,"Ġarrivals":5758,"ĠOlympics":5759,"Ġhungary":5760,"ĠMalayalam":5761,"ĠEducational":5762,"Ġbulgaria":5763,"Ġtelevision":5764,"cticut":5765,"Ġchelsea":5766,"asketball":5767,"Ġarsenal":5768,"ĠSpokesp":5769,"ĠAntonio":5770,"ĠFatalities":5771,"irmingham":5772,"ĠAttribute":5773,".$)":5774,"1000":5775,"750":5776,"BS":5777,"CI":5778,"MA":5779,"airdate":5780,"ek":5781,"fan":5782,"fed":5783,"furt":5784,"hol":5785,"hood":5786,"ju":5787,"jun":5788,"jeld":5789,"mson":5790,"nominal":5791,"pi":5792,"sion":5793,"tage":5794,"vg":5795,"via":5796,"wall":5797,"zy":5798,"zen":5799,"Å¾":5800,"âĤ¬":5801,"Ġom":5802,"Ġil":5803,"Ġrow":5804,"Ġáĥ":5805,"Ġright":5806,"ĠSqu":5807,"league":5808,"ĠWy":5809,"ĠWidth":5810,"ĠFI":5811,"ĠFM":5812,"onen":5813,"ery":5814,"inary":5815,"atory":5816,"atial":5817,"ĠCatch":5818,"ĠCop":5819,"ori":5820,"ores":5821,"orpe":5822,"ĠPF":5823,"ĠPay":5824,"ĠPage":5825,"ĠPak":5826,"ĠPSI":5827,"ĠTDP":5828,"ĠTaylor":5829,"Ġ220":5830,"alom":5831,"ĠDT":5832,"ĠDim":5833,"ĠDur":5834,"ĠDiff":5835,"ĠDutch":5836,"ĠRu":5837,"ĠRet":5838,"ĠRivers":5839,"ĠMade":5840,"ĠMile":5841,"stances":5842,"ould":5843,"ĠLiter":5844,"ĠLetter":5845,"ĠNO":5846,"ĠNi":5847,"Ġsoc":5848,"Ġserg":5849,"Ġcache":5850,"Ġcreek":5851,"ĠPoly":5852,"rison":5853,"riors":5854,"rime":5855,"ĠHen":5856,"ĠHang":5857,"ĠHyd":5858,"ĠHouston":5859,"ĠHalf":5860,"Ġmf":5861,"Ġmick":5862,"Ġmitch":5863,"Ġmiguel":5864,"reased":5865,"olo":5866,"olation":5867,"isition":5868,"Ġbad":5869,"Ġbreak":5870,"Ġ1920":5871,"asm":5872,"ĠEth":5873,"Ġdomin":5874,"Ġdancer":5875,"ĠBec":5876,"ĠBrian":5877,"ctions":5878,"Ġfab":5879,"Ġfra":5880,"Ġfly":5881,"Ġfestival":5882,"rox":5883,"chie":5884,"Ġnelson":5885,"ĠVo":5886,"ĠView":5887,"Ġaug":5888,"umstances":5889,"Ġwhe":5890,"ĠII":5891,"ĠIP":5892,"odiac":5893,"Ġgood":5894,"Ġhal":5895,"Ġhur":5896,"Ġhunt":5897,"Ġjoh":5898,"ement":5899,"empt":5900,"Ġinc":5901,"Ġvoice":5902,"Ġstyle":5903,"Ġlow":5904,"Ġliverpool":5905,"usk":5906,"ĠSeans":5907,"Ġky":5908,"Ġkong":5909,"Ġkenn":5910,"ĠInhabitants":5911,"ĠUpper":5912,"Ġ118":5913,"iving":5914,"Ġchildren":5915,"ĠCommentator":5916,"Ġseat":5917,"Ġ133":5918,"Ġ138":5919,"ĠKore":5920,"anto":5921,"Ġ166":5922,"ĠOriginalairdate":5923,"ĠDirection":5924,"Ġunder":5925,"Ġyard":5926,"207":5927,"Ġ179":5928,"anucks":5929,"1995":5930,"load":5931,"Ġ255":5932,"ĠArg":5933,"ogs":5934,"open":5935,"Ġwinter":5936,"alem":5937,"Ġtokyo":5938,"Ġelection":5939,"ontal":5940,"ĠQuad":5941,"284":5942,"287":5943,"ĠUniverse":5944,"ĠCircumstances":5945,"perty":5946,"Ġcarpet":5947,"Ġspir":5948,"ĠSpan":5949,"ĠPremi":5950,"274":5951,"277":5952,"ĠExt":5953,"ĠGenes":5954,"ĠGenitive":5955,"ĠTransliteration":5956,"axy":5957,"arks":5958,"izontal":5959,"Ġcapacity":5960,"onym":5961,"ĠForward":5962,"urray":5963,"ext":5964,"Ġ1947":5965,"aja":5966,"ĠBirthdate":5967,"ĠScoring":5968,"Ġindoor":5969,"Ġopened":5970,"Ġplayers":5971,"otein":5972,"ĠZodiac":5973,"ĠOrbital":5974,"Ġcompleted":5975,"iji":5976,"Ġanthony":5977,"ĠMusical":5978,"ĠSky":5979,"onsored":5980,"ĠSpecial":5981,"ĠIndia":5982,"ĠMaximum":5983,"uca":5984,"ĠBills":5985,"Ġlocation":5986,"Ġitalian":5987,"ĠRocket":5988,"Ġactive":5989,"Ġgolden":5990,"Ġstarted":5991,"ĠRepresented":5992,"Ġmedal":5993,"Ġmadrid":5994,"Ġmadison":5995,"Ġpanthers":5996,"ĠSchedu":5997,"ĠRichmond":5998,"Ġretired":5999,"Ġoverall":6000,"ĠArchite":6001,"Ġlabel":6002,"adores":6003,"Ġjean":6004,"poration":6005,"Ġmississippi":6006,"Ġreporters":6007,"ĠLMP":6008,"Ġreceiver":6009,"ĠMeetings":6010,"Ġethnic":6011,"à¯į":6012,"ĠBrazil":6013,"Ġjonathan":6014,"ĠDiscip":6015,"ademy":6016,"Ġremaining":6017,"ĠAlternate":6018,"ĠAcquisition":6019,"olphins":6020,"Ġvelocity":6021,"ĠPrefecture":6022,"Ġutah":6023,"ĠProbability":6024,"Ġgreece":6025,"ĠSlalom":6026,"ĠjosÃ©":6027,"tegrated":6028,"Ġcosponsored":6029,"Ġpanelists":6030,"ĠNeutral":6031,"ĠReaction":6032,"Ġenergy":6033,"ĠForeign":6034,"ĠUndecided":6035,"ĠPSIP":6036,"#)":6037,"BI":6038,"BOL":6039,"EFA":6040,"FR":6041,"HA":6042,"JC":6043,"Loc":6044,"Nm":6045,"Part":6046,"Same":6047,"Sim":6048,"bl":6049,"bol":6050,"bay":6051,"bie":6052,"eur":6053,"fore":6054,"families":6055,"hu":6056,"her":6057,"hampton":6058,"iya":6059,"oel":6060,"pren":6061,"rough":6062,"sal":6063,"ux":6064,"uan":6065,"vet":6066,"vrolet":6067,"wide":6068,"width":6069,"âĨ":6070,"Ġernie":6071,"ĠSR":6072,"ĠSar":6073,"ĠSud":6074,"ĠSix":6075,"Ġtier":6076,"Ġtons":6077,"ĠFive":6078,"ĠFIS":6079,"ĠAccess":6080,"ĠAustin":6081,"ĠAriz":6082,"erick":6083,"inth":6084,"ĠCash":6085,"ĠCred":6086,"ĠCouncil":6087,"ĠCeased":6088,"encing":6089,"amar":6090,"arus":6091,"ĠTax":6092,"ĠTickets":6093,"ĠTerritory":6094,"ĠDal":6095,"ĠDem":6096,"ĠDCS":6097,"ĠRon":6098,"ĠRick":6099,"ĠMJ":6100,"ĠMi":6101,"ĠMo":6102,"ĠMiles":6103,"ĠMonday":6104,"esliga":6105,"outs":6106,"Ġ(#)":6107,"ĠLin":6108,"ĠLie":6109,"ĠLake":6110,"ĠLivery":6111,"ĠNetherlands":6112,"Ġsil":6113,"Ġsir":6114,"Ġsamp":6115,"Ġsoviet":6116,"lake":6117,"laware":6118,"icros":6119,"003":6120,"oman":6121,"ompson":6122,"Ġcav":6123,"Ġcrystal":6124,"ĠOber":6125,"ĠOtt":6126,"ĠOklahoma":6127,"ĠHany":6128,"Ġmm":6129,"Ġmu":6130,"Ġmans":6131,"Ġmale":6132,"Ġmanuel":6133,"Ġpent":6134,"Ġply":6135,"Ġpublic":6136,"olution":6137,"Ġball":6138,"Ġboy":6139,"Ġ192":6140,"Ġ1936":6141,"Ġ1932":6142,"Ġdx":6143,"Ġdet":6144,"Ġdiff":6145,"Ġdennis":6146,"ĠBer":6147,"ĠBishop":6148,"Ġfb":6149,"Ġfeb":6150,"Ġfive":6151,"rod":6152,"change":6153,"ĠReverse":6154,"Ġng":6155,"Ġnum":6156,"Ġnash":6157,"Ġob":6158,"Ġoklahoma":6159,"ĠVan":6160,"iron":6161,"Ġast":6162,"Ġage":6163,"tha":6164,"thard":6165,"andra":6166,"Ġwars":6167,"Ġwta":6168,"imir":6169,"immer":6170,"âĢ¢":6171,"ĠPlayers":6172,"rade":6173,"ĠIg":6174,"Ġga":6175,"Ġgear":6176,"Ġgovern":6177,"Ġgolf":6178,"urb":6179,"Ġhorn":6180,"Ġhyd":6181,"Ġ204":6182,"Ġ205":6183,"Ġjess":6184,"ĠResearch":6185,"Ġvic":6186,"Ġrb":6187,"Ġron":6188,"Ġram":6189,"Ġrand":6190,"ubb":6191,"ources":6192,"Ġstars":6193,"Ġlie":6194,"Ġlife":6195,"ĠLocomotive":6196,"ĠSecurity":6197,"ĠJones":6198,"illip":6199,"aga":6200,"ĠUCI":6201,"ĠUEFA":6202,"ifer":6203,"iffer":6204,"Ġchallenge":6205,"Ġ185":6206,"isher":6207,"Ġ144":6208,"Ġ149":6209,"ĠConv":6210,"107":6211,"108":6212,"Ġ157":6213,"Ġdeport":6214,"Ġdeacon":6215,"ĠKey":6216,"ĠDepart":6217,"inees":6218,"akota":6219,"Ġ165":6220,"ĠClassic":6221,"Ġleft":6222,"pulsion":6223,"203":6224,"uster":6225,"Ġ170":6226,"Ġ175":6227,"ĠMarathon":6228,"121":6229,"eball":6230,"ebras":6231,"Ġroger":6232,"Ġlady":6233,"ĠAlabama":6234,"Ġwinners":6235,"Ġwinnipeg":6236,"annon":6237,"ĠRaceway":6238,"igned":6239,"150":6240,"Ġ297":6241,"ĠShot":6242,"awn":6243,"Ġatp":6244,"285":6245,"Ġarkansas":6246,"Ġorgan":6247,"perience":6248,"Ġthrow":6249,"Ġnewcastle":6250,"iction":6251,"ĠTranscription":6252,"egjeld":6253,"nership":6254,"ized":6255,"quest":6256,"ĠPlant":6257,"emocrats":6258,"ĠCharlotte":6259,"Ġconference":6260,"Ġconceded":6261,"Ġcook":6262,"ĠScorer":6263,"ĠReported":6264,"Ġeddie":6265,"Ġminutes":6266,"Ġsuz":6267,"ĠDisco":6268,"ĠSingapore":6269,"Ġmonte":6270,"ussen":6271,"ĠSuccess":6272,"Ġcanadian":6273,"Ġslov":6274,"Ġprevious":6275,"aldi":6276,"ĠValley":6277,"ĠPhon":6278,"ĠPhil":6279,"ynamo":6280,"Ġtommy":6281,"ĠAspect":6282,"Ġplat":6283,"ĠFrancisco":6284,"ĠElevator":6285,"ÃŃa":6286,"ĠPatrick":6287,"ĠHorizontal":6288,"Ġtransfer":6289,"ĠActive":6290,"ĠVoltage":6291,"Ġwalter":6292,"Ġwarriors":6293,"Ġeastern":6294,"chez":6295,"ĠSunk":6296,"Ġmorris":6297,"Ġstephen":6298,"Ġfreight":6299,"Ġfreestyle":6300,"Ġavailable":6301,"ĠRoberts":6302,"ymn":6303,"Ġchevrolet":6304,"Ġentered":6305,"Ġperformed":6306,"Ġperformance":6307,"ĠSimplified":6308,"ĠBallarat":6309,"lavia":6310,"ĠGuard":6311,"Ġberlin":6312,"ĠMetric":6313,"Ġstanley":6314,"ĠPrefix":6315,"ĠFoundation":6316,"Ġislanders":6317,"ĠKevin":6318,"ĠWeapon":6319,"ĠAccred":6320,"retti":6321,"Ġbbc":6322,"Ġmotorsport":6323,"Ġmotorsports":6324,"ĠWindows":6325,"Ġattendance":6326,"Ġreceipts":6327,"Ġtalbot":6328,"uncan":6329,"Ġsupporting":6330,"MEBOL":6331,"Ġinvolved":6332,"pinion":6333,"Ġtourist":6334,"Ġreligion":6335,"ĠArabic":6336,"ĠCanton":6337,"ĠOliver":6338,"ĠSoftware":6339,"ĠNordic":6340,"Parish":6341,"ĠCONMEBOL":6342,"ĠQueens":6343,"penditure":6344,"ĠCardinalatial":6345,"Ġpedro":6346,"Ġvalencia":6347,"ĠUtah":6348,"Ã©tico":6349,"ribution":6350,"ĠEntrepren":6351,"ĠBecame":6352,"ĠDiscipline":6353,"Location":6354,"ĠArizona":6355,"ĠDCSF":6356,"ebraska":6357,"ĠEntrepreneur":6358,"'m":6359,"..":6360,"805":6361,"Cap":6362,"FM":6363,"Hispanic":6364,"It":6365,"Met":6366,"Millions":6367,"PS":6368,"Prest":6369,"Se":6370,"TS":6371,"Trans":6372,"aur":6373,"ble":6374,"box":6375,"cla":6376,"code":6377,"feld":6378,"fox":6379,"hind":6380,"jan":6381,"lis":6382,"miss":6383,"pur":6384,"rÃ©":6385,"rington":6386,"til":6387,"zer":6388,"zers":6389,"Ã¬":6390,"ÄĹ":6391,"ËĪ":6392,"Ð²":6393,"å¤":6394,"åħ":6395,"Ġ:":6396,"ĠSI":6397,"ĠSr":6398,"ĠSort":6399,"Ġtem":6400,"ĠWN":6401,"ĠWang":6402,"ĠFif":6403,"ĠFailures":6404,"ĠFirm":6405,"ĠAsh":6406,"ĠCOM":6407,"ĠCeremony":6408,"enes":6409,"ĠPa":6410,"ĠPast":6411,"ĠPione":6412,"ĠTen":6413,"ĠTong":6414,"ĠTele":6415,"ĠTail":6416,"alk":6417,"ĠDX":6418,"ĠDrag":6419,"ĠRally":6420,"ĠMel":6421,"ĠMount":6422,"stan":6423,"stadion":6424,"Ġ(âĤ¬":6425,"ĠLad":6426,"ĠLif":6427,"ĠNavy":6428,"Ġsus":6429,"Ġsak":6430,"Ġslo":6431,"Ġserv":6432,"Ġsuns":6433,"lap":6434,"00000":6435,"ominees":6436,"eded":6437,"ĠGiro":6438,"Ġcoul":6439,"Ġcanucks":6440,"cell":6441,"rive":6442,"ĠHC":6443,"ĠHal":6444,"ĠHamilton":6445,"ĠHanz":6446,"ĠHanja":6447,"Ġmun":6448,"Ġmary":6449,"Ġmile":6450,"Ġmanufacturer":6451,"Ġmidd":6452,"Ġmoor":6453,"ĠCOSP":6454,"Ġpla":6455,"Ġpage":6456,"Ġpier":6457,"oline":6458,"Ġbow":6459,"Ġbeng":6460,"Ġbroad":6461,"Ġburn":6462,"Ġballe":6463,"Ġ1919":6464,"Ġ1930":6465,"Ġ1928":6466,"Ġ1905":6467,"Ġ1935":6468,"ĠEU":6469,"Ġdome":6470,"Ġdur":6471,"Ġdest":6472,"Ġdale":6473,"ĠBear":6474,"ĠBang":6475,"ĠBattle":6476,"elty":6477,"Ġfel":6478,"Ġfire":6479,"Ġfounded":6480,"Ġfalcons":6481,"Ġok":6482,"ĠVer":6483,"Ġaa":6484,"ppe":6485,"uma":6486,"umed":6487,"umph":6488,"thous":6489,"ĠIr":6490,"Ġgro":6491,"Ġgir":6492,"Ġgill":6493,"ending":6494,"ĠStrong":6495,"Ġhd":6496,"Ġhugh":6497,"Ġ202":6498,"ema":6499,"ĠCounties":6500,"idad":6501,"Ġrams":6502,"Ġstable":6503,"Ġlt":6504,"Ġlat":6505,"ĠCharter":6506,"ĠChrome":6507,"ĠSeed":6508,"ĠJose":6509,"Ġkang":6510,"Ġkelly":6511,"iah":6512,"ups":6513,"Ġchip":6514,"Ġchoke":6515,"ensen":6516,"irement":6517,"ĠColour":6518,"ĠColumbia":6519,"ĠPropulsion":6520,"acy":6521,"acional":6522,"Ġsec":6523,"Ġdepth":6524,"Ġ134":6525,"ĠKim":6526,"ĠKurs":6527,"assi":6528,"ructure":6529,"Ġ160":6530,"term":6531,"Ġled":6532,"Ġunivers":6533,"Ġyards":6534,"209":6535,"lands":6536,"ĠNumbers":6537,"Ġandre":6538,"122":6539,"127":6540,"ondo":6541,"ĠRegistered":6542,"1990":6543,"iki":6544,"oga":6545,"ogan":6546,"Ġ234":6547,"enguins":6548,"Ġrose":6549,"Ġfinals":6550,"Ġ274":6551,"ellow":6552,"ĠThrows":6553,"2001":6554,"Ġ293":6555,"Ġperth":6556,"308":6557,"aneiro":6558,"283":6559,"ĠRoss":6560,"lena":6561,"ĠPrivate":6562,"Ġspace":6563,"ĠPrec":6564,"278":6565,"election":6566,"iled":6567,"266":6568,"267":6569,"Ġuse":6570,"Ġusers":6571,"ĠAvailable":6572,"ĠNovelty":6573,"ĠManchester":6574,"ĠStarted":6575,"azine":6576,"Ġbronze":6577,"Ġnorthern":6578,"Ġ1945":6579,"ĠCharacters":6580,"lorer":6581,"Ġmclar":6582,"ĠMedia":6583,"miles":6584,"ĠMembers":6585,"orgen":6586,"Ġappearance":6587,"Ġnotre":6588,"ĠDisp":6589,"others":6590,"ĠAddress":6591,"Ġcountries":6592,"Ġprince":6593,"ĠEdmonton":6594,"ĠMinor":6595,"Ġexpect":6596,"Ġmeas":6597,"ullivan":6598,"aldo":6599,"Ġcorner":6600,"Ġanalyst":6601,"eremy":6602,"ĠTermination":6603,"ĠAsians":6604,"Ġdeficiency":6605,"Ġrepublic":6606,"Ġreports":6607,"Ġelim":6608,"Ġafc":6609,"ĠFLap":6610,"ĠFLaps":6611,"ationship":6612,"unsaturated":6613,"Ġà´":6614,"ĠTrop":6615,"ĠStephen":6616,"Ġportland":6617,"ĠMiller":6618,"emple":6619,"ĠSunday":6620,"ĠWheels":6621,"Ġbruce":6622,"Ġevans":6623,"à®®":6624,"ĠSolar":6625,"Ġnicklaus":6626,"ĠMalaysia":6627,"Ġoutput":6628,"Ġbirths":6629,"Ġrussell":6630,"Ġpalace":6631,"ological":6632,"Ġprofile":6633,"Ġretirement":6634,"Ġirwin":6635,"ĠGrade":6636,"ĠArchive":6637,"ĠExplorer":6638,"Int":6639,"ĠBoard":6640,"Ġskip":6641,"ĠDelivery":6642,"Ġsantiago":6643,"Ġweekly":6644,"0000000000000":6645,"Ġfactor":6646,"Ġsurface":6647,"gypt":6648,"Ġcurrently":6649,"Ġbbl":6650,"Ġmatthew":6651,"mitter":6652,"Ġpennsylvania":6653,"Ġloan":6654,"Ġukraine":6655,"Engine":6656,"kovÃ¡":6657,"ĠMichigan":6658,"Ġwebsite":6659,"ĠFirefox":6660,"ĠLyricist":6661,"ĠInvestment":6662,"ĠDivis":6663,"Ġwildcats":6664,"Ġlorenzo":6665,"Ġbuilding":6666,"ĠSpacecraft":6667,"ĠLibertadores":6668,"ĠBuffalo":6669,"ĠVirtual":6670,"atinum":6671,"ĠDominant":6672,"Ġpublication":6673,"Ġcorey":6674,"ĠSideline":6675,"Ġcircuit":6676,"ĠBullet":6677,"ĠSupporting":6678,"áĥĲáĥ":6679,"Ġdirector":6680,"wegian":6681,"ĠPortrayed":6682,"áŁłáŁł":6683,"ĠPolyunsaturated":6684,"ĠHenry":6685,"ĠHangul":6686,"ĠSchedule":6687,"icrosoft":6688,"ĠHanyu":6689,"Ġnashville":6690,"ĠDepartment":6691,"ymnast":6692,"Prestegjeld":6693,"ĠFifth":6694,"Ġcoulthard":6695,"ĠHanzi":6696,"ĠCOSPAR":6697,"ĠKursk":6698,"Ġmclaren":6699,"214":6700,"625":6701,"Be":6702,"Com":6703,"From":6704,"GR":6705,"Night":6706,"Oy":6707,"Oce":6708,"Poly":6709,"Rating":6710,"TH":6711,"Week":6712,"]]":6713,"bc":6714,"bas":6715,"band":6716,"bank":6717,"bec":6718,"cury":6719,"ders":6720,"fr":6721,"fers":6722,"gil":6723,"gel":6724,"giro":6725,"hr":6726,"hat":6727,"hire":6728,"hai":6729,"iu":6730,"iance":6731,"iors":6732,"just":6733,"key":6734,"lian":6735,"mas":6736,"mers":6737,"maker":6738,"night":6739,"oing":6740,"och":6741,"olas":6742,"pf":6743,"pass":6744,"sq":6745,"spe":6746,"sville":6747,"ti":6748,"tel":6749,"uh":6750,"uv":6751,"uer":6752,"uka":6753,"uve":6754,"vor":6755,"vik":6756,"won":6757,"zi":6758,"½ł":6759,"Â½":6760,"Ãł":6761,"Ä±":6762,"Ð´":6763,"ÑĨ":6764,"à³":6765,"áŀ":6766,"ä¸":6767,"Ġif":6768,"Ġell":6769,"ĠSEC":6770,"ĠShe":6771,"ĠSaf":6772,"ĠSample":6773,"ĠSaskatchewan":6774,"Ġtul":6775,"Ġterry":6776,"Ġterritory":6777,"Ġtechn":6778,"ĠWat":6779,"ĠWSU":6780,"ĠFT":6781,"ĠFort":6782,"ĠFly":6783,"abwe":6784,"ĠAS":6785,"ĠAle":6786,"ĠAired":6787,"ĠAAM":6788,"ĠATM":6789,"eration":6790,"inh":6791,"atist":6792,"ĠCable":6793,"ĠCod":6794,"ĠCAL":6795,"ĠCancel":6796,"enko":6797,"anes":6798,"orage":6799,"ĠPers":6800,"aru":6801,"aria":6802,"ĠTer":6803,"Ġ213":6804,"ĠDid":6805,"ĠDFL":6806,"ĠDual":6807,"ĠDoug":6808,"ĠDemocrats":6809,"ĠRU":6810,"ĠRam":6811,"ĠRing":6812,"ĠRAtt":6813,"ĠRangers":6814,"ĠMir":6815,"ĠMoto":6816,"ĠMother":6817,"ĠMexico":6818,"ĠMaterial":6819,"itans":6820,"itial":6821,"ĠLL":6822,"ĠLor":6823,"ĠLett":6824,"ĠLiga":6825,"ĠNelson":6826,"Ġsr":6827,"Ġset":6828,"Ġsox":6829,"icester":6830,"ĠGB":6831,"ĠGN":6832,"ĠGil":6833,"ĠGary":6834,"Ġcoup":6835,"Ġcob":6836,"Ġcurtis":6837,"Ġcelt":6838,"Ġcowboys":6839,"Ġcitiz":6840,"ĠOL":6841,"ĠHin":6842,"ĠHear":6843,"Ġmik":6844,"Ġmob":6845,"Ġmountain":6846,"Ġmiddle":6847,"reland":6848,"Ġpist":6849,"Ġpatt":6850,"Ġpierre":6851,"Ġpressure":6852,"Ġbah":6853,"Ġbuck":6854,"ilo":6855,"ilt":6856,"Ġ1900":6857,"Ġ1910":6858,"Ġ1914":6859,"Ġ1923":6860,"Ġ1907":6861,"asco":6862,"asaki":6863,"ĠEric":6864,"Ġdame":6865,"Ġdun":6866,"Ġdim":6867,"ĠBur":6868,"ĠBurn":6869,"elch":6870,"Ġfig":6871,"Ġfound":6872,"Ġfiji":6873,"eto":6874,"ches":6875,"ĠRemark":6876,"Ġnig":6877,"Ġnord":6878,"verty":6879,"Ġos":6880,"Ġow":6881,"ĠVert":6882,"Ġak":6883,"Ġaff":6884,"ppa":6885,"ĠLove":6886,"Ġwa":6887,"Ġwisconsin":6888,"imated":6889,"âĢĶ":6890,"ssels":6891,"rak":6892,"ĠIps":6893,"ĠIII":6894,"ĠIreland":6895,"Ġgab":6896,"Ġgul":6897,"Ġgonz":6898,"Ġgrowth":6899,"ĠStan":6900,"ĠStorm":6901,"ĠStock":6902,"ĠStuart":6903,"Ġhs":6904,"Ġhel":6905,"Ġhamp":6906,"Ġ207":6907,"Ġja":6908,"Ġjazz":6909,"Ġjosh":6910,"emical":6911,"artney":6912,"tter":6913,"ĠReserv":6914,"Ġvin":6915,"Ġvil":6916,"Ġvari":6917,"Ġviet":6918,"Ġrh":6919,"Ġrud":6920,"Ġstr":6921,"Ġstade":6922,"Ġlib":6923,"usen":6924,"ĠChern":6925,"ĠJason":6926,"ĠJac":6927,"ĠJury":6928,"ĠJump":6929,"Ġkg":6930,"Ġkh":6931,"Ġkat":6932,"Ġkot":6933,"Ġkey":6934,"Ġkaw":6935,"Ġkraft":6936,"Ġkbit":6937,"ĠInform":6938,"ĠInns":6939,"agen":6940,"agar":6941,"aging":6942,"agues":6943,"agement":6944,"ipment":6945,"Ġelapsed":6946,"iven":6947,"Ġchile":6948,"ĠComments":6949,"Ġ183":6950,"Ġ186":6951,"Ġ188":6952,"ĠColl":6953,"ishi":6954,"ished":6955,"ĠLeagues":6956,"Ġrequ":6957,"ĠCondu":6958,"ĠCongress":6959,"Ġ154":6960,"Ġ158":6961,"Ġseve":6962,"Ġdebut":6963,"ĠKann":6964,"ĠKaz":6965,"ĠDistribution":6966,"Ġ161":6967,"Ġ1600":6968,"Ġleh":6969,"Ġleeds":6970,"Ġye":6971,"ava":6972,"126":6973,"129":6974,"tonnes":6975,"Ġairing":6976,"Ġmarl":6977,"Ġmarco":6978,"Ġmarcus":6979,"Ġ229":6980,"130":6981,"136":6982,"Ġ240":6983,"Ġrovers":6984,"ĠAlpha":6985,"Ġelect":6986,"Ġgran":6987,"Ġnumbers":6988,"Ġalca":6989,"Ġaltitude":6990,"enne":6991,"ennett":6992,"ennifer":6993,"Ġshin":6994,"Ġshow":6995,"Ġshoot":6996,"185":6997,"189":6998,"ĠAirline":6999,"oku":7000,"Ġcarlo":7001,"ixt":7002,"272":7003,"290":7004,"ĠIntergiro":7005,"ĠGenus":7006,"ĠTransit":7007,"ashi":7008,"Ġprop":7009,"Ġsingapore":7010,"rator":7011,"ression":7012,"ressed":7013,"ĠAssumed":7014,"Ġzimb":7015,"alifier":7016,"ĠAthlet":7017,"491":7018,"333":7019,"nesian":7020,"ĠPlural":7021,"ĠPrince":7022,"ailey":7023,"Ġcole":7024,"Ġrunning":7025,"incl":7026,"ĠEarth":7027,"erald":7028,"Ġwithdrawn":7029,"Ġindividual":7030,"ĠReporters":7031,"Ġedition":7032,"ittee":7033,"ĠMcG":7034,"ĠMcK":7035,"ĠMcN":7036,"Ġoffic":7037,"ĠCommittee":7038,"ĠMoves":7039,"errick":7040,"ĠTelevotes":7041,"ĠActors":7042,"Ġtotals":7043,"Ġscorers":7044,"Ġcharacter":7045,"ĠChannels":7046,"Ġabbreviation":7047,"unda":7048,"ĠBegin":7049,"Ġjackie":7050,"ĠAndre":7051,"Ġafter":7052,"ĠIsolation":7053,"Ġbillions":7054,"ĠSoccer":7055,"years":7056,"ĠStudents":7057,"ĠSubject":7058,"ĠBillboard":7059,"ĠatlÃ©tico":7060,"Ġchristopher":7061,"steros":7062,"Ġschumacher":7063,"ĠActress":7064,"Ġformat":7065,"Ġtrail":7066,"ãģ®":7067,"Ġknicks":7068,"ĠAcres":7069,"Ġbrussels":7070,"à®¿":7071,"Ġannual":7072,"ĠEastern":7073,"Ġathens":7074,"ĠUpstream":7075,"à´Ĥ":7076,"Ġpeople":7077,"Ġpalmer":7078,"ĠAfrica":7079,"ĠCleveland":7080,"ĠFeature":7081,"Ġmemphis":7082,"ĠBelg":7083,"EST":7084,"III":7085,"ladesh":7086,"ipients":7087,"Ġleader":7088,"ĠDownstream":7089,"ĠEquipment":7090,"ĠNorwegian":7091,"ĠISO":7092,"ĠRelationship":7093,"000000000000":7094,"ĠMarried":7095,"lessandro":7096,"ĠSmall":7097,"Ġroman":7098,"ĠPreliminaries":7099,"ĠEntries":7100,"à²¨":7101,"ĠFriend":7102,"Ġjacques":7103,"Ã±o":7104,"ĠKitmaker":7105,"ĠTrim":7106,"ĠBatsmen":7107,"ĠOfsted":7108,"Ġmovies":7109,"ricanes":7110,"ĠAudition":7111,"ĠGoing":7112,"ĠEffic":7113,"ĠReceipts":7114,"Ġleonard":7115,"Ġderby":7116,"Quantity":7117,"ĠCarte":7118,"Ġsyracuse":7119,"Ġpacific":7120,"Ġauthority":7121,"ĠSprint":7122,"ilippines":7123,"Ġfemales":7124,"ĠJews":7125,"ĠDarren":7126,"ĠFunction":7127,"ĠMatthew":7128,"à¥į":7129,"ĠFSB":7130,"ĠFederal":7131,"Ġwednesday":7132,"Ġolivier":7133,"ĠRushing":7134,"ĠâĨĴ":7135,"Ġqueensland":7136,"asmussen":7137,"roximate":7138,"ĠPremiership":7139,"salary":7140,"inthians":7141,"Ġsuzuki":7142,"Metric":7143,"aurant":7144,"missals":7145,"ĠWNBA":7146,"Ġballesteros":7147,"Ġexpectancy":7148,"ĠTropical":7149,"Oyly":7150,"Polynesian":7151,"ĠSafari":7152,"ĠATMs":7153,"ĠLetters":7154,"Ġcouples":7155,"ĠKannada":7156,"Ġzimbabwe":7157,")@":7158,"./":7159,"/(":7160,"217":7161,"270":7162,"268":7163,"350":7164,"Act":7165,"Con":7166,"Cold":7167,"DA":7168,"Died":7169,"German":7170,"IATA":7171,"ION":7172,"MB":7173,"NC":7174,"PI":7175,"Ret":7176,"SA":7177,"SE":7178,"ST":7179,"SW":7180,"Timeslot":7181,"World":7182,"aq":7183,"bus":7184,"cr":7185,"cular":7186,"dr":7187,"des":7188,"eau":7189,"gas":7190,"ih":7191,"jur":7192,"kh":7193,"lon":7194,"mir":7195,"mig":7196,"nell":7197,"pes":7198,"punch":7199,"person":7200,"rr":7201,"rer":7202,"rin":7203,"rank":7204,"rus":7205,"rone":7206,"so":7207,"uen":7208,"uum":7209,"uert":7210,"ving":7211,"ww":7212,"Â¢":7213,"ÃŁ":7214,"Ä«":7215,"Äĥ":7216,"×ķ":7217,"Ùħ":7218,"à°":7219,"ä¹":7220,"Ġul":7221,"Ġother":7222,"Ħĸ":7223,"ĠSus":7224,"ĠSold":7225,"ĠSant":7226,"ĠSell":7227,"Ġten":7228,"Ġtam":7229,"Ġtemple":7230,"ĠWay":7231,"ĠWars":7232,"ĠFis":7233,"ĠFel":7234,"ĠFra":7235,"ĠFumb":7236,"ĠFeb":7237,"ĠFare":7238,"ĠFarm":7239,"ablo":7240,"abbin":7241,"ERCL":7242,"ĠAR":7243,"onial":7244,"aty":7245,"atic":7246,"atian":7247,"ĠCF":7248,"ĠCro":7249,"ĠClay":7250,"ĠCert":7251,"ĠCrime":7252,"ĠCERCL":7253,"ences":7254,"anim":7255,"anner":7256,"amin":7257,"americ":7258,"ĠPens":7259,"ĠPac":7260,"ĠPav":7261,"ĠTot":7262,"ĠTack":7263,"ĠTale":7264,"ĠTerr":7265,"Ġ214":7266,"ĠDrew":7267,"ĠDublin":7268,"ĠRos":7269,"ĠRiders":7270,"ĠRFC":7271,"ĠMW":7272,"ĠMap":7273,"ĠMut":7274,"ĠMath":7275,"ĠMbit":7276,"ĠMiami":7277,"ĠMiddle":7278,"ĠMEP":7279,"itoba":7280,"stern":7281,"ouch":7282,"ĠLites":7283,"Ġsat":7284,"Ġsound":7285,"Ġsav":7286,"Ġsix":7287,"Ġsoft":7288,"corpor":7289,"ente":7290,"002":7291,"omer":7292,"eda":7293,"edish":7294,"ĠGlen":7295,"ĠGib":7296,"ĠGordon":7297,"Ġcer":7298,"Ġcard":7299,"Ġcarter":7300,"Ġcouncil":7301,"ĠOs":7302,"ĠOilers":7303,"ĠPopular":7304,"cept":7305,"ĠHuman":7306,"Ġmb":7307,"Ġmall":7308,"Ġmak":7309,"Ġmetro":7310,"Ġmika":7311,"Ġmorgan":7312,"read":7313,"Ġpts":7314,"Ġpur":7315,"Ġprom":7316,"Ġpresent":7317,"ollen":7318,"Ġ318":7319,"ouns":7320,"Ġbou":7321,"Ġbig":7322,"Ġbag":7323,"Ġbegan":7324,"ily":7325,"Ġ191":7326,"Ġ1925":7327,"Ġ1949":7328,"Ġ1902":7329,"Ġ1938":7330,"Ġ1931":7331,"Ġ1937":7332,"ĠYr":7333,"ĠYield":7334,"asia":7335,"ĠEP":7336,"Ġdub":7337,"Ġduc":7338,"Ġdoug":7339,"Ġdanny":7340,"ĠBad":7341,"ĠBry":7342,"elo":7343,"eland":7344,"Ġfer":7345,"Ġfitt":7346,"Ġfuel":7347,"ete":7348,"ety":7349,"ĠReb":7350,"ĠReference":7351,"ĠRebs":7352,"Ġnich":7353,"Ġnotes":7354,"Ġnominees":7355,"Ġ450":7356,"ĠVIII":7357,"ires":7358,"Ġah":7359,"Ġaj":7360,"Ġaction":7361,"Ġaston":7362,"Ġauckland":7363,"Ġaaron":7364,"pped":7365,"uno":7366,"uela":7367,"ĠLoan":7368,"igo":7369,"ther":7370,"ande":7371,"Ġwolf":7372,"Ġwidth":7373,"ĠStone":7374,"ĠStaff":7375,"Ġhi":7376,"Ġhor":7377,"Ġhour":7378,"Ġhew":7379,"Ġhunter":7380,"Ġ206":7381,"emi":7382,"ĠRankings":7383,"aples":7384,"ighbor":7385,"Ġvi":7386,"Ġrice":7387,"Ġralph":7388,"Ġrasmussen":7389,"ourg":7390,"ickness":7391,"Ġstad":7392,"Ġstuart":7393,"usa":7394,"ĠCham":7395,"ĠSector":7396,"ĠSection":7397,"Ġkas":7398,"Ġkenny":7399,"Ġkurtis":7400,"ĠInjur":7401,"illy":7402,"aine":7403,"ained":7404,"ckout":7405,"agg":7406,"agner":7407,"ĠUser":7408,"alls":7409,"upiter":7410,"lesbr":7411,"uten":7412,"Ġever":7413,"ivo":7414,"ives":7415,"ivities":7416,"ivalent":7417,"Ġ142":7418,"ovic":7419,"ovÃ¡":7420,"Ġsea":7421,"Ġseoul":7422,"Ġsebast":7423,"Ġdead":7424,"Ġ137":7425,"Ġtheatre":7426,"Ġ162":7427,"Ġ169":7428,"Ġlewis":7429,"Ġleicester":7430,"Ġfore":7431,"ĠComposition":7432,"ĠComplement":7433,"Ġunit":7434,"Ġyank":7435,"Ġyouth":7436,"essors":7437,"111":7438,"201":7439,"umbus":7440,"Ġ171":7441,"Ġandrea":7442,"Ġandretti":7443,"ĠMarcus":7444,"cycle":7445,"ĠRegions":7446,"1999":7447,"Ġmarc":7448,"Ġmarri":7449,"ichi":7450,"142":7451,"147":7452,"Ġ222":7453,"Ġ224":7454,"135":7455,"rill":7456,"ikos":7457,"Ġ216":7458,"Ġrole":7459,"Ġlav":7460,"athy":7461,"athina":7462,"Ġ305":7463,"ĠAllen":7464,"ĠOutput":7465,"Ġ270":7466,"Ġgrant":7467,"Ġalan":7468,"Ġalabama":7469,"Ġ284":7470,"Ġshar":7471,"Ġshort":7472,"onso":7473,"170":7474,"oka":7475,"okie":7476,"ixels":7477,"Ġnewman":7478,"Ġspart":7479,"obyl":7480,"ĠPregame":7481,"ahl":7482,"273":7483,"275":7484,"505":7485,"Ġfranc":7486,"291":7487,"ĠRepublic":7488,"ĠExec":7489,"ĠGene":7490,"Ġadv":7491,"Ġcomb":7492,"ĠCalling":7493,"236":7494,"ega":7495,"ressive":7496,"ĠAssociation":7497,"ĠâĦĸ":7498,"Ġcolour":7499,"Ġcoliseum":7500,"ĠAthletic":7501,"lacement":7502,"Ġqualifier":7503,"lines":7504,"Ġucla":7505,"Ġ1944":7506,"ĠPlanet":7507,"ĠPron":7508,"velopment":7509,"Ġcoy":7510,"Ġenglish":7511,"ective":7512,"Ġbarry":7513,"elsen":7514,"ĠMcD":7515,"Ġminardi":7516,"ĠDismissals":7517,"ĠMunicipal":7518,"ĠSweden":7519,"ĠTelevote":7520,"Ġmonaco":7521,"ĠLaunches":7522,"ĠGreat":7523,"Ġexample":7524,"Ġmead":7525,"ĠGeograph":7526,"ĠOrdinary":7527,"ĠOrdained":7528,"ĠFloor":7529,"Ġwhit":7530,"osse":7531,"áĥĺ":7532,"ĠAsia":7533,"ambridge":7534,"ĠBeat":7535,"Ġbelarus":7536,"ĠEstimated":7537,"ĠWhit":7538,"ĠAnderson":7539,"Ġdesk":7540,"ĠAggressive":7541,"ĠVersus":7542,"kWp":7543,"ÃŃg":7544,"ĠPresenter":7545,"ĠSubd":7546,"Ġà¤":7547,"ĠAbbreviation":7548,"useppe":7549,"ĠPortuguese":7550,"Ġemerson":7551,"Ġportug":7552,"ĠSenator":7553,"ĠColorado":7554,"Ġactivities":7555,"Ð°Ð½":7556,"Ġrio":7557,"strong":7558,"Ġeric":7559,"Ġmedia":7560,"bek":7561,"ippers":7562,"ternal":7563,"ymbol":7564,"ĠFlight":7565,"Ġluigi":7566,"State":7567,"ĠCores":7568,"feet":7569,"Ġentering":7570,"ĠJudges":7571,"ĠProfile":7572,"Ġquebec":7573,"Ġivan":7574,"munist":7575,"ariant":7576,"ĠPublication":7577,"ladimir":7578,"ĠDownhill":7579,"vention":7580,"uttle":7581,"ĠMemorial":7582,"Ġmalaysia":7583,"ĠChristian":7584,"ĠReligion":7585,"ĠMetal":7586,"Ġcasey":7587,"Ġstanford":7588,"ĠMaid":7589,"Ġbrowns":7590,"Ġapr":7591,"Ġayr":7592,"ĠConsum":7593,"ĠQuarterfinals":7594,"Ġsemi":7595,"Ġjacob":7596,"ĠWallace":7597,"Ġsenior":7598,"ĠSabha":7599,"ĠCivilian":7600,"ACX":7601,"hawks":7602,"ĠAtl":7603,"Ð¾Ð²":7604,"ĠLyrics":7605,"Ġsmall":7606,"Ġgiuseppe":7607,"leneuve":7608,"ĠACC":7609,"ĠCheckout":7610,"ĠSlovenes":7611,"Ġgalaxy":7612,"ĠMotorsports":7613,"ĠAutom":7614,"ĠCreator":7615,"ĠRiding":7616,"Ġblazers":7617,"ĠImage":7618,"Ġcardinals":7619,"Ġdragons":7620,"righton":7621,"ĠRestaurant":7622,"ĠParticipants":7623,"ĠKilomet":7624,"à±ģ":7625,"ĠSamples":7626,"ĠCPU":7627,"ĠRoger":7628,"Ġnsw":7629,"Ġarrowhead":7630,"ĠSpokesperson":7631,"ĠCatches":7632,"ĠPakistan":7633,"ĠKorean":7634,"ĠArchitecture":7635,"ĠAccession":7636,"ĠPioneer":7637,"Ġmiddlesbr":7638,"Ġmoorabbin":7639,"ĠBangladesh":7640,"orgenstern":7641,"Ġcornerback":7642,"Communist":7643,"Oceanic":7644,"justed":7645,"ĠHindu":7646,"ĠChernobyl":7647,"ixtures":7648,"ĠAthletes":7649,"uerto":7650,"ĠCERCLIS":7651,"animous":7652,"americana":7653,"ĠTackles":7654,"corporated":7655,"Ġducati":7656,"ighborhood":7657,"ĠInjured":7658,"athinaikos":7659,"Ġmiddlesbrough":7660,"*)":7661,"/-":7662,"220":7663,"216":7664,"229":7665,"269":7666,"512":7667,"525":7668,"585":7669,"562":7670,"900":7671,"AB":7672,"AJ":7673,"EA":7674,"EE":7675,"Ex":7676,"For":7677,"MR":7678,"OC":7679,"Province":7680,"RP":7681,"Re":7682,"Rec":7683,"SC":7684,"Score":7685,"School":7686,"Song":7687,"TR":7688,"UR":7689,"Urban":7690,"[|":7691,"bon":7692,"bridge":7693,"cul":7694,"dome":7695,"fol":7696,"fig":7697,"fect":7698,"fred":7699,"hm":7700,"ige":7701,"iques":7702,"jp":7703,"jÃ¶":7704,"jhl":7705,"ken":7706,"khz":7707,"mg":7708,"mes":7709,"metres":7710,"pir":7711,"pia":7712,"pop":7713,"pension":7714,"rants":7715,"sf":7716,"tz":7717,"vement":7718,"wan":7719,"war":7720,"week":7721,"with":7722,"water":7723,"yard":7724,"zbek":7725,"²ī":7726,"Ã«":7727,"ÄŁ":7728,"à§":7729,"à½":7730,"ä½ł":7731,"ìŀ":7732,"ï¼":7733,"Ġing":7734,"Ġany":7735,"Ġana":7736,"ĠSL":7737,"ĠSess":7738,"lets":7739,"Ġti":7740,"Ġtight":7741,"ĠWS":7742,"ĠWounded":7743,"ĠWright":7744,"ĠWayne":7745,"ĠWimmer":7746,"ĠFam":7747,"ĠFla":7748,"ĠFur":7749,"ĠFut":7750,"ĠFight":7751,"ĠFiling":7752,"abi":7753,"abeth":7754,"onor":7755,"oning":7756,"inos":7757,"inated":7758,"atia":7759,"ĠCA":7760,"enia":7761,"oran":7762,"orary":7763,"orian":7764,"amara":7765,"ĠPP":7766,"ĠPS":7767,"ĠPld":7768,"ĠPAL":7769,"ĠPairs":7770,"ĠTem":7771,"ĠTOT":7772,"ĠTao":7773,"ĠTuj":7774,"ĠTruck":7775,"alla":7776,"ĠDer":7777,"ĠDick":7778,"ĠDAR":7779,"ĠDuch":7780,"ĠRub":7781,"ĠRud":7782,"ĠRose":7783,"ĠMill":7784,"ĠMah":7785,"ĠMobile":7786,"ĠMachine":7787,"stown":7788,"stroke":7789,"esa":7790,"oux":7791,"ouett":7792,"atest":7793,"ĠLed":7794,"ĠLot":7795,"ĠLines":7796,"ĠLittle":7797,"ĠNS":7798,"ĠNar":7799,"ĠNorm":7800,"ĠNote":7801,"Ġsco":7802,"Ġsett":7803,"Ġsylv":7804,"Ġsafe":7805,"icans":7806,"icardo":7807,"omi":7808,"omes":7809,"ĠGrowth":7810,"Ġcm":7811,"Ġcong":7812,"Ġcond":7813,"Ġcrist":7814,"Ġcbr":7815,"Ġcourse":7816,"Ġcancel":7817,"ĠOv":7818,"ĠOpinion":7819,"riers":7820,"ĠHa":7821,"ĠHist":7822,"ĠHart":7823,"ĠHold":7824,"ĠHong":7825,"ĠHull":7826,"ĠHindi":7827,"Ġmol":7828,"Ġmis":7829,"Ġmult":7830,"Ġmort":7831,"Ġmoh":7832,"Ġmath":7833,"Ġmuse":7834,"Ġmetres":7835,"rex":7836,"rease":7837,"Ġpors":7838,"Ġpict":7839,"Ġpetro":7840,"Ġperson":7841,"Ġpride":7842,"Ġpenguins":7843,"Ġpablo":7844,"olves":7845,"ounced":7846,"Ġbc":7847,"Ġbat":7848,"Ġbro":7849,"Ġbass":7850,"Ġbald":7851,"Ġboys":7852,"Ġbishop":7853,"Ġbulls":7854,"Ġbasketball":7855,"Ġbirmingham":7856,"Ġ1911":7857,"Ġ1912":7858,"Ġ1906":7859,"eara":7860,"asy":7861,"ĠEk":7862,"ĠEss":7863,"ĠESP":7864,"Ġdr":7865,"Ġdw":7866,"Ġdod":7867,"Ġdow":7868,"Ġdowns":7869,"Ġdolphins":7870,"Ġduncan":7871,"ĠBog":7872,"ĠBern":7873,"ĠBrad":7874,"ĠBids":7875,"ctive":7876,"elia":7877,"Ġfis":7878,"Ġfro":7879,"Ġfair":7880,"Ġfury":7881,"Ġfarm":7882,"cht":7883,"ĠRey":7884,"ĠReign":7885,"ĠReader":7886,"Ġnar":7887,"Ġnative":7888,"Ġnec":7889,"Ġnebraska":7890,"verhampton":7891,"Ġod":7892,"Ġox":7893,"Ġoz":7894,"Ġoil":7895,"ĠVill":7896,"ĠVariant":7897,"iras":7898,"Ġaus":7899,"Ġave":7900,"ĠPlayoff":7901,"ĠLower":7902,"iggin":7903,"Ġwk":7904,"Ġwel":7905,"Ġward":7906,"Ġwounded":7907,"Ġwings":7908,"Ġwayne":7909,"ssible":7910,"ract":7911,"ĠIf":7912,"âĢĵ$":7913,"Ġgb":7914,"Ġgh":7915,"Ġguil":7916,"Ġgpl":7917,"Ġghz":7918,"Ġgrizzlies":7919,"uru":7920,"urning":7921,"enda":7922,"endments":7923,"Ġ700":7924,"Ġhear":7925,"Ġhot":7926,"Ġhend":7927,"Ġjar":7928,"Ġjamie":7929,"ancell":7930,"Ġindependent":7931,"Ġintegrated":7932,"tton":7933,"Ġva":7934,"Ġve":7935,"Ġvow":7936,"Ġview":7937,"Ġvirgin":7938,"Ġring":7939,"Ġrick":7940,"ube":7941,"Ġstill":7942,"ĠChallen":7943,"ĠLocale":7944,"ĠSepal":7945,"ĠJon":7946,"ĠJan":7947,"ĠJay":7948,"ĠJess":7949,"ĠJob":7950,"Ġ978":7951,"Ġkra":7952,"ĠIng":7953,"ĠInfl":7954,"illo":7955,"owell":7956,"estants":7957,"ĠEnrol":7958,"ipaldi":7959,"uty":7960,"Ġchart":7961,"Ġchief":7962,"enses":7963,"umberland":7964,"ĠToy":7965,"Ġ1800":7966,"Ġ1857":7967,"Ġ1894":7968,"ĠColt":7969,"amento":7970,"Ġrecent":7971,"riders":7972,"ĠPartnership":7973,"Ġ159":7974,"ĠKcal":7975,"ĠKelly":7976,"ĠDeleted":7977,"ĠDelaware":7978,"ongol":7979,"quet":7980,"Ġ164":7981,"Ġleo":7982,"Ġforce":7983,"Ġforest":7984,"ĠComplete":7985,"ĠCompression":7986,"Ġyi":7987,"Ġyoun":7988,"uding":7989,"Ġpop":7990,"ansen":7991,"Ġ174":7992,"anges":7993,"ewable":7994,"aves":7995,"ugg":7996,"onder":7997,"ĠRegul":7998,"1960":7999,"1992":8000,"lobal":8001,"Ġmarsh":8002,"ebo":8003,"145":8004,"Ġ228":8005,"ikk":8006,"ophe":8007,"Ġ235":8008,"ĠQS":8009,"Ġlakers":8010,"Ġfinalists":8011,"ignment":8012,"152":8013,"ĠFreight":8014,"ivered":8015,"resh":8016,"162":8017,"255":8018,"Ġraf":8019,"Ġrah":8020,"Ġalonso":8021,"Ġ285":8022,"286":8023,"289":8024,"Ġarn":8025,"ĠMonouns":8026,"Ġoran":8027,"into":8028,"Ġsoutheast":8029,"Ġspa":8030,"Ġspr":8031,"ĠSpoo":8032,"680":8033,"298":8034,"ĠFinishes":8035,"ĠExperience":8036,"ĠExternal":8037,"center":8038,"Ġadams":8039,"Ġcommon":8040,"242":8041,"Ġprov":8042,"060":8043,"atta":8044,"Ġ340":8045,"099":8046,"264":8047,"Ġusc":8048,"ghan":8049,"quee":8050,"uther":8051,"Ġcolin":8052,"ĠManila":8053,"ĠStarting":8054,"Ġzhang":8055,"letics":8056,"ĠAwardee":8057,"Ġgrey":8058,"link":8059,"Ã¡s":8060,"Ġprivate":8061,"anufacture":8062,"Ġcover":8063,"ĠMedium":8064,"ATION":8065,"Ġwithout":8066,"Ġindians":8067,"Ġoffensive":8068,"Ġonly":8069,"761":8070,"ĠZe":8071,"ĠBarry":8072,"362":8073,"ĠHeadphone":8074,"radition":8075,"africa":8076,"etta":8077,"oughriders":8078,"ĠEditor":8079,"ĠMinimum":8080,"Ġext":8081,"ĠParis":8082,"ĠNorthumberland":8083,"vez":8084,"Ġheavy":8085,"Ġparticip":8086,"Ġabd":8087,"ĠValid":8088,"Ġcork":8089,"Ġcorporation":8090,"ĠPhoenix":8091,"arsity":8092,"ĠAlliance":8093,"uelta":8094,"ĠMuslim":8095,"ambool":8096,"onesia":8097,"ĠOblast":8098,"ĠÐ³":8099,"ĠTypes":8100,"iseach":8101,"ĠEstimate":8102,"ĠWhere":8103,"ĠAndy":8104,"ĠIsrael":8105,"Ġjoined":8106,"ĠCylin":8107,"Ġmilwaukee":8108,"Ġpaulo":8109,"Ġlouisville":8110,"ĠSuburb":8111,"ĠLandesliga":8112,"closed":8113,"Ġspec":8114,"Ġlocomotive":8115,"ĠMississippi":8116,"ĠWebcast":8117,"Ġgene":8118,"ĠVolleyball":8119,"allel":8120,"Ġwarrn":8121,"ĠRecopa":8122,"emporary":8123,"Ġdenis":8124,"Ġflames":8125,"Ġcontrol":8126,"ĠClosed":8127,"Ġtrin":8128,"Ġcaller":8129,"ĠLarry":8130,"ĠBBI":8131,"Ġengineering":8132,"Ġera":8133,"Ġathletics":8134,"Ġmedium":8135,"western":8136,"Ġimmig":8137,"ĠAnnounced":8138,"Ġmaur":8139,"Ġfeatur":8140,"Finalist":8141,"ĠVillains":8142,"ĠSchw":8143,"skins":8144,"Ġmemory":8145,"ĠSaturated":8146,"ĠExports":8147,"Inter":8148,"olade":8149,"Ġsponsored":8150,"ĠBook":8151,"ĠJackson":8152,"Ġholes":8153,"Ġhamburg":8154,"Ã¡nchez":8155,"ĠLineup":8156,"Ġdevils":8157,"ĠScottish":8158,"keeper":8159,"Ã¸r":8160,"ĠDonald":8161,"ĠDelivered":8162,"carlo":8163,"Ġpresenter":8164,"ĠIdentity":8165,"ĠBinary":8166,"ĠAccolade":8167,"ĠConsort":8168,"Ġtaken":8169,"Ġbradley":8170,"Ã¼rgen":8171,"force":8172,"espan":8173,"Ġdamon":8174,"Ġlyon":8175,"ĠSyracuse":8176,"ĠMorris":8177,"ĠPostseason":8178,"Ġelectricity":8179,"ĠÉĻ":8180,"Ġherbert":8181,"entials":8182,"Ġcampbell":8183,"ĠRomanised":8184,"ĠAsts":8185,"Ġmajority":8186,"ĠFactor":8187,"ĠPaper":8188,"ĠLawrence":8189,"Ġbolton":8190,"Ġfloyd":8191,"ĠRaiders":8192,"urdue":8193,"ĠCause":8194,"ĠPresentation":8195,"Ġjudge":8196,"Ġvoters":8197,"ĠElectricity":8198,"ĠAssembly":8199,"ĠAssembled":8200,"ĠMotorcycle":8201,"ĠPRR":8202,"ĠMSRP":8203,"Ġclimb":8204,"ĠRemixed":8205,"ĠCyclist":8206,"ĠTiger":8207,"ĠTurnout":8208,"ĠProcessor":8209,"Ġclarke":8210,"ĠPenalty":8211,"ĠRainfall":8212,"Ġmodern":8213,"Ġwolverhampton":8214,"ĠCompletion":8215,"ĠSupplier":8216,"junctive":8217,"ĠSquad":8218,"Ġsergio":8219,"Ġmickelson":8220,"Ġmitchell":8221,"ĠViewing":8222,"Ġkennedy":8223,"Ġspirit":8224,"Simplified":8225,"bayern":8226,"âĨĳ":8227,"ĠSudamericana":8228,"ĠDallas":8229,"Ġplyf":8230,"Ġdetails":8231,"ĠSorted":8232,"thousands":8233,"Ġltd":8234,"ĠDivisions":8235,"à³į":8236,"Ġellis":8237,"ĠWatson":8238,"ĠCancelable":8239,"ĠMotoGP":8240,"ĠIpsos":8241,"Ġrequired":8242,"ĠConductor":8243,"ĠCertification":8244,"Ġfittipaldi":8245,"ĠStaffel":8246,"Ġhewitt":8247,"utenant":8248,"ÃŃguez":8249,"zbekistan":8250,"ĠWimmera":8251,"ĠTOTAL":8252,"ĠTaoiseach":8253,"ĠTujia":8254,"ouettes":8255,"Ġcancelled":8256,"iggins":8257,"Ġvowels":8258,"Ġchiefs":8259,"ĠMonounsaturated":8260,"ĠSpoofed":8261,"Ġwarrnambool":8262,"Ġimmigrants":8263,"025":8264,"315":8265,"325":8266,"330":8267,"406":8268,"520":8269,"524":8270,"566":8271,"595":8272,"850":8273,"910":8274,"919":8275,"925":8276,"Avg":8277,"Bn":8278,"Bo":8279,"Both":8280,"Billions":8281,"CC":8282,"DC":8283,"GE":8284,"GF":8285,"Life":8286,"MS":8287,"MT":8288,"Net":8289,"OR":8290,"Off":8291,"Pro":8292,"Place":8293,"Su":8294,"VR":8295,"ben":8296,"bel":8297,"bine":8298,"borg":8299,"brew":8300,"can":8301,"cise":8302,"country":8303,"copa":8304,"cret":8305,"down":8306,"frac":8307,"gg":8308,"gie":8309,"gos":8310,"gio":8311,"gree":8312,"hc":8313,"hatt":8314,"hof":8315,"iw":8316,"iate":8317,"iel":8318,"ique":8319,"ioli":8320,"jack":8321,"kova":8322,"kollen":8323,"lj":8324,"lm":8325,"lu":8326,"lary":8327,"light":8328,"lice":8329,"mc":8330,"med":8331,"more":8332,"non":8333,"oi":8334,"rones":8335,"rations":8336,"ramento":8337,"rÃŃguez":8338,"si":8339,"ska":8340,"semb":8341,"upp":8342,"uania":8343,"viv":8344,"xis":8345,"yan":8346,"zh":8347,"³ç":8348,"¿¥":8349,"ÂŃ":8350,"Ã¢":8351,"Çİ":8352,"Éª":8353,"Ê²":8354,"Ñĺ":8355,"ÓĻ":8356,"àµ":8357,"á¹":8358,"áł":8359,"åİ":8360,"æĸ":8361,"æĺ":8362,"ï¿¥":8363,"Ġ~":8364,"Ġic":8365,"Ġens":8366,"Ġud":8367,"Ġug":8368,"Ġice":8369,"Ġont":8370,"įĹ":8371,"ĠSi":8372,"ĠSound":8373,"ĠSav":8374,"ĠSites":8375,"ĠSatellite":8376,"lez":8377,"lection":8378,"Ġtun":8379,"Ġtway":8380,"Ġtag":8381,"Ġtimes":8382,"Ġtennis":8383,"Ġtyr":8384,"ĠWild":8385,"ĠWisconsin":8386,"ĠFil":8387,"ĠFund":8388,"ĠFalcons":8389,"ECNet":8390,"ĠAI":8391,"ĠAk":8392,"ĠAlessandro":8393,"eron":8394,"inct":8395,"ĠCu":8396,"ĠCat":8397,"ĠCoal":8398,"ĠCos":8399,"enham":8400,"anie":8401,"anova":8402,"amas":8403,"ĠPun":8404,"ĠPerson":8405,"ĠPages":8406,"ĠPressure":8407,"ĠPTS":8408,"ĠTN":8409,"ĠTill":8410,"ĠTerry":8411,"ĠTerrit":8412,"ĠTreas":8413,"ĠTFR":8414,"alog":8415,"ĠDi":8416,"ĠDru":8417,"ĠDiss":8418,"ĠDAT":8419,"ĠDennis":8420,"ĠRB":8421,"ĠRF":8422,"ĠRi":8423,"ĠRAN":8424,"ĠRECNet":8425,"ĠMic":8426,"ĠMast":8427,"ĠMillions":8428,"ĠMoz":8429,"ĠMoscow":8430,"ĠMurray":8431,"iti":8432,"stad":8433,"stamp":8434,"ouk":8435,"ateur":8436,"Ġ('":8437,"ĠLA":8438,"ĠLis":8439,"ĠLim":8440,"ĠLight":8441,"ĠLangu":8442,"ĠLening":8443,"ĠNI":8444,"ĠNav":8445,"ĠNico":8446,"Ġsb":8447,"Ġson":8448,"Ġsent":8449,"Ġsay":8450,"Ġsup":8451,"Ġsach":8452,"Ġsatur":8453,"Ġsales":8454,"Ġsatellite":8455,"corer":8456,"icia":8457,"entino":8458,"oms":8459,"omon":8460,"ommel":8461,"ombers":8462,"ĠGA":8463,"ĠGS":8464,"ĠGall":8465,"ĠGloss":8466,"ĠGiant":8467,"ĠGirls":8468,"Ġcall":8469,"Ġcip":8470,"Ġcru":8471,"Ġcourt":8472,"ĠOm":8473,"ĠOx":8474,"ĠPoor":8475,"ĠPolit":8476,"celer":8477,"rient":8478,"ĠHP":8479,"ĠHS":8480,"ĠHy":8481,"ĠHer":8482,"ĠHow":8483,"ĠHonor":8484,"Ġmix":8485,"Ġmore":8486,"Ġmeg":8487,"Ġmicrosoft":8488,"rez":8489,"rear":8490,"rected":8491,"Ġpin":8492,"Ġpen":8493,"Ġpate":8494,"Ġpot":8495,"Ġpir":8496,"Ġpers":8497,"Ġpeg":8498,"Ġpga":8499,"Ġpayne":8500,"Ġpurdue":8501,"ols":8502,"olan":8503,"oland":8504,"isen":8505,"isch":8506,"Ġ310":8507,"Ġ3000":8508,"Ġ312":8509,"Ġ325":8510,"Ġ333":8511,"Ġbear":8512,"Ġbun":8513,"Ġblock":8514,"Ġbush":8515,"Ġbrighton":8516,"ilion":8517,"ĠYour":8518,"ĠYellow":8519,"asure":8520,"ĠEs":8521,"ĠEagle":8522,"Ġdall":8523,"Ġdates":8524,"Ġdynamo":8525,"ĠBA":8526,"ĠBC":8527,"ĠBab":8528,"ĠBro":8529,"ĠBrig":8530,"ĠBurg":8531,"ĠBrisbane":8532,"ĠBaby":8533,"eli":8534,"Ġfil":8535,"Ġfun":8536,"Ġfang":8537,"Ġfav":8538,"Ġfund":8539,"Ġfaldo":8540,"etan":8541,"eting":8542,"roid":8543,"chl":8544,"chel":8545,"champ":8546,"Ġnation":8547,"Ġnatal":8548,"Ġnorton":8549,"Ġ4000":8550,"Ġole":8551,"ĠVen":8552,"ĠVend":8553,"ĠVuelta":8554,"irling":8555,"under":8556,"berts":8557,"berry":8558,"ĠLok":8559,"igail":8560,"Ġwad":8561,"Ġwrex":8562,"Ġ640":8563,"imon":8564,"ĠIron":8565,"ĠIMR":8566,"Ġgp":8567,"Ġgan":8568,"Ġgim":8569,"Ġgamb":8570,"Ġgloss":8571,"Ġgordon":8572,"ĠWine":8573,"ĠWinchester":8574,"ĠWinnipeg":8575,"endy":8576,"endan":8577,"ading":8578,"ĠStand":8579,"ĠStamp":8580,"ĠStars":8581,"ĠStages":8582,"Ġhis":8583,"Ġhap":8584,"Ġhere":8585,"Ġhumph":8586,"Ġ208":8587,"Ġji":8588,"Ġjin":8589,"Ġjaneiro":8590,"Ġjennifer":8591,"ements":8592,"Ġindu":8593,"Ġinstit":8594,"Ġinaug":8595,"Ġinches":8596,"cordia":8597,"Ġvale":8598,"Ġvalent":8599,"ides":8600,"Ġrl":8601,"Ġrou":8602,"Ġrus":8603,"Ġrug":8604,"Ġrash":8605,"Ġrca":8606,"Ġricc":8607,"Ġ850":8608,"Ġstock":8609,"Ġstadion":8610,"Ġlind":8611,"user":8612,"ĠChina":8613,"ĠChemical":8614,"ĠSecret":8615,"ĠJu":8616,"ĠJer":8617,"ĠJunior":8618,"ĠJordan":8619,"ĠJean":8620,"Ġkan":8621,"Ġkor":8622,"Ġkre":8623,"Ġkyr":8624,"ĠInf":8625,"ĠIndependent":8626,"iacos":8627,"owed":8628,"ested":8629,"ĠUl":8630,"ĠEnsemb":8631,"Ġbyron":8632,"utler":8633,"ricia":8634,"osp":8635,"oslov":8636,"Ġek":8637,"Ġeug":8638,"ĠGoalkeeper":8639,"Ġcha":8640,"Ġchen":8641,"Ġchand":8642,"Ġchuck":8643,"enship":8644,"enshaw":8645,"Ġ1866":8646,"Ġ1898":8647,"Ġ1884":8648,"Ġ1897":8649,"ĠColours":8650,"ĠColiseum":8651,"ĠProperty":8652,"ĠBru":8653,"Ġ146":8654,"acramento":8655,"Ġsequ":8656,"Ġseville":8657,"Ġdean":8658,"Ġdepend":8659,"ĠKan":8660,"ĠKong":8661,"ĠKind":8662,"aku":8663,"Ġ167":8664,"Ġforsy":8665,"Ġyrs":8666,"essional":8667,"119":8668,"2014":8669,"ĠSilverstone":8670,"ĠHeir":8671,"ĠHebrew":8672,"Ġ176":8673,"ango":8674,"ĠMarc":8675,"ĠMarquee":8676,"avian":8677,"124":8678,"ferencing":8679,"Ġaircraft":8680,"ĠRegist":8681,"190":8682,"1998":8683,"1979":8684,"1994":8685,"Ġmarin":8686,"Ġmarine":8687,"Ġmarcel":8688,"Ġmarathon":8689,"146":8690,"149":8691,"Ġ225":8692,"131":8693,"133":8694,"ĠArr":8695,"ĠArthur":8696,"Ġ244":8697,"Ġ2400":8698,"ikata":8699,"ogn":8700,"oges":8701,"Ġ217":8702,"Ġ231":8703,"Ġrogers":8704,"Ġroberts":8705,"roma":8706,"aching":8707,"Ġ%)":8708,"Ġlad":8709,"Ġlaur":8710,"Ġ307":8711,"ollar":8712,"alez":8713,"alers":8714,"156":8715,"158":8716,"ĠFreestyle":8717,"ieri":8718,"uitar":8719,"issa":8720,"cca":8721,"ccane":8722,"Ġ296":8723,"ĠShell":8724,"ĠShuttle":8725,"Ġallen":8726,"ennai":8727,"Ġ288":8728,"uilt":8729,"ĠRookie":8730,"ithuania":8731,"ĠMonaco":8732,"Ġnova":8733,"ĠUnits":8734,"ĠUntil":8735,"180":8736,"pencer":8737,"dez":8738,"perature":8739,"lent":8740,"Ġcars":8741,"ĠFinalists":8742,"ancock":8743,"lermo":8744,"Ġthompson":8745,"Ġspell":8746,"Ġspring":8747,"ĠSpent":8748,"ĠCars":8749,"ĠCarrier":8750,"Ġfrances":8751,"Ġfrancis":8752,"ĠDecay":8753,"oreograph":8754,"mere":8755,"ĠExchange":8756,"vino":8757,"054":8758,"056":8759,"Ġcommission":8760,"240":8761,"ĠCallback":8762,"233":8763,"aily":8764,"ailand":8765,"ĠSpect":8766,"izon":8767,"izabeth":8768,"eves":8769,"Ġcolonial":8770,"Ġzamb":8771,"azar":8772,"ĠAwards":8773,"ĠForest":8774,"derland":8775,"499":8776,"ermann":8777,"ĠAnne":8778,"ĠAnalyst":8779,"Ġamendments":8780,"linton":8781,"Ġuzbekistan":8782,"ĠPlan":8783,"Ġmillwall":8784,"Ġconne":8785,"Ġcooper":8786,"643":8787,"645":8788,"caster":8789,"ĠJoint":8790,"indian":8791,"Ġqld":8792,"ĠJohns":8793,"ĠOwned":8794,"ĠAgst":8795,"451":8796,"456":8797,"ĠBars":8798,"ĠÂ½":8799,"Ġxii":8800,"ĠSecondary":8801,"ĠSingular":8802,"Ġguy":8803,"fielder":8804,"796":8805,"Ġmonza":8806,"Ġprote":8807,"ĠTracks":8808,"ĠDesigner":8809,"891":8810,"ĠGeust":8811,"ĠGeorg":8812,"ullik":8813,"Ġheid":8814,"481":8815,"ijikata":8816,"Ġabigail":8817,"undy":8818,"Ġcorinthians":8819,"ĠPhilippines":8820,"Ġcollins":8821,"ĠOperational":8822,"Ġplur":8823,"aysian":8824,"ungarian":8825,"ĠContinent":8826,"ĠÐ¡":8827,"Ã¼n":8828,"Ġclippers":8829,"ĠFrance":8830,"onnie":8831,"ĠLosingTeam":8832,"ĠSwimming":8833,"Ġredskins":8834,"erek":8835,"ereo":8836,"Ġestimate":8837,"Ġlouise":8838,"ĠBilly":8839,"Ġà¸":8840,"otti":8841,"Ġchristophe":8842,"Ġmaster":8843,"ĠSupercopa":8844,"ĠAffairs":8845,"Ġtrack":8846,"Ġtravis":8847,"ĠMcCartney":8848,"Ġolympiacos":8849,"employ":8850,"ĠElimination":8851,"oshi":8852,"Ġstefan":8853,"ĠPlatforms":8854,"Åįm":8855,"ĠClark":8856,"Ġrip":8857,"Ġclean":8858,"Ġclemson":8859,"Ġsunk":8860,"Ġsunderland":8861,"olensk":8862,"Ġwatts":8863,"Ġwatford":8864,"Ġæľ":8865,"Ġfrankfurt":8866,"Ġluis":8867,"ĠAfrican":8868,"Ġchester":8869,"enez":8870,"ĠGovernment":8871,"ĠBasin":8872,"ĠBobby":8873,"aught":8874,"ĠPete":8875,"Ġlabor":8876,"ĠChristopher":8877,"Ġbelgian":8878,"Ġbelgrade":8879,"Ġlaredo":8880,"Ġsantos":8881,"Ġcasualties":8882,"Ġhapp":8883,"ĠKnights":8884,"Ġpreserved":8885,"Ġdemo":8886,"Ġdemand":8887,"ĠDefensive":8888,"Ġentry":8889,"ĠTurbo":8890,"ĠKeith":8891,"Ġrobbie":8892,"à¦¾":8893,"ĠSaints":8894,"ĠSmolensk":8895,"ĠrodrÃŃguez":8896,"Ġvillages":8897,"ĠQuarterfinal":8898,"ĠRussia":8899,"Ġsporting":8900,"Ġjulius":8901,"ĠKarl":8902,"ĠKaren":8903,"Ġtrevino":8904,"ĠTechnical":8905,"ĠApparatus":8906,"Ġdarren":8907,"Ġrosa":8908,"}}}":8909,"Ġserie":8910,"Ġpasseng":8911,"ĠErg":8912,"ĠBandwidth":8913,"Ġalberto":8914,"ĠLuis":8915,"ĠAssistant":8916,"Ġexpress":8917,"nalina":8918,"ĠPointers":8919,"ĠEdwards":8920,"ĠInvesting":8921,"Ġurban":8922,"Ġissue":8923,"Ġissued":8924,"ĠCampus":8925,"Ġintrodu":8926,"ĠJunction":8927,"akhstan":8928,"ĠModern":8929,"ĠAcquired":8930,"ĠGovernorate":8931,"Qualifying":8932,"Ġashley":8933,"ĠCanal":8934,"Ġratings":8935,"ĠSummary":8936,"Ġstudios":8937,"ĠConnecticut":8938,"ĠKennel":8939,"Ġrobinson":8940,"Ġearly":8941,"ĠCalgary":8942,"Ġmandatory":8943,"Ġdnp":8944,"ĠCommandery":8945,"ĠOrganization":8946,"ĠKhmer":8947,"ĠHouseholds":8948,"ĠImports":8949,"ĠChapter":8950,"ĠCyclones":8951,"ĠEllis":8952,"ĠScreen":8953,"ĠDiego":8954,"Ġmurphy":8955,"Ġmunicipality":8956,"ĠBrooks":8957,"Ġfourth":8958,"unnel":8959,"Ġlynn":8960,"Ġalbion":8961,"ĠHydro":8962,"Ġbreakers":8963,"ĠEthnic":8964,"Ġdominik":8965,"chievement":8966,"ĠVoiv":8967,"Ġhurricanes":8968,"ĠOttawa":8969,"Ġpentium":8970,"ĠIgnalina":8971,"Ġhydra":8972,"Ġorganization":8973,"ĠAccreditation":8974,"ĠDragon":8975,"Ġbengals":8976,"Ġhughes":8977,"ĠGNIS":8978,"Ġvilleneuve":8979,"ĠInformation":8980,"ĠPremierships":8981,"Ġadvance":8982,"ĠGeographical":8983,"ĠSubdivision":8984,"Ġportugal":8985,"Recipients":8986,"Ã«l":8987,"Ġmuseum":8988,"ĠIfop":8989,"ĠChallenger":8990,"uggets":8991,"Ġfeatured":8992,"åİ¿":8993,"Ġontario":8994,"ĠDATE":8995,"ĠRANK":8996,"ĠMozilla":8997,"ĠLanguages":8998,"ĠLeningrad":8999,"ĠNicole":9000,"ĠPolitical":9001,"Ġdallara":9002,"ĠBurglary":9003,"ĠVendor":9004,"Ġwrexham":9005,"Ġhereford":9006,"ĠEnsemble":9007,"ccaneers":9008,"oreographer":9009,"\")":9010,".,":9011,"027":9012,"033":9013,"225":9014,"310":9015,"327":9016,"372":9017,"528":9018,"571":9019,"578":9020,"Al":9021,"Cats":9022,"Cmp":9023,"Day":9024,"Division":9025,"GH":9026,"High":9027,"IAA":9028,"ICAO":9029,"July":9030,"JGP":9031,"MI":9032,"NA":9033,"Nr":9034,"One":9035,"PC":9036,"Pl":9037,"PGA":9038,"Rk":9039,"Res":9040,"SL":9041,"Sp":9042,"Sub":9043,"South":9044,"Slov":9045,"Sogn":9046,"To":9047,"Tradition":9048,"Wade":9049,"Yds":9050,"ault":9051,"aus":9052,"ahe":9053,"bes":9054,"bis":9055,"bra":9056,"bian":9057,"born":9058,"cce":9059,"cro":9060,"cod":9061,"cap":9062,"dd":9063,"dam":9064,"driver":9065,"fs":9066,"far":9067,"gor":9068,"hn":9069,"hart":9070,"iab":9071,"jandro":9072,"kaya":9073,"kje":9074,"kavian":9075,"lington":9076,"ml":9077,"mt":9078,"mil":9079,"mont":9080,"mole":9081,"mjhl":9082,"nat":9083,"nan":9084,"nov":9085,"new":9086,"oe":9087,"ooster":9088,"pri":9089,"present":9090,"pics":9091,"qqu":9092,"ror":9093,"rash":9094,"sol":9095,"sing":9096,"ture":9097,"uet":9098,"uke":9099,"vation":9100,"vens":9101,"vine":9102,"voc":9103,"voy":9104,"vador":9105,"writ":9106,"yth":9107,"zip":9108,"||":9109,"±±":9110,"Äħ":9111,"ÄĽ":9112,"É¯":9113,"ÉĲ":9114,"ÉĻ":9115,"Êģ":9116,"Ìĥ":9117,"ÑĪ":9118,"Ñı":9119,"Õ¡":9120,"âĪ":9121,"äº":9122,"å¹":9123,"çī":9124,"éħ":9125,"Ġank":9126,"Ġrig":9127,"Ġ000":9128,"Ġib":9129,"ĠÃ¡":9130,"Ġvers":9131,"ĠÅ¾":9132,"Ġothers":9133,"Ġï¿¥":9134,"ĥħ":9135,"Ķáĥ":9136,"ĠSM":9137,"ĠSri":9138,"ĠSand":9139,"ĠSag":9140,"ĠSens":9141,"ĠSide":9142,"ĠSafe":9143,"lect":9144,"Ġtas":9145,"Ġtot":9146,"Ġtru":9147,"Ġtele":9148,"Ġtau":9149,"Ġturn":9150,"Ġtitans":9151,"ĠWu":9152,"ĠWire":9153,"ĠWales":9154,"ĠWonder":9155,"ĠFO":9156,"ĠFIN":9157,"ĠFerr":9158,"ĠFox":9159,"ĠFred":9160,"ĠFather":9161,"ĠFresh":9162,"aba":9163,"abb":9164,"abil":9165,"ĠAh":9166,"ĠAp":9167,"ono":9168,"onian":9169,"erbury":9170,"inus":9171,"iness":9172,"inburgh":9173,"inhabitants":9174,"inema":9175,"atan":9176,"atar":9177,"atine":9178,"atics":9179,"ĠCH":9180,"ĠCab":9181,"ĠCra":9182,"ĠCur":9183,"ĠCraig":9184,"ĠCitation":9185,"ĠCatholic":9186,"ener":9187,"ename":9188,"enos":9189,"ennings":9190,"enheim":9191,"enroe":9192,"oris":9193,"amm":9194,"ĠPress":9195,"ĠPinn":9196,"ĠPittsburgh":9197,"ĠPali":9198,"ĠPsy":9199,"ĠPommel":9200,"ĠTre":9201,"ĠTorn":9202,"ĠTony":9203,"ĠTicket":9204,"ĠTech":9205,"ĠTampa":9206,"Ġ211":9207,"Ġ212":9208,"alon":9209,"alay":9210,"ĠDW":9211,"ĠDan":9212,"ĠDom":9213,"ĠDra":9214,"ĠDied":9215,"ĠDanish":9216,"ĠDanny":9217,"ĠDouble":9218,"ĠDirk":9219,"ĠRod":9220,"ĠRio":9221,"ĠRams":9222,"ĠRÅįm":9223,"ĠMur":9224,"ĠMary":9225,"ĠMack":9226,"ĠMoon":9227,"ĠMorgan":9228,"star":9229,"stick":9230,"stressed":9231,"atec":9232,"Ġ(\"":9233,"Ġ(%":9234,"ĠLE":9235,"ĠLN":9236,"ĠLic":9237,"ĠLank":9238,"ĠLions":9239,"ĠLike":9240,"ĠLyn":9241,"ĠLuc":9242,"ĠNig":9243,"ĠNeg":9244,"ĠNominal":9245,"Ġsd":9246,"Ġsv":9247,"Ġsom":9248,"Ġsame":9249,"Ġsud":9250,"Ġsaf":9251,"Ġsoul":9252,"Ġsof":9253,"Ġsenna":9254,"ician":9255,"001":9256,"004":9257,"005":9258,"omy":9259,"edonian":9260,"ĠGa":9261,"ĠGill":9262,"ĠGlass":9263,"ĠGau":9264,"ĠGrad":9265,"ĠGiles":9266,"ĠGRT":9267,"ĠGonz":9268,"ĠGymnast":9269,"Ġcable":9270,"Ġcre":9271,"Ġcass":9272,"Ġcant":9273,"Ġcann":9274,"Ġcross":9275,"Ġcair":9276,"Ġcandle":9277,"Ġcambridge":9278,"ĠOP":9279,"ĠOt":9280,"ĠOil":9281,"ĠPot":9282,"ĠPool":9283,"ĠPoverty":9284,"rim":9285,"rien":9286,"ried":9287,"riel":9288,"ĠHK":9289,"ĠHab":9290,"ĠHel":9291,"ĠHad":9292,"Ġmn":9293,"Ġms":9294,"Ġmason":9295,"Ġmess":9296,"Ġmack":9297,"Ġmog":9298,"Ġmoss":9299,"Ġmiles":9300,"Ġmhz":9301,"Ġmother":9302,"ĠmÃ¥":9303,"Ġpor":9304,"Ġpil":9305,"Ġpap":9306,"Ġpress":9307,"olly":9308,"isk":9309,"iso":9310,"Ġ320":9311,"Ġbi":9312,"Ġbac":9313,"Ġbug":9314,"Ġbath":9315,"Ġbird":9316,"Ġbox":9317,"Ġbody":9318,"Ġbattle":9319,"ilia":9320,"ilian":9321,"ilde":9322,"Ġ193":9323,"Ġ1913":9324,"Ġ1918":9325,"Ġ1924":9326,"Ġ1922":9327,"Ġ1933":9328,"Ġ1903":9329,"ingu":9330,"Ġdb":9331,"Ġdj":9332,"Ġdig":9333,"Ġdance":9334,"Ġdos":9335,"Ġdio":9336,"Ġdive":9337,"Ġdark":9338,"Ġdata":9339,"Ġdixon":9340,"Ġderek":9341,"ĠBun":9342,"ĠBos":9343,"ĠBell":9344,"ĠBore":9345,"ĠBoy":9346,"ĠBaker":9347,"ĠBoys":9348,"ĠBaltimore":9349,"ĠBubb":9350,"ĠBennett":9351,"elor":9352,"elis":9353,"elley":9354,"Ġfw":9355,"Ġfen":9356,"Ġful":9357,"Ġfuk":9358,"cho":9359,"chair":9360,"Ġned":9361,"verde":9362,"Ġog":9363,"ĠVic":9364,"ĠVot":9365,"ĠVel":9366,"ĠViv":9367,"ĠVoted":9368,"ĠVocal":9369,"irchen":9370,"Ġaor":9371,"union":9372,"igator":9373,"iglia":9374,"andr":9375,"Ġwan":9376,"Ġwas":9377,"Ġwright":9378,"imos":9379,"imajor":9380,"âĢł":9381,"raham":9382,"ankton":9383,"odie":9384,"odium":9385,"Ġgo":9386,"Ġgw":9387,"Ġgior":9388,"Ġgib":9389,"Ġgrad":9390,"uras":9391,"endish":9392,"adi":9393,"adal":9394,"ĠStop":9395,"ĠStuff":9396,"ĠStroke":9397,"Ġhans":9398,"Ġherman":9399,"Ġherr":9400,"Ġhindi":9401,"Ġhandle":9402,"Ġ203":9403,"iston":9404,"Ġjury":9405,"ways":9406,"ersburg":9407,"Ġinf":9408,"Ġins":9409,"Ġincl":9410,"Ġindepend":9411,"apa":9412,"apest":9413,"ĠResigned":9414,"ĠRecording":9415,"Ġvon":9416,"Ġvis":9417,"Ġvas":9418,"Ġvii":9419,"Ġveh":9420,"Ġvideo":9421,"Ġvladimir":9422,"ido":9423,"Ġrs":9424,"Ġrt":9425,"Ġrory":9426,"Ġroma":9427,"Ġroute":9428,"uburn":9429,"Ġston":9430,"Ġstem":9431,"Ġstructure":9432,"Ġstirling":9433,"Ġll":9434,"Ġlud":9435,"Ġlord":9436,"Ġluc":9437,"ĠChoreographer":9438,"ĠSea":9439,"ĠSex":9440,"ĠSean":9441,"ĠSequ":9442,"ĠJa":9443,"ĠJr":9444,"Ġkr":9445,"Ġkal":9446,"Ġkent":9447,"Ġkel":9448,"Ġkun":9449,"Ġkur":9450,"Ġkap":9451,"Ġkid":9452,"ĠIncorporated":9453,"illips":9454,"agan":9455,"ĠUs":9456,"allo":9457,"allan":9458,"ourney":9459,"Ġ1200":9460,"ricts":9461,"pez":9462,"Ġecu":9463,"Ġchinese":9464,"Ġchurch":9465,"ĠTog":9466,"Ġ184":9467,"Ġ189":9468,"Ġ1874":9469,"Ġ1880":9470,"Ġ1891":9471,"ĠColon":9472,"ĠColin":9473,"ctory":9474,"Ġrelay":9475,"ĠBrother":9476,"ridae":9477,"ĠGoalscorer":9478,"aca":9479,"Ġdeb":9480,"ĠKle":9481,"ĠKost":9482,"ctional":9483,"akers":9484,"Ġ168":9485,"Ġlen":9486,"Ġunstressed":9487,"Ġyv":9488,"Ġyang":9489,"essa":9490,"udiant":9491,"206":9492,"Ġpost":9493,"Ġpohang":9494,"landic":9495,"anghai":9496,"ptions":9497,"Ġaired":9498,"191":9499,"1970":9500,"1984":9501,"1988":9502,"sec":9503,"loyd":9504,"Ġ251":9505,"Ġ256":9506,"ichel":9507,"Ġ227":9508,"132":9509,"ĠAround":9510,"Ġ248":9511,"oped":9512,"opot":9513,"oca":9514,"Ġ230":9515,"ĠQB":9516,"Ġlast":9517,"Ġlakes":9518,"Ġlaura":9519,"Ġ308":9520,"ĠAlb":9521,"Ġfinalist":9522,"ĠConstant":9523,"aley":9524,"elling":9525,"ellington":9526,"ĠThem":9527,"ĠThai":9528,"Ġelevation":9529,"ierry":9530,"rese":9531,"issue":9532,"issions":9533,"160":9534,"166":9535,"Ġ266":9536,"Ġ295":9537,"Ġrap":9538,"Ġrail":9539,"Ġatcc":9540,"ĠAppearance":9541,"ĠApproximate":9542,"Ġ281":9543,"Ġshale":9544,"Ġsharks":9545,"282":9546,"Ġarrows":9547,"ĠUnemploy":9548,"177":9549,"Ġorange":9550,"ĠCole":9551,"ĠAiring":9552,"inting":9553,"intendo":9554,"oki":9555,"okn":9556,"Ġcarroll":9557,"707":9558,"anca":9559,"anced":9560,"ancial":9561,"ĠReleg":9562,"Ġthous":9563,"Ġspan":9564,"Ġspanish":9565,"aho":9566,"ahir":9567,"ĠExit":9568,"ĠExited":9569,"ĠExpenditure":9570,"ĠInteract":9571,"ĠInternal":9572,"ĠTransmitter":9573,"Ġadult":9574,"Ġadvent":9575,"Ġcommercial":9576,"248":9577,"ĠTracy":9578,"Ġ380":9579,"ibbe":9580,"065":9581,"066":9582,"231":9583,"atti":9584,"Ġ348":9585,"260":9586,"ĠEntrants":9587,"221":9588,"222":9589,"ockenheim":9590,"dsay":9591,"ghz":9592,"665":9593,"atorial":9594,"evada":9595,"evenson":9596,"Ġcolbert":9597,"040":9598,"alifax":9599,"ooth":9600,"ĠForce":9601,"Ġbrent":9602,"Ġbranch":9603,"755":9604,"ĠAng":9605,"ĠAnimal":9606,"Ġquick":9607,"Ġnortheast":9608,"Ġgeoff":9609,"Ã©bast":9610,"Ġ[[|":9611,"Ã¡nd":9612,"ĠProtein":9613,"aii":9614,"aij":9615,"ĠCharge":9616,"ĠCharlie":9617,"Ġconstit":9618,"Ġconquest":9619,"ristol":9620,"Ġphr":9621,"640":9622,"Ġmcenroe":9623,"mmol":9624,"indon":9625,"Ġdrivers":9626,"Ġbarber":9627,"Ġbarrich":9628,"Ġplayoff":9629,"Ġplayoffs":9630,"oya":9631,"oyama":9632,"Ġappro":9633,"Ġappearances":9634,"ĠTowns":9635,"Ġminister":9636,"ĠZach":9637,"ĠBarony":9638,"eca":9639,"ĠDiscs":9640,"itsu":9641,"360":9642,"ilas":9643,"ĠTheatre":9644,"ĠAdjusted":9645,"ĠAdvoc":9646,"ortsmouth":9647,"Ġpred":9648,"etti":9649,"airman":9650,"ussia":9651,"ĠEdge":9652,"ĠParallel":9653,"scar":9654,"scri":9655,"Ġmechan":9656,"ĠGeoff":9657,"ĠGeelong":9658,"Ġhealth":9659,"Ġheinz":9660,"hauser":9661,"odeship":9662,"Ġabove":9663,"ĠSpeedway":9664,"ĠSemimajor":9665,"ĠShips":9666,"ĠPhys":9667,"ĠMayor":9668,"Ġcollision":9669,"ĠAllowed":9670,"ĠFielding":9671,"ĠPodcast":9672,"Ġwhich":9673,"Ġwhere":9674,"997":9675,"Ġgroups":9676,"amba":9677,"Ġdefence":9678,"Ġrepresent":9679,"Ġreplaced":9680,"ĠÐŁ":9681,"Ġisrael":9682,"Ġsubjunctive":9683,"Ġbuccaneers":9684,"ĠSharehold":9685,"ĠFront":9686,"Ġcentury":9687,"ĠIndividual":9688,"boards":9689,"ooch":9690,"ĠFLT":9691,"ĠWorkers":9692,"ĠSwimmer":9693,"Ġfriz":9694,"ĠAmerindian":9695,"Ġestablished":9696,"Ġà¦":9697,"Ġà²":9698,"plos":9699,"ĠPortfol":9700,"ottom":9701,"Ġemissions":9702,"iffe":9703,"Ġmembership":9704,"Ġblues":9705,"ĠRecap":9706,"ĠPromoted":9707,"ĠNeil":9708,"Ġflat":9709,"Ġcontemporary":9710,"Ġmora":9711,"ĠDesignated":9712,"à®´":9713,"Ġslams":9714,"lbf":9715,"Ġanne":9716,"Ġfreleng":9717,"caa":9718,"ĠNature":9719,"Ġsunday":9720,"Ġdalian":9721,"Ġavenue":9722,"Ġglenn":9723,"Ġåı":9724,"Ġdelta":9725,"à´³":9726,"Ġimp":9727,"Ġacademy":9728,"ĠHDR":9729,"Ġfranklin":9730,"menkollen":9731,"ĠScotland":9732,"Ġpanathinaikos":9733,"ĠProgramme":9734,"mslm":9735,"ĠAfghan":9736,"ĠCorrected":9737,"Ġmercury":9738,"ĠTommy":9739,"Ġbrett":9740,"Ġneil":9741,"Ġneeded":9742,"Ġregion":9743,"ĠBritain":9744,"Ġreturn":9745,"ĠSimon":9746,"AME":9747,"ĠEquity":9748,"Ġhoch":9749,"à¤°":9750,"ĠPetal":9751,"ĠNorway":9752,"ĠGermany":9753,"Ġlabour":9754,"Ġtrip":9755,"ĠMarty":9756,"Ġhaas":9757,"Ġangle":9758,"Ġangels":9759,"Ġturner":9760,"Ġpresident":9761,"Ġfailed":9762,"Ġautos":9763,"Ġcbf":9764,"ĠSmoke":9765,"ĠAccount":9766,"Ġreporter":9767,"ĠSamuel":9768,"ĠMagazine":9769,"Ġattack":9770,"Ġjacksonville":9771,"Ġjulie":9772,"Ġquarterback":9773,"ĠMeeting":9774,"forEE":9775,"Ġtalk":9776,"Ġdamaged":9777,"ĠAlexander":9778,"Ġcompetitions":9779,"ĠWilson":9780,"ĠDoctor":9781,"Ġpassed":9782,"Ġvolume":9783,"ography":9784,"Species":9785,"kinson":9786,"ĠWkts":9787,"ĠDrum":9788,"ĠMacedonian":9789,"Ġmovie":9790,"ĠRecipients":9791,"donald":9792,"ĠAudience":9793,"rizio":9794,"ĠVictor":9795,"ĠVictoria":9796,"Ġpavin":9797,"Ġbrooklyn":9798,"Ġlimit":9799,"ĠCartridge":9800,"ĠPapal":9801,"Ġbolt":9802,"Ġrubens":9803,"ĠChef":9804,"ĠKingdom":9805,"ĠSprints":9806,"ĠPrefectural":9807,"gressive":9808,"Ġtwist":9809,"Ġtwins":9810,"ĠPCT":9811,"Ġclaud":9812,"Ġfemale":9813,"ĠConnection":9814,"ĠLinda":9815,"enthal":9816,"ĠHolmenkollen":9817,"Ġdnf":9818,"Ġrecap":9819,"ĠPanthers":9820,"ĠRapid":9821,"ĠBloc":9822,"Ġaudi":9823,"Ġvoter":9824,"rights":9825,"dalena":9826,"ĠINT":9827,"ĠMontreal":9828,"Ġcartridge":9829,"ĠHawks":9830,"Ġbullets":9831,"Ġmonthly":9832,"ĠRenewable":9833,"Ġbryant":9834,"Ġoperation":9835,"Ġhalfback":9836,"ĠPenalties":9837,"eeney":9838,"meters":9839,"ĠCasualties":9840,"Ġmunicipal":9841,"Ġnicole":9842,"ĠIcelandic":9843,"endoza":9844,"ĠBranches":9845,"Ġarmstrong":9846,"ĠFeaturing":9847,"holm":9848,"ĠCopies":9849,"ĠDimensions":9850,"oulder":9851,"ĠLiterate":9852,"ĠNiqqu":9853,"Ġsoccer":9854,"Ġflyers":9855,"Ġmedalist":9856,"ĠSixth":9857,"ĠCredentials":9858,"ĠOberbayern":9859,"Ġmansell":9860,"ĠDiscovery":9861,"ĠRobertson":9862,"Ġ(âĤ¬)":9863,"ĠLifespan":9864,"Ġsuspension":9865,"Ġgillingham":9866,"Ġuniversal":9867,"Ġanalysts":9868,"Ġeliminated":9869,"Ġà´®":9870,"liani":9871,"speed":9872,"ĠFlyers":9873,"Ġceltics":9874,"Ġpistons":9875,"Ġfigure":9876,"ĠRemarks":9877,"Ġnordiques":9878,"ĠVertical":9879,"Ġhampshire":9880,"Ġvinyl":9881,"Ġvietnam":9882,"Ġlehman":9883,"Ġmarlboro":9884,"Ġshooting":9885,"ĠMcNamara":9886,"Actress":9887,"Returning":9888,"SEK":9889,"eaux":9890,"punches":9891,"reruns":9892,"ranking":9893,"ĠFraction":9894,"Ġcardiff":9895,"Ġmallala":9896,"Ġdubai":9897,"ĠBryan":9898,"ĠUserpics":9899,"Ġeverton":9900,"ĠMcDon":9901,"ossein":9902,"ĠMaidens":9903,"ĠKilometer":9904,"ĠWSOP":9905,"ĠFlags":9906,"ĠFuture":9907,"ĠOvrs":9908,"Ġporsche":9909,"Ġbaldwin":9910,"ĠEssendon":9911,"Ġwkts":9912,"Ġguillermo":9913,"Ġrafael":9914,"ĠZealand":9915,"Ġheavyweight":9916,"ĠCylinder":9917,"International":9918,"Suited":9919,"hattan":9920,"mediate":9921,"Ġensign":9922,"Ġtagliani":9923,"ĠCosell":9924,"ĠTNS":9925,"ĠDissolved":9926,"ĠMasters":9927,"Ġhumphrey":9928,"Ġriccardo":9929,"oslovakia":9930,"ĠBruce":9931,"ĠKanji":9932,"Ġforsythe":9933,"ĠRegistrations":9934,"ĠArranger":9935,"Ġladies":9936,"Ġconnecticut":9937,"enezuela":9938,"ĠErgative":9939,"Traditional":9940,"Ġtasman":9941,"ĠWireless":9942,"ĠRÅįmaji":9943,"Ġcairns":9944,"Ġcandlestick":9945,"ĠBubbles":9946,"ĠStuffIt":9947,"udiantes":9948,"ĠUnemployment":9949,"Ã©bastien":9950,"Ġ[[|]]":9951,"Ġbarrichello":9952,"ĠAdvocate":9953,"ĠShareholding":9954,"ĠPortfolio":9955,"forEEZ":9956,"ĠNiqqud":9957,".-":9958,"011":9959,"020":9960,"015":9961,"030":9962,"050":9963,"321":9964,"377":9965,"470":9966,"429":9967,"426":9968,"475":9969,"485":9970,"484":9971,"517":9972,"568":9973,"575":9974,"531":9975,"650":9976,"623":9977,"769":9978,"771":9979,"866":9980,"884":9981,"911":9982,"975":9983,"903":9984,"901":9985,"936":9986,"AK":9987,"An":9988,"Air":9989,"Aust":9990,"Anal":9991,"BGN":9992,"BBC":9993,"CK":9994,"CM":9995,"Cl":9996,"EN":9997,"Game":9998,"Gleng":9999,"HO":10000,"He":10001,"Jupiter":10002,"Kit":10003,"LE":10004,"LSI":10005,"Mar":10006,"Ne":10007,"Number":10008,"Out":10009,"PE":10010,"PG":10011,"PL":10012,"Pr":10013,"Pre":10014,"Red":10015,"Ros":10016,"San":10017,"Sec":10018,"Sof":10019,"Sokn":10020,"Th":10021,"Time":10022,"Tahir":10023,"VP":10024,"WU":10025,"Winner":10026,"aar":10027,"aels":10028,"bil":10029,"bul":10030,"bass":10031,"bons":10032,"bull":10033,"based":10034,"brook":10035,"billions":10036,"bishop":10037,"built":10038,"city":10039,"card":10040,"cumb":10041,"clay":10042,"conn":10043,"cible":10044,"dh":10045,"dl":10046,"dv":10047,"ea":10048,"ful":10049,"gre":10050,"gend":10051,"gart":10052,"gow":10053,"gates":10054,"good":10055,"hot":10056,"heng":10057,"hail":10058,"iation":10059,"iÃ¡n":10060,"jin":10061,"jay":10062,"kk":10063,"king":10064,"kok":10065,"lp":10066,"lio":10067,"lana":10068,"luc":10069,"latest":10070,"mor":10071,"mal":10072,"mans":10073,"mio":10074,"max":10075,"nm":10076,"oir":10077,"pc":10078,"point":10079,"para":10080,"posed":10081,"pierre":10082,"pads":10083,"pixels":10084,"qv":10085,"rate":10086,"sch":10087,"song":10088,"tl":10089,"ters":10090,"total":10091,"tender":10092,"uary":10093,"uency":10094,"vy":10095,"var":10096,"vale":10097,"wig":10098,"william":10099,"yers":10100,"yut":10101,"yram":10102,"zc":10103,"zon":10104,"zhou":10105,"¤à®®":10106,"¬°":10107,"¹ä¹":10108,"¼åħ":10109,"Â³":10110,"Ã°":10111,"Äĵ":10112,"ÅĦ":10113,"É£":10114,"Ñĩ":10115,"Ø¨":10116,"Ø±":10117,"ÙĢ":10118,"à¼":10119,"áĢ":10120,"å¥":10121,"åĪ":10122,"æľ":10123,"æŃ":10124,"çĶ":10125,"ĠÅ":10126,"ĠÏ":10127,"Ġ×":10128,"Ġip":10129,"Ġong":10130,"Ġans":10131,"Ġond":10132,"Ġign":10133,"Ġord":10134,"Ġris":10135,"Ġita":10136,"Ġips":10137,"Įå":10138,"įæĸ":10139,"ĳ¸":10140,"Ĵéħ":10141,"Ĺà¤°":10142,"ĠSS":10143,"ĠServ":10144,"ĠSitu":10145,"ĠSFC":10146,"ĠSullivan":10147,"lef":10148,"lend":10149,"leman":10150,"lewood":10151,"Ġtx":10152,"Ġtat":10153,"Ġtan":10154,"Ġted":10155,"Ġtoll":10156,"Ġtroy":10157,"Ġtuc":10158,"Ġtbs":10159,"Ġtwick":10160,"Ġtunnel":10161,"ĠWes":10162,"ĠWing":10163,"ĠWid":10164,"ĠWall":10165,"ĠWimbledon":10166,"ĠFK":10167,"ĠFame":10168,"ĠFitzroy":10169,"ĠFlag":10170,"abe":10171,"abl":10172,"ERATION":10173,"ĠAL":10174,"ĠAM":10175,"ĠAUS":10176,"ĠAustria":10177,"ĠAaron":10178,"onav":10179,"onte":10180,"onne":10181,"inu":10182,"inich":10183,"inder":10184,"aten":10185,"atas":10186,"ativity":10187,"ĠCR":10188,"ĠCard":10189,"ĠCust":10190,"ĠCann":10191,"ĠCards":10192,"ĠCarter":10193,"ĠCourt":10194,"ĠCowboys":10195,"ĠCancell":10196,"enario":10197,"anaz":10198,"anÃ§":10199,"oril":10200,"ority":10201,"orite":10202,"amal":10203,"amine":10204,"ĠPO":10205,"ĠPas":10206,"ĠPad":10207,"ĠPont":10208,"ĠPair":10209,"ĠPya":10210,"arh":10211,"arro":10212,"ĠTL":10213,"ĠTel":10214,"ĠTun":10215,"ĠTub":10216,"ĠTac":10217,"ĠTosh":10218,"ĠTalent":10219,"ĠText":10220,"alu":10221,"alie":10222,"ĠDR":10223,"ĠDY":10224,"ĠDj":10225,"ĠDia":10226,"ĠData":10227,"ĠDoha":10228,"ĠDiffer":10229,"ĠRs":10230,"ĠRand":10231,"ĠRhe":10232,"ĠRide":10233,"ĠRings":10234,"ĠRAM":10235,"ĠRenault":10236,"ĠRoughriders":10237,"ĠMom":10238,"ĠMul":10239,"ĠMans":10240,"ĠMik":10241,"ĠMoh":10242,"ĠMeg":10243,"ĠMitch":10244,"ĠMVP":10245,"itte":10246,"itational":10247,"sten":10248,"esville":10249,"Ġ(âĢĵ":10250,"ĠLes":10251,"ĠLang":10252,"ĠLAN":10253,"ĠLPGA":10254,"ĠNou":10255,"ĠNath":10256,"ĠNone":10257,"ĠNixon":10258,"ĠNVR":10259,"Ġsq":10260,"Ġsor":10261,"Ġsig":10262,"Ġsee":10263,"Ġsang":10264,"Ġsets":10265,"Ġsah":10266,"Ġsara":10267,"Ġsanta":10268,"Ġsoph":10269,"ĠsÃ£o":10270,"Ġsaskatchewan":10271,"ĠsÃ¡nchez":10272,"ĠsÃ©bastien":10273,"lago":10274,"icit":10275,"icap":10276,"omar":10277,"eders":10278,"edian":10279,"ĠGl":10280,"ĠGab":10281,"ĠGent":10282,"ĠGas":10283,"ĠGir":10284,"ĠGod":10285,"ĠGore":10286,"ĠGFL":10287,"ĠGolf":10288,"ĠGullik":10289,"Ġci":10290,"Ġcour":10291,"Ġcag":10292,"Ġcut":10293,"Ġcaps":10294,"Ġcec":10295,"Ġclock":10296,"Ġceremony":10297,"Ġcbs":10298,"Ġcouple":10299,"Ġclinton":10300,"ĠOric":10301,"ĠOak":10302,"cey":10303,"ceed":10304,"ĠHB":10305,"ĠHR":10306,"ĠHur":10307,"ĠHamp":10308,"ĠHeld":10309,"ĠHonda":10310,"ĠHerb":10311,"Ġmom":10312,"Ġmul":10313,"Ġmach":10314,"Ġmex":10315,"Ġmind":10316,"Ġmyst":10317,"Ġmover":10318,"Ġmoon":10319,"Ġmorgenstern":10320,"Ġmanufacture":10321,"reb":10322,"rect":10323,"reme":10324,"Ġpain":10325,"Ġpast":10326,"Ġpine":10327,"Ġpath":10328,"Ġpale":10329,"Ġpau":10330,"Ġplaced":10331,"Ġpicc":10332,"Ġpuerto":10333,"olt":10334,"olla":10335,"olos":10336,"isi":10337,"isan":10338,"isia":10339,"isclosed":10340,"Ġ319":10341,"Ġ370":10342,"Ġ369":10343,"Ġ322":10344,"Ġ374":10345,"Ġ377":10346,"Ġbs":10347,"Ġbit":10348,"Ġbour":10349,"Ġbos":10350,"Ġbold":10351,"Ġbog":10352,"Ġbord":10353,"Ġbeth":10354,"Ġbett":10355,"Ġbert":10356,"Ġbaker":10357,"Ġbhp":10358,"Ġ1927":10359,"Ġ1904":10360,"Ġ1921":10361,"Ġ1908":10362,"inger":10363,"ĠYds":10364,"ĠYarn":10365,"ĠEra":10366,"ĠEner":10367,"ĠEagles":10368,"ĠEBI":10369,"ĠEgypt":10370,"Ġdl":10371,"Ġdia":10372,"Ġdiv":10373,"Ġdob":10374,"Ġdutch":10375,"Ġdublin":10376,"Ġdakota":10377,"Ġduty":10378,"Ġdollar":10379,"oti":10380,"ĠBY":10381,"ĠBre":10382,"ĠBart":10383,"ĠBass":10384,"ĠBeng":10385,"ĠBridge":10386,"ĠButt":10387,"ĠBrett":10388,"ĠBMW":10389,"ĠBegan":10390,"ĠBulls":10391,"ĠBasketball":10392,"ĠBirmingham":10393,"ĠBailey":10394,"Ġfk":10395,"Ġfla":10396,"Ġfres":10397,"Ġfood":10398,"Ġfps":10399,"Ġfamilies":10400,"Ġfailures":10401,"etic":10402,"etime":10403,"room":10404,"roverted":10405,"ayan":10406,"chus":10407,"chest":10408,"chuk":10409,"ĠReed":10410,"ĠRelay":10411,"uli":10412,"Ġnu":10413,"Ġnan":10414,"Ġnas":10415,"Ġnos":10416,"Ġnav":10417,"Ġnames":10418,"Ġniss":10419,"Ġnatural":10420,"Ġnavy":10421,"Ġnacional":10422,"vere":10423,"Ġ410":10424,"Ġ430":10425,"ĠVP":10426,"ĠVe":10427,"ĠVit":10428,"ĠVerm":10429,"Ġaik":10430,"Ġava":10431,"Ġaustin":10432,"unk":10433,"unanimous":10434,"ueb":10435,"gee":10436,"ĠLoans":10437,"umm":10438,"umn":10439,"igor":10440,"thy":10441,"thorpe":10442,"Ġ572":10443,"Ġ560":10444,"Ġwi":10445,"Ġwake":10446,"Ġwickets":10447,"Ġwaver":10448,"imer":10449,"imen":10450,"iment":10451,"ssen":10452,"ssex":10453,"ssued":10454,"race":10455,"rapped":10456,"ĠIran":10457,"ĠIowa":10458,"ĠIME":10459,"ĠIssued":10460,"anka":10461,"Ġgom":10462,"Ġgay":10463,"Ġgun":10464,"Ġgiven":10465,"Ġ734":10466,"ĠStem":10467,"ĠStake":10468,"ĠStump":10469,"Ġhan":10470,"Ġhist":10471,"Ġhud":10472,"Ġhors":10473,"Ġhiro":10474,"Ġhave":10475,"Ġhuman":10476,"Ġhogan":10477,"Ġhalifax":10478,"istry":10479,"Ġjh":10480,"Ġjr":10481,"Ġjob":10482,"Ġjoy":10483,"Ġjama":10484,"Ġjung":10485,"Ġjagu":10486,"Ġjeremy":10487,"Ġinitial":10488,"ttir":10489,"ighth":10490,"ĠTotals":10491,"ulture":10492,"Ġrc":10493,"Ġrd":10494,"Ġrico":10495,"Ġrural":10496,"ubishi":10497,"itled":10498,"Ġstone":10499,"Ġstakes":10500,"Ġsteven":10501,"Ġstatist":10502,"Ġstereo":10503,"Ġlg":10504,"Ġls":10505,"Ġlut":10506,"Ġlive":10507,"Ġlane":10508,"Ġlanc":10509,"Ġlink":10510,"Ġliga":10511,"Ġlola":10512,"Ġlanger":10513,"Ġlsu":10514,"Ġluca":10515,"Ġlogan":10516,"Ġlithuania":10517,"ĠChen":10518,"ĠChip":10519,"ĠChairman":10520,"ĠSeven":10521,"ĠSepar":10522,"ĠJe":10523,"ĠJar":10524,"ĠJeremy":10525,"Ġ9Â²":10526,"ievers":10527,"Ġkay":10528,"Ġkad":10529,"Ġkite":10530,"Ġkrist":10531,"Ġkerr":10532,"ĠInn":10533,"ĠInaug":10534,"illon":10535,"illies":10536,"iak":10537,"cko":10538,"este":10539,"ĠUI":10540,"ĠUk":10541,"ĠUTC":10542,"upt":10543,"utions":10544,"utive":10545,"oses":10546,"oslavia":10547,"people":10548,"Ġeg":10549,"Ġeur":10550,"Ġeff":10551,"Ġept":10552,"Ġeach":10553,"Ġecon":10554,"Ġegypt":10555,"Ġchi":10556,"Ġchem":10557,"Ġcheng":10558,"Ġchennai":10559,"enso":10560,"ensboro":10561,"iane":10562,"ĠComedian":10563,"Ġ1873":10564,"Ġ1872":10565,"Ġ1865":10566,"Ġ1876":10567,"Ġ1860":10568,"Ġ1858":10569,"Ġ1853":10570,"ĠColomb":10571,"ĠLevin":10572,"ĠProposed":10573,"ĠProceed":10574,"Ġrefers":10575,"Ġreissue":10576,"riguez":10577,"Ġdevelopment":10578,"ĠKK":10579,"ĠKR":10580,"ĠKo":10581,"ĠKat":10582,"ĠKas":10583,"ĠKern":10584,"ĠKings":10585,"ĠKarian":10586,"assan":10587,"ĠSchools":10588,"antes":10589,"ĠDistingu":10590,"Ġlex":10591,"Ġlever":10592,"Ġletter":10593,"eyer":10594,"Ġforum":10595,"Ġund":10596,"Ġunits":10597,"Ġyour":10598,"202":10599,"204":10600,"205":10601,"Ġpossible":10602,"ĠIncrease":10603,"ĠWinningTeam":10604,"Ġander":10605,"ugen":10606,"ught":10607,"ugoslavia":10608,"iola":10609,"onde":10610,"onds":10611,"onduras":10612,"Ġnoon":10613,"Ġaires":10614,"ĠRegiment":10615,"195":10616,"1975":10617,"1980":10618,"Ġ252":10619,"Ġ257":10620,"Ġmargar":10621,"Ġmariano":10622,"Ġ226":10623,"Ġ245":10624,"iko":10625,"tenham":10626,"opold":10627,"occo":10628,"ĠQld":10629,"Ġroost":10630,"Ġ+/-":10631,"Ġ301":10632,"Ġ303":10633,"Ġ304":10634,"ĠAlan":10635,"ĠAlison":10636,"ĠAlignment":10637,"Ġwinton":10638,"anni":10639,"annes":10640,"Ġ276":10641,"ĠThrough":10642,"ĠThickness":10643,"ĠFreed":10644,"ordin":10645,"164":10646,"165":10647,"167":10648,"256":10649,"Ġgray":10650,"Ġ260":10651,"Ġ268":10652,"Ġ294":10653,"ĠShin":10654,"ĠShield":10655,"ĠShahe":10656,"awks":10657,"Ġperu":10658,"Ġperry":10659,"Ġrachel":10660,"304":10661,"306":10662,"Ġalt":10663,"Ġalouettes":10664,"ĠAppro":10665,"Ġ289":10666,"Ġshu":10667,"Ġsher":10668,"Ġshore":10669,"Ġshide":10670,"Ġshaun":10671,"ĠQuality":10672,"ĠElement":10673,"Ġarc":10674,"onsors":10675,"ether":10676,"ldogs":10677,"175":10678,"176":10679,"183":10680,"187":10681,"188":10682,"ĠCook":10683,"ĠCoordin":10684,"dek":10685,"oko":10686,"oking":10687,"Ġcarrier":10688,"Ġthat":10689,"Ġnews":10690,"Ġspies":10691,"icted":10692,"ĠSpo":10693,"ĠCarmel":10694,"ĠPret":10695,"ahn":10696,"ahu":10697,"Ġlegion":10698,"271":10699,"506":10700,"293":10701,"297":10702,"ĠDecimal":10703,"ĠDecreased":10704,"695":10705,"ĠReplacement":10706,"electric":10707,"733":10708,"AAT":10709,"neider":10710,"atsu":10711,"243":10712,"245":10713,"ĠTrade":10714,"ĠTrailing":10715,"Ġprovince":10716,"Ġproperty":10717,"ibility":10718,"ĠViewership":10719,"ĠNett":10720,"Ġ342":10721,"096":10722,"261":10723,"263":10724,"Ġtimestamp":10725,"ailure":10726,"gher":10727,"Ġâī":10728,"667":10729,"iza":10730,"izards":10731,"Ġcolumbus":10732,"ĠManagement":10733,"ĠManhattan":10734,"Ġzabel":10735,"letcher":10736,"ĠForcible":10737,"werp":10738,"081":10739,"088":10740,"756":10741,"Ã©d":10742,"Ã©n":10743,"Ã©s":10744,"ĠOffer":10745,"346":10746,"347":10747,"Ġconna":10748,"Ġconfig":10749,"Ġconferencing":10750,"355":10751,"654":10752,"658":10753,"Ġphillip":10754,"ĠDivisional":10755,"psi":10756,"Ġ336":10757,"Ġ451":10758,"ĠEarly":10759,"ĠEarpads":10760,"uala":10761,"Ġdavies":10762,"980":10763,"440":10764,"443":10765,"ĠBirths":10766,"arius":10767,"share":10768,"Ġ392":10769,"383":10770,"Ġedg":10771,"Ġedinburgh":10772,"ĠJohnny":10773,"457":10774,"Ġnotation":10775,"763":10776,"Ġsuwon":10777,"Ġsussex":10778,"ĠBarb":10779,"Ġxi":10780,"ĠDisplay":10781,"itsubishi":10782,"841":10783,"848":10784,"551":10785,"557":10786,"ĠSwitzerland":10787,"rador":10788,"793":10789,"Ġbej":10790,"Ġbefore":10791,"ĠLauncher":10792,"ĠOrth":10793,"Ġexpenditure":10794,"ĠParameter":10795,"Ġcompet":10796,"Ġcomplex":10797,"Ġcharlie":10798,"ĠNorthern":10799,"Ġheath":10800,"haas":10801,"Ġpreference":10802,"Ġrecording":10803,"Ġswedish":10804,"Ġswindon":10805,"Ġsweeney":10806,"480":10807,"ija":10808,"Ġabc":10809,"591":10810,"597":10811,"Ġcorrect":10812,"ĠAllison":10813,"Ġscar":10814,"Ġscale":10815,"ĠGPU":10816,"880":10817,"áĥł":10818,"áĥĶáĥ":10819,"ĠMean":10820,"Ġvalpara":10821,"Ġplan":10822,"Ġplate":10823,"Ġplant":10824,"Ġplural":10825,"Ġplatinum":10826,"linger":10827,"ĠSpecification":10828,"ĠSpecific":10829,"Ġelizabeth":10830,"ĠBehind":10831,"Ġbuenos":10832,"Ġtownsville":10833,"Ã¼d":10834,"ĠWhites":10835,"ĠFrancis":10836,"ĠIndoor":10837,"ĠIndonesia":10838,"onna":10839,"Ġfinancial":10840,"Ġjoan":10841,"bines":10842,"ĠCycle":10843,"Ġvacuum":10844,"kWh":10845,"ĠStudent":10846,"ucinich":10847,"ÃŃn":10848,"Ġestonia":10849,"Ġresults":10850,"ĠBillups":10851,"cliffe":10852,"azzoni":10853,"ĠPatent":10854,"ĠPattern":10855,"Ġspecial":10856,"Ġmarty":10857,"ĠWebM":10858,"ĠWebKit":10859,"ĠPortland":10860,"Ġemma":10861,"Ġmasah":10862,"Ã¶n":10863,"Ã¶r":10864,"Ġwallace":10865,"Ġwindows":10866,"Ġharry":10867,"Ġharris":10868,"ĠEnded":10869,"ĠÃ·":10870,"Ġtrade":10871,"Ġolympics":10872,"Ã³ttir":10873,"ãģĨ":10874,"Ġblackpool":10875,"Ġknown":10876,"Ġknights":10877,"ĠSenate":10878,"Ð¾Ð½":10879,"ĠNeon":10880,"ĠNepal":10881,"Ġantwerp":10882,"ĠAcademy":10883,"Ġflight":10884,"Ð°ÑĤ":10885,"ĠWheat":10886,"Ġcontestant":10887,"Ġmorning":10888,"Ġstep":10889,"Ġevent":10890,"Ġevicted":10891,"ĠClar":10892,"Ġagent":10893,"strument":10894,"ĠFCSL":10895,"Ġgraeme":10896,"ĠåįĹ":10897,"à´¯":10898,"à´¾":10899,"Ġesc":10900,"Ġimpul":10901,"ĠDevelopment":10902,"ween":10903,"ysvik":10904,"Ġæĺ":10905,"ĠGTC":10906,"Ġrussian":10907,"ARB":10908,"Ġpanama":10909,"msby":10910,"ĠFlat":10911,"ĠFlÃ¸":10912,"ĠFlights":10913,"Stadium":10914,"ĠCorpor":10915,"Ġfrederick":10916,"enzie":10917,"step":10918,"steps":10919,"Ġbreast":10920,"Ġbremen":10921,"Ġkarl":10922,"ĠProfit":10923,"ĠClemson":10924,"apoli":10925,"Ġpetersburg":10926,"ĠGrace":10927,"umpur":10928,"Ġrockies":10929,"Ġrockets":10930,"atherine":10931,"ĠExpress":10932,"Ġspeedway":10933,"liance":10934,"liament":10935,"ĠSigned":10936,"ĠPublished":10937,"ĠGovernments":10938,"ĠHandicap":10939,"Ġgiancarlo":10940,"ĠCombativity":10941,"Ġleading":10942,"ÐµÐ":10943,"ĠEquation":10944,"ĠEquivalent":10945,"ĠEquatorial":10946,"ĠBasis":10947,"ĠBaseman":10948,"ĠBaseball":10949,"ĠJimmy":10950,"Ġkeith":10951,"armbar":10952,"comp":10953,"Ġskating":10954,"Ġskinner":10955,"rellas":10956,"Ġberger":10957,"Ġdevice":10958,"ĠItalia":10959,"Ġdanilo":10960,"ĠChiefs":10961,"Ġargument":10962,"ĠHarry":10963,"ĠHarris":10964,"Ġmissouri":10965,"Ġboyd":10966,"Ġjuvent":10967,"Ġturbo":10968,"Ġturkey":10969,"Ġdemons":10970,"Ġautom":10971,"Ġlawrence":10972,"ĠÎ¸":10973,"ĠTurbines":10974,"ĠWheelchair":10975,"Ġdisplacement":10976,"ĠMagn":10977,"Ġworks":10978,"Ġvillage":10979,"à²¤":10980,"Ġquarterfinals":10981,"Ġtrevor":10982,"ĠWalter":10983,"ĠWalker":10984,"unciation":10985,"ĠDelegates":10986,"ĠMichel":10987,"Ġsalvador":10988,"Ġsystems":10989,"Ġwillie":10990,"Ġholland":10991,"Ġstarts":10992,"ĠCarlton":10993,"MENC":10994,"ĠSabres":10995,"Ġserver":10996,"Ġvolleyball":10997,"Ġalberta":10998,"cules":10999,"ĠAtom":11000,"Ġfeder":11001,"Ġfedex":11002,"Ġkenya":11003,"Ġexpos":11004,"Ġbudapest":11005,"jection":11006,"Ġissues":11007,"Ġtourism":11008,"ĠFaced":11009,"ĠMultip":11010,"ĠEffective":11011,"ĠVictories":11012,"ademic":11013,"Ġleonardo":11014,"VAP":11015,"ĠPicture":11016,"ĠTests":11017,"Ġpavel":11018,"igious":11019,"Ġgiov":11020,"Ġlimited":11021,"ipei":11022,"ĠAlternative":11023,"ĠFaith":11024,"Ġsabres":11025,"Ġmassachusetts":11026,"Ġballet":11027,"Ġbuses":11028,"ĠVessels":11029,"Ġedwards":11030,"ÐºÐ°":11031,"ĠSoftball":11032,"aroos":11033,"Ġreno":11034,"ĠJewish":11035,"ĠKennedy":11036,"ĠMotorsport":11037,"wait":11038,"ĠHoops":11039,"Ġnaked":11040,"colm":11041,"Ġtaipei":11042,"Ġaudio":11043,"Ġhayes":11044,"Ġidaho":11045,"ĠDuke":11046,"ĠRyan":11047,"Ġbaseball":11048,"Ġwyoming":11049,"ĠParticipation":11050,"ĠPalmer":11051,"ĠMolecular":11052,"Ġcuba":11053,"Ġbernard":11054,"Ġbernhard":11055,"Ġfullback":11056,"Ġvillanova":11057,"Ġrabat":11058,"Ġkazan":11059,"Ġespn":11060,"ĠUNGE":11061,"Ġbangkok":11062,"Ġdinamo":11063,"Ġhubert":11064,"Ġrevival":11065,"ĠCompletions":11066,"Ġrosso":11067,"Ġalfieri":11068,"Ġbrandon":11069,"ĠSupply":11070,"Ġreserve":11071,"Ġreserves":11072,"Ġà®¤à®®":11073,"Ġsemifinals":11074,"ĠPageant":11075,"ĠDimit":11076,"ĠRetitled":11077,"empty":11078,"Ġincident":11079,"ĠLieutenant":11080,"Ġcavendish":11081,"Ġhornets":11082,"Ġrandy":11083,"ĠSuccesses":11084,"ĠPhoneme":11085,"å¤§":11086,"ĠCOMMENC":11087,"ĠPaid":11088,"ĠTongue":11089,"Ġmunich":11090,"Ġpierce":11091,"Ġbowl":11092,"Ġkangaroos":11093,"ĠPrecinct":11094,"ĠDispos":11095,"ĠDisposition":11096,"front":11097,"gilvy":11098,"ĠCoding":11099,"ĠCALLSI":11100,"ĠPersian":11101,"ĠLorenzo":11102,"Ġcitizenship":11103,"ĠHeart":11104,"ĠBurnley":11105,"Ġgulf":11106,"Ġrudy":11107,"ĠJacob":11108,"Ġkawasaki":11109,"ĠCollins":11110,"Ġofficine":11111,"ĠBelgium":11112,"à²¨à²":11113,"ĠSellout":11114,"Ġtenure":11115,"ĠWarship":11116,"ĠFelipe":11117,"ĠARWU":11118,"ĠGlenn":11119,"Ġpresentation":11120,"Ġajax":11121,"Ġsebastian":11122,"Ġyankees":11123,"ĠPronunciation":11124,"Ġà¤Ĺà¤°":11125,"Ġayrton":11126,"AJN":11127,"ĠFamous":11128,"ĠPPV":11129,"ĠTemperature":11130,"ĠDuchess":11131,"Ġpictures":11132,"ĠESPN":11133,"Ġoxford":11134,"ĠEnrolment":11135,"Ġyounger":11136,"Ġarnold":11137,"Ġparticipate":11138,"Ġmaurice":11139,"ronesian":11140,"³ç²ī":11141,"ĠWildcats":11142,"ĠLiscumb":11143,"ĠNavigator":11144,"ĠGallup":11145,"celeration":11146,"Ġfangio":11147,"Ġgimn":11148,"Ġinstitute":11149,"Ġinauguration":11150,"Ġrugby":11151,"Ġkyrkje":11152,"Ġdependence":11153,"Ġplurality":11154,"Ġpassengers":11155,"Ġintroduced":11156,"ĠVoivodeship":11157,"PCGN":11158,"Platinum":11159,"croft":11160,"writer":11161,"Õ¡Õ":11162,"âĪĴ":11163,"å¹¼åħ":11164,"ĠSensor":11165,"ĠPsych":11166,"ĠLNER":11167,"ĠLucas":11168,"Ġsofia":11169,"ĠOPERATION":11170,"ĠHabit":11171,"Ġmotherwell":11172,"ĠVivian":11173,"ĠTogether":11174,"ĠRelegated":11175,"ibbean":11176,"ockenheimring":11177,"Ġconstituency":11178,"plosion":11179,"Ġtasmania":11180,"Austronesian":11181,"Analog":11182,"Glengallan":11183,"Rosenthal":11184,"Sofres":11185,"qvist":11186,"¬°å¹¼åħ":11187,"¹ä¹³ç²ī":11188,"įæĸ¹ä¹³ç²ī":11189,"Ĵéħįæĸ¹ä¹³ç²ī":11190,"ĠServices":11191,"ĠSituation":11192,"Ġtwickenham":11193,"ĠCannot":11194,"ĠCancellation":11195,"ĠTubes":11196,"ĠGulliksen":11197,"ĠOricon":11198,"ĠEnergy":11199,"ĠEBIT":11200,"Ġnissan":11201,"ĠSeparate":11202,"ĠKarianne":11203,"ĠDistinguished":11204,"ĠShaheen":11205,"Ġconnaught":11206,"Ġconfiguration":11207,"ĠFlÃ¸ysvik":11208,"ĠCorporate":11209,"ĠUNGEGN":11210,"ĠCOMMENCED":11211,"ĠPrecincts":11212,"ĠCALLSIGN":11213,"ĠOPERATIONS":11214,"¬°å¹¼åħĴéħįæĸ¹ä¹³ç²ī":11215,")(":11216,".?":11217,"012":11218,"024":11219,"023":11220,"026":11221,"219":11222,"218":11223,"312":11224,"369":11225,"366":11226,"395":11227,"379":11228,"420":11229,"415":11230,"466":11231,"433":11232,"403":11233,"431":11234,"439":11235,"437":11236,"5000":11237,"550":11238,"522":11239,"567":11240,"6000":11241,"615":11242,"670":11243,"669":11244,"624":11245,"633":11246,"634":11247,"715":11248,"716":11249,"718":11250,"774":11251,"814":11252,"817":11253,"822":11254,"875":11255,"834":11256,"950":11257,"929":11258,"906":11259,"965":11260,"995":11261,"977":11262,"?\"":11263,"AI":11264,"AP":11265,"AZ":11266,"Af":11267,"All":11268,"Brien":11269,"CD":11270,"DT":11271,"Dock":11272,"En":11273,"Equ":11274,"GW":11275,"Gold":11276,"GRT":11277,"Gluc":11278,"HP":11279,"Hossein":11280,"IV":11281,"January":11282,"Japan":11283,"LC":11284,"LY":11285,"LZ":11286,"Lu":11287,"MD":11288,"Mon":11289,"Name":11290,"OHL":11291,"OHA":11292,"Orient":11293,"Pa":11294,"Pe":11295,"Pts":11296,"Pop":11297,"Play":11298,"Rem":11299,"Sem":11300,"SDC":11301,"TA":11302,"Te":11303,"Un":11304,"UTR":11305,"Way":11306,"West":11307,"WAT":11308,"WJC":11309,"WGR":11310,"XTH":11311,"Yaar":11312,"](":11313,"aub":11314,"aqu":11315,"bj":11316,"bins":11317,"cg":11318,"cat":11319,"cen":11320,"count":11321,"cling":11322,"cimal":11323,"dal":11324,"ding":11325,"dot":11326,"dated":11327,"dorf":11328,"ei":11329,"ej":11330,"eum":11331,"eason":11332,"eira":11333,"fi":11334,"fri":11335,"fus":11336,"fast":11337,"fair":11338,"gra":11339,"hk":11340,"hag":11341,"hong":11342,"hunt":11343,"iÅ¡":11344,"jord":11345,"jung":11346,"jamin":11347,"kc":11348,"kl":11349,"klas":11350,"kna":11351,"kusen":11352,"lat":11353,"lative":11354,"lift":11355,"mb":11356,"mod":11357,"mart":11358,"mens":11359,"mons":11360,"moor":11361,"mobile":11362,"material":11363,"nia":11364,"nian":11365,"none":11366,"nett":11367,"oanga":11368,"pb":11369,"ping":11370,"pro":11371,"pine":11372,"pres":11373,"park":11374,"placed":11375,"rance":11376,"rine":11377,"smith":11378,"spect":11379,"tn":11380,"tor":11381,"ting":11382,"top":11383,"uction":11384,"uqu":11385,"uence":11386,"vn":11387,"vod":11388,"viron":11389,"wh":11390,"wi":11391,"wy":11392,"wagen":11393,"wchl":11394,"xle":11395,"xade":11396,"xemb":11397,"yles":11398,"ylo":11399,"yÃ¼":11400,"zig":11401,"¢)":11402,"°¤":11403,"±Ðµ":11404,"²à´¯":11405,"Ã¦":11406,"Ã´":11407,"Åĭ":11408,"É¡":11409,"É¨":11410,"Ê·":11411,"Ëļ":11412,"Ø§":11413,"à·":11414,"âģ":11415,"å±±":11416,"æµ":11417,"æĪ":11418,"æĹ":11419,"æĥħ":11420,"çĪ":11421,"Ġ?":11422,"ĠÄ":11423,"ĠÙ":11424,"Ġì":11425,"Ġraw":11426,"Ġons":11427,"Ġerr":11428,"Ġurs":11429,"Ġãģ":11430,"ĠÅ¡":11431,"ĠÙħ":11432,"ķà²¨":11433,"ĠSax":11434,"ĠSanta":11435,"ĠSaint":11436,"ĠSaka":11437,"Ġtd":11438,"Ġtu":11439,"Ġtank":11440,"Ġtod":11441,"Ġtail":11442,"Ġtram":11443,"Ġtied":11444,"Ġtake":11445,"ĠWas":11446,"ĠWade":11447,"ĠWings":11448,"ĠWyn":11449,"ĠWanderers":11450,"ĠWJC":11451,"ĠFab":11452,"ĠFans":11453,"ĠFav":11454,"ĠFern":11455,"ĠFitz":11456,"ĠFull":11457,"ĠFoss":11458,"ĠFixed":11459,"ĠFencing":11460,"ĠFixtures":11461,"abad":11462,"ablish":11463,"ĠSEK":11464,"ĠAB":11465,"ĠAO":11466,"ĠAT":11467,"ĠAre":11468,"ĠAgain":11469,"ĠAFL":11470,"ĠAlas":11471,"ĠAFC":11472,"ĠApo":11473,"ĠAchievement":11474,"ĠAxle":11475,"onau":11476,"erial":11477,"ercise":11478,"inol":11479,"inition":11480,"inaw":11481,"inki":11482,"atore":11483,"atari":11484,"ĠCN":11485,"ĠCer":11486,"ĠCurtis":11487,"ĠCincinnati":11488,"ĠCrystal":11489,"enian":11490,"enberg":11491,"enhauser":11492,"anov":11493,"amy":11494,"aman":11495,"amac":11496,"ammer":11497,"ambert":11498,"ĠPie":11499,"ĠPup":11500,"ĠPly":11501,"ĠPix":11502,"ĠPull":11503,"ĠPPP":11504,"ĠPGA":11505,"arp":11506,"aran":11507,"aras":11508,"arative":11509,"ĠTable":11510,"ĠTip":11511,"ĠTau":11512,"ĠTai":11513,"ĠTask":11514,"ĠTwin":11515,"Ġ219":11516,"aly":11517,"alys":11518,"ĠDE":11519,"ĠDS":11520,"ĠDy":11521,"ĠDig":11522,"ĠDad":11523,"ĠDub":11524,"ĠDative":11525,"ĠDowns":11526,"ĠDixon":11527,"ĠDogs":11528,"ĠDolphins":11529,"ĠDynamo":11530,"ĠRat":11531,"ĠRear":11532,"ĠRosa":11533,"ĠRalph":11534,"ĠRicardo":11535,"ĠRIAA":11536,"ĠMU":11537,"ĠMX":11538,"ĠMes":11539,"ĠMol":11540,"ĠMort":11541,"ĠMess":11542,"ĠMous":11543,"ĠMind":11544,"ĠMales":11545,"ĠMater":11546,"ĠMOA":11547,"itter":11548,"ionale":11549,"station":11550,"stant":11551,"eson":11552,"esity":11553,"Ġ(>":11554,"Ġ(Ëļ":11555,"ĠLB":11556,"ĠLF":11557,"ĠLig":11558,"ĠLith":11559,"ĠLiz":11560,"ĠLotus":11561,"ĠLisa":11562,"ĠLakh":11563,"ĠLift":11564,"ĠLiving":11565,"ĠLHA":11566,"ĠLWAT":11567,"ĠNow":11568,"Ġsas":11569,"Ġsel":11570,"Ġsight":11571,"Ġsack":11572,"Ġside":11573,"Ġsony":11574,"Ġski":11575,"ĠsÃ¤":11576,"Ġsullivan":11577,"Ġsacramento":11578,"Ġspencer":11579,"lair":11580,"corn":11581,"corchamp":11582,"iche":11583,"entry":11584,"omme":11585,"edal":11586,"edith":11587,"ĠGV":11588,"ĠGay":11589,"ĠGian":11590,"ĠGly":11591,"ĠGuns":11592,"Ġcj":11593,"Ġcra":11594,"Ġcod":11595,"Ġcad":11596,"Ġcraw":11597,"Ġcop":11598,"Ġcase":11599,"Ġcash":11600,"Ġcrew":11601,"ĠOF":11602,"ĠOI":11603,"ĠOS":11604,"ĠOst":11605,"ĠOWGR":11606,"ĠPowell":11607,"cean":11608,"ceph":11609,"ceased":11610,"rio":11611,"rique":11612,"ĠHul":11613,"ĠHend":11614,"ĠHem":11615,"ĠHud":11616,"ĠHav":11617,"ĠHob":11618,"ĠHiggins":11619,"ĠHancock":11620,"ĠHijikata":11621,"Ġmj":11622,"Ġmr":11623,"Ġmt":11624,"Ġmv":11625,"Ġment":11626,"Ġmce":11627,"Ġming":11628,"Ġmut":11629,"Ġmph":11630,"Ġmann":11631,"Ġmint":11632,"Ġmets":11633,"Ġmide":11634,"Ġmild":11635,"Ġmission":11636,"Ġmonday":11637,"Ġmongol":11638,"Ġpg":11639,"Ġpon":11640,"Ġpes":11641,"Ġpear":11642,"Ġpad":11643,"Ġpric":11644,"Ġpos":11645,"Ġpru":11646,"Ġpach":11647,"Ġpoll":11648,"Ġpont":11649,"Ġprad":11650,"Ġpensions":11651,"Ġportsmouth":11652,"Ġpletcher":11653,"olle":11654,"olid":11655,"olished":11656,"isse":11657,"Ġ315":11658,"Ġ328":11659,"Ġ368":11660,"Ġ375":11661,"Ġbn":11662,"Ġban":11663,"Ġbet":11664,"Ġbrid":11665,"Ġblo":11666,"Ġboh":11667,"Ġbrom":11668,"Ġbach":11669,"Ġbeg":11670,"Ġborg":11671,"Ġbits":11672,"Ġberg":11673,"ĠbjÃ¶":11674,"Ġbottom":11675,"amela":11676,"ilar":11677,"Ġ1915":11678,"Ġ1916":11679,"eary":11680,"ingen":11681,"ĠYouth":11682,"aser":11683,"ĠErik":11684,"Ġdt":11685,"Ġdor":11686,"Ġdom":11687,"Ġdist":11688,"Ġdort":11689,"Ġdru":11690,"Ġdong":11691,"Ġdib":11692,"Ġdani":11693,"Ġdiana":11694,"Ġdoming":11695,"Ġdrop":11696,"Ġdenny":11697,"Ġdigital":11698,"Ġdoha":11699,"Ġddr":11700,"Ġdaily":11701,"oten":11702,"ĠBan":11703,"ĠBal":11704,"ĠBri":11705,"ĠBod":11706,"ĠBach":11707,"ĠBark":11708,"ĠBird":11709,"ĠBout":11710,"ĠBorder":11711,"ĠBears":11712,"ĠBuch":11713,"ĠBernie":11714,"elton":11715,"eller":11716,"Ġfi":11717,"Ġfu":11718,"Ġfam":11719,"Ġfou":11720,"Ġfir":11721,"Ġfus":11722,"Ġfish":11723,"Ġfired":11724,"Ġfok":11725,"Ġfax":11726,"Ġfind":11727,"Ġfigures":11728,"Ġflag":11729,"Ġfisher":11730,"Ġfixtures":11731,"eton":11732,"etine":11733,"rock":11734,"rova":11735,"ayette":11736,"chin":11737,"chers":11738,"chary":11739,"chov":11740,"ĠReid":11741,"ĠRemitt":11742,"ĠReFS":11743,"ulia":11744,"Ġnr":11745,"Ġner":11746,"Ġnag":11747,"Ġneg":11748,"Ġnathan":11749,"Ġnixon":11750,"Ġnforce":11751,"Ġnintendo":11752,"Ġnapoli":11753,"vericks":11754,"Ġ414":11755,"Ġ428":11756,"Ġ417":11757,"Ġ404":11758,"Ġ479":11759,"Ġoc":11760,"Ġoh":11761,"Ġohl":11762,"ĠVio":11763,"ĠVik":11764,"ĠVeter":11765,"ĠVista":11766,"ĠVinson":11767,"ĠVarsity":11768,"ĠVault":11769,"irates":11770,"irds":11771,"Ġaqu":11772,"Ġaxis":11773,"unity":11774,"ueva":11775,"bering":11776,"geki":11777,"ĠLogan":11778,"omega":11779,"andre":11780,"Ġ5000":11781,"Ġ512":11782,"Ġ514":11783,"Ġ513":11784,"Ġwt":11785,"Ġwes":11786,"Ġwis":11787,"Ġworm":11788,"Ġworth":11789,"Ġwals":11790,"Ġ627":11791,"Ġ668":11792,"Ġ650":11793,"ims":11794,"iman":11795,"imson":11796,"âĢĿ":11797,"sse":11798,"rap":11799,"rach":11800,"ĠIo":11801,"ĠImm":11802,"ĠIbis":11803,"ĠOpponen":11804,"Ġgk":11805,"Ġgod":11806,"Ġglass":11807,"Ġgrid":11808,"Ġgust":11809,"Ġgav":11810,"Ġglo":11811,"Ġgross":11812,"Ġgym":11813,"Ġgould":11814,"Ġgymnast":11815,"Ġgoran":11816,"Ġguitar":11817,"Ġgmt":11818,"urz":11819,"urus":11820,"urated":11821,"ends":11822,"ended":11823,"endall":11824,"Ġ717":11825,"Ġ750":11826,"aders":11827,"adio":11828,"adise":11829,"ĠStay":11830,"ĠStell":11831,"ĠStones":11832,"ĠStrain":11833,"ĠStakes":11834,"ĠSteven":11835,"ĠStructure":11836,"ĠStatist":11837,"Ġhand":11838,"Ġhey":11839,"Ġhink":11840,"Ġhms":11841,"Ġhutch":11842,"Ġhonduras":11843,"Ġjae":11844,"Ġjiang":11845,"Ġjamar":11846,"ĠjÃ¼rgen":11847,"ersen":11848,"ersons":11849,"emale":11850,"ryl":11851,"Ġinfl":11852,"Ġinto":11853,"Ġinside":11854,"aper":11855,"artak":11856,"tte":11857,"ĠResident":11858,"ĠResolution":11859,"ĠResources":11860,"ulton":11861,"Ġvar":11862,"Ġvit":11863,"Ġvall":11864,"Ġvenezuela":11865,"Ġrup":11866,"Ġroth":11867,"uba":11868,"Ġsteam":11869,"Ġstay":11870,"Ġstory":11871,"Ġstring":11872,"Ġstoke":11873,"ĠAttempt":11874,"Ġlw":11875,"Ġlig":11876,"Ġlamb":11877,"Ġlips":11878,"Ġlilly":11879,"usch":11880,"usalem":11881,"ĠChin":11882,"ĠChroma":11883,"ĠLoco":11884,"ĠSeating":11885,"ĠSeattle":11886,"ĠJill":11887,"ĠJerry":11888,"ĠJosh":11889,"ĠJavier":11890,"ĠJuan":11891,"ĠJourney":11892,"Ġ2017":11893,"ieu":11894,"iele":11895,"Ġka":11896,"Ġki":11897,"Ġkab":11898,"Ġkane":11899,"Ġkash":11900,"Ġkram":11901,"Ġkirk":11902,"Ġkicker":11903,"Ġkathy":11904,"ĠInch":11905,"ĠInning":11906,"ĠIntra":11907,"ĠIndepend":11908,"ĠIntegrated":11909,"ĠInitial":11910,"iag":11911,"owan":11912,"owner":11913,"owlands":11914,"arding":11915,"estan":11916,"ĠUse":11917,"ĠEnlist":11918,"ipo":11919,"iper":11920,"iful":11921,"iform":11922,"oso":11923,"Ġeith":11924,"Ġevery":11925,"Ġeagle":11926,"ived":11927,"Ġcher":11928,"Ġcham":11929,"Ġchad":11930,"Ġchia":11931,"ianza":11932,"Ġ181":11933,"Ġ182":11934,"Ġ1870":11935,"Ġ1864":11936,"Ġ1885":11937,"Ġ1899":11938,"Ġ1896":11939,"Ġ1861":11940,"Ġ1883":11941,"astas":11942,"isha":11943,"ĠLeo":11944,"ĠLeeds":11945,"ĠProgressive":11946,"Ġrein":11947,"Ġreid":11948,"Ġreview":11949,"ĠBruins":11950,"ĠParticle":11951,"ovd":11952,"ovo":11953,"ovs":11954,"oven":11955,"oval":11956,"ovich":11957,"oviÄĩ":11958,"accent":11959,"acchi":11960,"Ġsex":11961,"Ġsean":11962,"Ġsept":11963,"Ġseah":11964,"Ġsepar":11965,"Ġdela":11966,"Ġdecl":11967,"ĠKy":11968,"ĠKiss":11969,"ĠKrist":11970,"ĠKana":11971,"ĠKenny":11972,"ĠKurd":11973,"ĠDeput":11974,"ĠDeceased":11975,"ĠDistricts":11976,"inez":11977,"ineyard":11978,"akley":11979,"ĠPlacement":11980,"Ġleip":11981,"Ġlend":11982,"Ġleopold":11983,"Ġformer":11984,"Ġforces":11985,"Ġforget":11986,"ffy":11987,"ĠCompound":11988,"ĠComplex":11989,"ĠComparative":11990,"Ġyan":11991,"Ġyong":11992,"Ġyak":11993,"Ġyugoslavia":11994,"essalon":11995,"uded":11996,"Ġ\"âĢĶ":11997,"ansing":11998,"usta":11999,"usty":12000,"ĠHexade":12001,"Ġ172":12002,"Ġ1759":12003,"ĠandrÃ©":12004,"ĠMarg":12005,"ĠMaria":12006,"ĠMarsh":12007,"ĠMarques":12008,"avo":12009,"aval":12010,"128":12011,"cyl":12012,"ondiw":12013,"Ġnoel":12014,"Ġnoah":12015,"pted":12016,"Ġairlines":12017,"192":12018,"199":12019,"1973":12020,"1989":12021,"1983":12022,"1981":12023,"log":12024,"Ġ258":12025,"Ġmarion":12026,"Ġmarie":12027,"Ġmarina":12028,"Ġmarino":12029,"ichella":12030,"icholas":12031,"Ġ223":12032,"ĠArc":12033,"ĠArm":12034,"Ġ242":12035,"Ġ243":12036,"Ġ247":12037,"ikki":12038,"osta":12039,"opoul":12040,"Ġ215":12041,"ocus":12042,"Ġ236":12043,"Ġ238":12044,"ĠOverweight":12045,"ĠQAT":12046,"kman":12047,"ĠPerpet":12048,"ĠVisited":12049,"aches":12050,"ached":12051,"athlon":12052,"ĠAlt":12053,"ĠConstit":12054,"annis":12055,"Ġ271":12056,"Ġ272":12057,"Ġ273":12058,"Ġ279":12059,"151":12060,"153":12061,"Ġtob":12062,"Ġtoo":12063,"ĠThompson":12064,"tees":12065,"uits":12066,"161":12067,"Ġgrants":12068,"Ġ265":12069,"omina":12070,"actions":12071,"Ġ292":12072,"ĠShuster":12073,"ĠShoulder":12074,"Ġraz":12075,"Ġrage":12076,"Ġrape":12077,"301":12078,"303":12079,"Ġalvin":12080,"Ġalianza":12081,"Ġatom":12082,"ĠMatchups":12083,"Ġ282":12084,"Ġshawn":12085,"Ġshanghai":12086,"elby":12087,"Ġarab":12088,"Ġarthur":12089,"ĠRobin":12090,"ĠUni":12091,"ĠUnion":12092,"ĠUnser":12093,"lde":12094,"184":12095,"Ġorbit":12096,"Ġorlando":12097,"Ġorient":12098,"ĠCoom":12099,"perative":12100,"gina":12101,"ĠAirlines":12102,"Ġthunder":12103,"Ġthessalon":12104,"Ġnewport":12105,"Ġspurs":12106,"ĠSpring":12107,"ĠSpelling":12108,"ĠCarriers":12109,"forms":12110,"501":12111,"502":12112,"Ġfront":12113,"295":12114,"296":12115,"299":12116,"ĠExpendit":12117,"trinch":12118,"ĠInterreg":12119,"ĠIntermediate":12120,"738":12121,"ashk":12122,"nez":12123,"053":12124,"Ġassociation":12125,"Ġadults":12126,"Ġadrian":12127,"Ġadsl":12128,"Ġcomedy":12129,"241":12130,"ĠTrailers":12131,"Ġprod":12132,"Ġ385":12133,"Ġ389":12134,"ĠSongwriter":12135,"Ġ343":12136,"Ġ346":12137,"illery":12138,"265":12139,"Ġusage":12140,"Ġ357":12141,"dsor":12142,"744":12143,"ĠLaur":12144,"ĠLaura":12145,"izes":12146,"evan":12147,"eviÄĩ":12148,"ĠNewton":12149,"ĠManitoba":12150,"041":12151,"047":12152,"048":12153,"Ġzx":12154,"Ġzak":12155,"azu":12156,"exans":12157,"Ġgregory":12158,"084":12159,"Ġbruno":12160,"335":12161,"757":12162,"Ġmanitoba":12163,"Ġquals":12164,"Ġnorthwestern":12165,"Ġgeorg":12166,"offman":12167,"lind":12168,"Ã©e":12169,"Ã¡d":12170,"Ã¡m":12171,"Ã¡lez":12172,"ĠPrinting":12173,"ĠChargers":12174,"Ġconfed":12175,"Ġconvention":12176,"Ġconcordia":12177,"351":12178,"657":12179,"Ġphase":12180,"Ġphilipp":12181,"Ġphillies":12182,"pska":12183,"642":12184,"6400":12185,"anyon":12186,"Ġ545":12187,"Ġ546":12188,"Ġmci":12189,"Ġmcm":12190,"ĠEarl":12191,"036":12192,"ĠNominating":12193,"Ġdavao":12194,"444":12195,"Ġranked":12196,"sha":12197,"shaun":12198,"380":12199,"381":12200,"384":12201,"386":12202,"Ġbarnes":12203,"Ġbarclay":12204,"778":12205,"779":12206,"elsinki":12207,"ĠMcL":12208,"oyle":12209,"oyuz":12210,"Ġapple":12211,"ĠAgent":12212,"760":12213,"ĠBarrow":12214,"ĠBarnes":12215,"ĠÂ±":12216,"ĠDisaster":12217,"361":12218,"ĠByte":12219,"556":12220,"othen":12221,"ĠAdult":12222,"ĠAdditional":12223,"CAF":12224,"CACAF":12225,"afone":12226,"Ġprot":12227,"Ġbehind":12228,"oxetine":12229,"ĠGregory":12230,"Ġexha":12231,"ĠParts":12232,"Ġcomponent":12233,"Ġslot":12234,"Ġmeh":12235,"894":12236,"ĠGecko":12237,"Ġheaven":12238,"Ġprelimin":12239,"ksandr":12240,"ĠWorldwide":12241,"Ġswift":12242,"Ġpartisan":12243,"ije":12244,"Ġabolished":12245,"undred":12246,"594":12247,"ĠPhase":12248,"ĠPhillip":12249,"ĠPhillips":12250,"ĠAllied":12251,"Ġanch":12252,"Ġanimal":12253,"ĠTerminal":12254,"Ġwhat":12255,"Ġwhen":12256,"ynam":12257,"ĠOperations":12258,"Ġfootage":12259,"Ġtomas":12260,"ĠMuseum":12261,"meiras":12262,"ambay":12263,"Ġ583":12264,"Ġdefense":12265,"Ġdefending":12266,"ĠObesity":12267,"Ġelgin":12268,"ĠÐĲ":12269,"ĠÐĴ":12270,"ĠÐĵ":12271,"ĠBeing":12272,"ĠBeast":12273,"ĠBeach":12274,"Ġsubmar":12275,"Ġbuchar":12276,"Ġbelle":12277,"ledo":12278,"ĠPassing":12279,"geria":12280,"Ġcluster":12281,"Ġpatricia":12282,"Ġpatrese":12283,"ĠEstrellas":12284,"Ġendonym":12285,"book":12286,"myth":12287,"ĠWorking":12288,"543":12289,"ĠAmericans":12290,"Ġmarket":12291,"ĠOfficer":12292,"garve":12293,"ÃŃo":12294,"Ġeste":12295,"Ġestoril":12296,"ĠBowler":12297,"Ġresigned":12298,"ĠSubj":12299,"ĠSubscri":12300,"itchener":12301,"Ġ](":12302,"Ġà°¤":12303,"Ġbayer":12304,"ĠPremiered":12305,"863":12306,"plus":12307,"ĠTroops":12308,"banon":12309,"ĠSerge":12310,"ĠAbram":12311,"Ġspect":12312,"Ġmontana":12313,"ĠBluet":12314,"Ġmagic":12315,"Ġmagazine":12316,"Ġmagdalena":12317,"Ġemily":12318,"ĠIntro":12319,"ĠIntake":12320,"Ġportuguese":12321,"sterdam":12322,"Ġmask":12323,"ĠEli":12324,"ĠElite":12325,"otspur":12326,"Ã¶z":12327,"ĠSuperlative":12328,"Ġwarren":12329,"Ġharold":12330,"uku":12331,"ĠÃī":12332,"ĠScout":12333,"ĠScient":12334,"ãģĦ":12335,"ĠVacated":12336,"Ġknock":12337,"iddi":12338,"idden":12339,"ĠNeighborhood":12340,"aeed":12341,"ĠAcceleration":12342,"Ġpolice":12343,"Ġpolite":12344,"Ġdengeki":12345,"Ġcontract":12346,"Ġmoran":12347,"Ġalexandra":12348,"Ġgoldstein":12349,"Ġstein":12350,"Åįh":12351,"ergus":12352,"Ġagency":12353,"ricker":12354,"Ġfrequency":12355,"urai":12356,"Ġerik":12357,"restrial":12358,"Ġpeterborough":12359,"Ġavg":12360,"Ġaviv":12361,"Ġride":12362,"Ġridership":12363,"opping":12364,"à´²à´¯":12365,"Ġimaging":12366,"ĠAmd":12367,"ĠNamesake":12368,"Ġmichaels":12369,"wealth":12370,"Ġæ½":12371,"ĠGTO":12372,"ĠGarrett":12373,"ĠHDI":12374,"Ġmavericks":12375,"Ġnorwich":12376,"Ġpremiered":12377,"Ġpanam":12378,"Ġadministration":12379,"Ġscottish":12380,"Ġgarry":12381,"stead":12382,"Ġsimpson":12383,"Ġdayton":12384,"Ġlisten":12385,"Ġkarp":12386,"Ġregazzoni":12387,"Ġprofessors":12388,"ĠTonioli":12389,"ĠFeet":12390,"ĠDenver":12391,"ĠReds":12392,"ĠRedkna":12393,"Ġpeterson":12394,"ĠBelievers":12395,"ĠCovered":12396,"ãĥª":12397,"Ġirvine":12398,"ĠSaturn":12399,"ĠGraph":12400,"Å¡a":12401,"ĠSignific":12402,"Ġ(Â¢)":12403,"Ġwei":12404,"ĠIslands":12405,"ĠDownload":12406,"Ġdonor":12407,"Ġdonald":12408,"ĠBasic":12409,"ĠSerials":12410,"Ġverd":12411,"Ġverde":12412,"combe":12413,"à¤¸":12414,"ĠPetacchi":12415,"ĠNorwood":12416,"Ġcrenshaw":12417,"ĠChrister":12418,"ĠChristine":12419,"arno":12420,"ĠDonor":12421,"Ġsummit":12422,"Ġtriple":12423,"ĠPeterborough":12424,"ĠRelative":12425,"ĠReligious":12426,"Ġsanto":12427,"Ġcasper":12428,"Ġstanis":12429,"ĠKnock":12430,"ĠKnots":12431,"Ġsandy":12432,"Ġsandro":12433,"Ġauto":12434,"Ġautumn":12435,"ĠDefinition":12436,"Ġlawson":12437,"Ġascari":12438,"Ġgregor":12439,"rancorchamp":12440,"ĠÎ·":12441,"ĠTurbine":12442,"ĠNumeric":12443,"Ġsurvey":12444,"Ġsurtees":12445,"Ġcbc":12446,"Ġmacdonald":12447,"Ġmccar":12448,"Ġliber":12449,"iasi":12450,"ĠSaif":12451,"ĠSaaeed":12452,"anzania":12453,"Ġdisco":12454,"à¸¢":12455,"Ġterang":12456,"Ġterrestrial":12457,"ĠMagnum":12458,"retired":12459,"Ġseconds":12460,"Ġcapitals":12461,"Ð¸Ð½":12462,"Ġtermination":12463,"ougars":12464,"Ġbradford":12465,"Ġload":12466,"ĠMonths":12467,"ĠMonthly":12468,"ĠFranklin":12469,"ĠFrankfurt":12470,"Arena":12471,"forward":12472,"xxx":12473,"ĠCommunist":12474,"ETED":12475,"ĠSynd":12476,"ĠRealization":12477,"Ġwillis":12478,"Ġholly":12479,"Ġkorean":12480,"ĠBarangays":12481,"ĠIntroductory":12482,"Ġethan":12483,"ĠCivilians":12484,"Ġgerhard":12485,"dais":12486,"ĠLuke":12487,"Ġcause":12488,"Ġmetal":12489,"Ġmagnus":12490,"baston":12491,"ĠÉª":12492,"alami":12493,"eduled":12494,"Ġboris":12495,"Ġboros":12496,"Ġbuddy":12497,"ĠCampbell":12498,"ĠMulti":12499,"ĠGoondiw":12500,"Ġbandini":12501,"Ġbandwidth":12502,"Ġburke":12503,"ĠReceptions":12504,"Ġintro":12505,"ĠAlberto":12506,"OND":12507,"autiful":12508,"ĠMySp":12509,"ĠModena":12510,"ĠModified":12511,"Ġbrooks":12512,"ĠBudget":12513,"ĠBuddh":12514,"Ġlimerick":12515,"ĠGregg":12516,"Ãºn":12517,"ĠCanterbury":12518,"ĠHills":12519,"Ġpacers":12520,"Ġfloat":12521,"Ġrubin":12522,"Ġoriginally":12523,"Ã¨res":12524,"ĠTeaching":12525,"ĠRaised":12526,"ĠVirtue":12527,"Ġweightlift":12528,"Ġstudent":12529,"80607":12530,"contestant":12531,"continent":12532,"ĠWillis":12533,"ĠCrus":12534,"ĠCalcul":12535,"ĠRides":12536,"ĠNTFS":12537,"ĠHoog":12538,"Ġmoore":12539,"regular":12540,"Ġforti":12541,"tegration":12542,"ĠOrganisation":12543,"Ġcosponsors":12544,"ĠSalmon":12545,"Ġtaip":12546,"ĠMadrid":12547,"ĠMadison":12548,"ĠGalician":12549,"Ġcrocod":12550,"ĠCONCACAF":12551,"ĠElectrical":12552,"nikov":12553,"yyyy":12554,"Ġtonight":12555,"ĠRyuji":12556,"ĠHawthorn":12557,"ĠChapters":12558,"Ġolivia":12559,"Chinese":12560,"Ð»Ð¾":12561,"ĠÒĶ":12562,"ĠÒķ":12563,"ĠPalace":12564,"ĠTigers":12565,"ĠRaymond":12566,"straklas":12567,"Ġcosta":12568,"Ġbryan":12569,"Ġbarton":12570,"Ġfighting":12571,"Ġoperations":12572,"ĠLows":12573,"Ġhonor":12574,"Ġvillores":12575,"Ġkuwait":12576,"Ġbarbara":12577,"à±Ĩ":12578,"ĠCamby":12579,"ĠCamera":12580,"ĠRogers":12581,"Ġsnake":12582,"Ġczechoslovakia":12583,"Ġnsr":12584,"Ġnicolas":12585,"ĠIndianapolis":12586,"ĠFeatures":12587,"ĠSpokespersons":12588,"ĠFIPS":12589,"ĠPayout":12590,"ĠPayload":12591,"ĠRules":12592,"Ġwheel":12593,"Ġjohan":12594,"Ġjohannes":12595,"Ġlowe":12596,"Ġkenneth":12597,"Ġspiral":12598,"ĠExtroverted":12599,"huis":12600,"herents":12601,"ĠSarah":12602,"ĠDemand":12603,"ĠRonald":12604,"ĠRicky":12605,"ĠMoore":12606,"Ġsilva":12607,"Ġsampled":12608,"Ġmaleeva":12609,"ĠBerlin":12610,"Ġobese":12611,"Ġwarsz":12612,"Ġgovernor":12613,"Ġgovernment":12614,"Ġhydro":12615,"Ġjessica":12616,"Ġramon":12617,"Ġdeportes":12618,"Ġorganisation":12619,"ĠDiscover":12620,"Ġslovakia":12621,"ĠPhonetic":12622,"ĠAccredited":12623,"...":12624,"Captain":12625,"ËĪt":12626,"ĠSIXTH":12627,"ĠSrpska":12628,"ĠCOMPL":12629,"ĠTenure":12630,"ĠTeleplay":12631,"ĠLifetime":12632,"Ġservices":12633,"Ġpageant":12634,"ĠVerizon":12635,"Ġgirl":12636,"ĠStrongs":12637,"Ġelimination":12638,"00000000000001":12639,"dershot":12640,"ĠSECOND":12641,"Ġtulsa":12642,"Ġtechnical":12643,"ĠASTC":12644,"ĠCodename":12645,"Ġcitizen":12646,"Ġbucks":12647,"Ġdimensions":12648,"Ġfoundation":12649,"Ġnigel":12650,"Ġnigeria":12651,"Ġowner":12652,"Ġaffiliation":12653,"ĠStanford":12654,"Ġvarious":12655,"Ġvariety":12656,"ĠCollison":12657,"ĠKazakhstan":12658,"ĠMcKay":12659,"000000000000003":12660,"Â¢/":12661,"à°²":12662,"à°Ĺ":12663,"ĠFischer":12664,"ĠFumble":12665,"ĠCroatian":12666,"ĠPavilion":12667,"ĠMEPs":12668,"ĠGibbs":12669,"Ġpromoted":12670,"ĠEPA":12671,"Ġnicholas":12672,"Ġhorse":12673,"Ġvienna":12674,"Ġstadler":12675,"ĠChambering":12676,"Ġforeign":12677,"ĠExecution":12678,"Ġcoyne":12679,"ĠConsumer":12680,"ĠConsumption":12681,"ĠAtlanta":12682,"ĠAutomatic":12683,"Ġanaheim":12684,"ĠSession":12685,"ĠDerby":12686,"ĠMills":12687,"ĠNSSDC":12688,"ĠNormal":12689,"Ġsettlement":12690,"Ġcongress":12691,"ĠOpinionWay":12692,"ĠEkstraklas":12693,"Ġfisichella":12694,"Ġfuryk":12695,"Ġhendrick":12696,"ĠJesse":12697,"ĠInglewood":12698,"ĠInfluence":12699,"Ġcommonwealth":12700,"Ġprovidence":12701,"ĠIsraeli":12702,"Ġspecies":12703,"Ġtrinidad":12704,"59582":12705,"ĠSoundDock":12706,"ĠTerritories":12707,"alogue":12708,"ĠMicro":12709,"Ġsachsen":12710,"Ġsaturn":12711,"Ġwadkins":12712,"Ġeugene":12713,"Ġmariners":12714,"Ġfrancesco":12715,"Ġzamboanga":12716,"Ġheidfeld":12717,"Ġdominikovic":12718,"Slovenian":12719,"cceeded":12720,"capacity":12721,"rashers":12722,"çīĮå":12723,"ĠCurry":12724,"ĠTornell":12725,"ĠNigeria":12726,"ĠGauge":12727,"ĠGonzalez":12728,"ĠHadeda":12729,"Ġbugatti":12730,"elorette":12731,"Ġstoner":12732,"ĠSequence":12733,"ĠUsage":12734,"Ġlakeside":12735,"Ã¡ndez":12736,"Ġphrase":12737,"Ġmechanism":12738,"ĠPhysical":12739,"Ġà²ķà²¨":12740,"Ġà´®à´²à´¯":12741,"ĠMcDonald":12742,"Neighborhood":12743,"Secret":12744,"ÅĦski":12745,"Ġongoing":12746,"Ġipswich":12747,"ĠPyaar":12748,"ĠTelugu":12749,"ĠToshiba":12750,"ĠDiagram":12751,"ĠRhein":12752,"ĠOakland":12753,"Ġpiccoli":12754,"Ġbourdais":12755,"chestra":12756,"Ġwaverley":12757,"Ġjamaica":12758,"Ġluton":12759,"ĠInaugurated":12760,"Ġleverkusen":12761,"Ġroosters":12762,"ĠFreedom":12763,"Ġedgbaston":12764,"ĠOrtholog":12765,"Ġmasahiro":12766,"Ã¶nen":12767,"ĠNepalis":12768,"Ġbreaststroke":12769,"ĠMagnitude":12770,"ĠMultiplier":12771,"Ġgiovanni":12772,"à²¨à²¡":12773,"Ġgimnasia":12774,"ĠPsychological":12775,"ĠSeparately":12776,"Glucose":12777,"Japanese":12778,"LZH":12779,"Oriented":12780,"Teacher":12781,"presenter":12782,"vironment":12783,"xembourg":12784,"âģĦ":12785,"ĠApogee":12786,"onauts":12787,"ĠPupil":12788,"alysis":12789,"ĠMousavi":12790,"ĠGlyph":12791,"Ġmideast":12792,"Ġprices":12793,"Ġdortmund":12794,"Ġfokker":12795,"Ġfaxon":12796,"charya":12797,"ĠRemittances":12798,"Ġnegative":12799,"ĠVikings":12800,"Ġwalsall":12801,"ĠImmunity":12802,"Ġinflation":12803,"ĠEnlisted":12804,"Ġeither":12805,"Ġlendl":12806,"ĠHexadecimal":12807,"ĠMarquesan":12808,"opoulos":12809,"ĠExpenditures":12810,"trincham":12811,"ĠInterregnum":12812,"Ġqualsiasi":12813,"Ġexhaust":12814,"Ġpreliminary":12815,"Ġbucharest":12816,"ĠSubscribers":12817,"ĠRedknapp":12818,"rancorchamps":12819,"ĠGoondiwindi":12820,"ĠMySpace":12821,"Ġweightlifting":12822,"Ġcrocodiles":12823,"Ġvilloresi":12824,"ĠCOMPLETED":12825,"ĠEkstraklasa":12826,"çīĮå¬°å¹¼åħĴéħįæĸ¹ä¹³ç²ī":12827,"%.":12828,".]":12829,"//":12830,"013":12831,"029":12832,"073":12833,"071":12834,"228":12835,"227":12836,"223":12837,"226":12838,"319":12839,"313":12840,"328":12841,"370":12842,"375":12843,"376":12844,"378":12845,"4000":12846,"412":12847,"473":12848,"405":12849,"423":12850,"474":12851,"407":12852,"435":12853,"465":12854,"438":12855,"401":12856,"476":12857,"516":12858,"526":12859,"536":12860,"589":12861,"546":12862,"630":12863,"628":12864,"617":12865,"673":12866,"605":12867,"604":12868,"607":12869,"675":12870,"638":12871,"712":12872,"714":12873,"770":12874,"727":12875,"766":12876,"820":12877,"827":12878,"869":12879,"835":12880,"865":12881,"801":12882,"920":12883,"914":12884,"930":12885,"927":12886,"972":12887,"904":12888,"967":12889,"944":12890,"979":12891,"962":12892,"://":12893,"And":12894,"Area":12895,"Average":12896,"Ang":12897,"ADA":12898,"Atl":12899,"BX":12900,"Bry":12901,"CO":12902,"CT":12903,"Car":12904,"Cont":12905,"CAT":12906,"CET":12907,"De":12908,"Des":12909,"Date":12910,"Female":12911,"GB":12912,"GHz":12913,"HC":12914,"House":12915,"Hungarian":12916,"ID":12917,"IT":12918,"Ind":12919,"JÃ¸r":12920,"Last":12921,"Lost":12922,"Lose":12923,"LPM":12924,"MC":12925,"ML":12926,"Mer":12927,"Mary":12928,"Max":12929,"Michel":12930,"NI":12931,"Nomin":12932,"NOC":12933,"NAME":12934,"OE":12935,"Open":12936,"Overs":12937,"Po":12938,"Pine":12939,"Paul":12940,"Rate":12941,"Runs":12942,"RST":12943,"SN":12944,"SO":12945,"Sq":12946,"Sen":12947,"TK":12948,"Tube":12949,"UC":12950,"UE":12951,"WC":12952,"WR":12953,"Win":12954,"WPI":12955,"WAB":12956,"ZE":12957,"ZDS":12958,"ZADA":12959,"bp":12960,"bt":12961,"bill":12962,"bey":12963,"brit":12964,"bik":12965,"bach":12966,"both":12967,"buk":12968,"bruck":12969,"bilt":12970,"bourg":12971,"cam":12972,"cine":12973,"cio":12974,"cock":12975,"cona":12976,"creased":12977,"cÃŃa":12978,"dat":12979,"due":12980,"dem":12981,"diction":12982,"dgos":12983,"eo":12984,"equ":12985,"fort":12986,"first":12987,"fik":12988,"fly":12989,"fors":12990,"fano":12991,"father":12992,"francorchamps":12993,"gn":12994,"gal":12995,"gia":12996,"gren":12997,"gett":12998,"gensen":12999,"gerald":13000,"global":13001,"hf":13002,"hon":13003,"hor":13004,"hil":13005,"hel":13006,"hur":13007,"hour":13008,"host":13009,"hower":13010,"hcl":13011,"hrs":13012,"haven":13013,"hagen":13014,"iol":13015,"iary":13016,"iler":13017,"ially":13018,"iÄį":13019,"iÃ³n":13020,"jar":13021,"jas":13022,"jub":13023,"john":13024,"jev":13025,"jana":13026,"jabi":13027,"ku":13028,"kv":13029,"kar":13030,"kel":13031,"kia":13032,"kish":13033,"kHz":13034,"kenny":13035,"kicker":13036,"kirchen":13037,"lla":13038,"lund":13039,"lbs":13040,"lÃ³":13041,"luded":13042,"mH":13043,"mk":13044,"mu":13045,"mie":13046,"mant":13047,"mora":13048,"nor":13049,"nis":13050,"number":13051,"nstein":13052,"nagar":13053,"oil":13054,"oong":13055,"oird":13056,"opted":13057,"pre":13058,"pel":13059,"pions":13060,"pac":13061,"post":13062,"press":13063,"pura":13064,"pedo":13065,"prus":13066,"qing":13067,"qmjhl":13068,"rab":13069,"ream":13070,"rent":13071,"rary":13072,"rons":13073,"rne":13074,"rino":13075,"ruli":13076,"see":13077,"sey":13078,"sett":13079,"size":13080,"sbury":13081,"semi":13082,"tri":13083,"tib":13084,"toto":13085,"times":13086,"tpb":13087,"uf":13088,"uct":13089,"uge":13090,"vil":13091,"vir":13092,"vard":13093,"vian":13094,"vio":13095,"villa":13096,"ws":13097,"wu":13098,"wom":13099,"wolves":13100,"xic":13101,"xton":13102,"xide":13103,"yer":13104,"yton":13105,"yright":13106,"ylde":13107,"zar":13108,"zone":13109,"µm":13110,"·ŀ":13111,"¸£":13112,"½ŀ":13113,"Âµm":13114,"ÄĻ":13115,"Åı":13116,"ÅĽ":13117,"ÅŁ":13118,"É½":13119,"ÊĴ":13120,"ËĲ":13121,"Ìģ":13122,"×Ķ":13123,"ä¼":13124,"ä¾":13125,"å®":13126,"åº":13127,"åĮ":13128,"åı":13129,"æĽ":13130,"ç¾":13131,"çĭ":13132,"çļ":13133,"çľ":13134,"ç¸£":13135,"éĽ":13136,"ìĻ":13137,"ï½ŀ":13138,"Ġí":13139,"ĠOM":13140,"Ġame":13141,"Ġum":13142,"Ġist":13143,"ĠUM":13144,"Ġult":13145,"Ġeld":13146,"Ġorth":13147,"Ġiz":13148,"ĠÃ©":13149,"Ġident":13150,"Ġ.)":13151,"Ġridge":13152,"ĠãĤ":13153,"ĠáŁ":13154,"ĠÑģ":13155,"Ġ×ķ":13156,"Ġ||":13157,"Ġrights":13158,"Ġigor":13159,"ĠÊĴ":13160,"ĭè":13161,"İå":13162,"İĭ":13163,"ĳÎ":13164,"ľĵ":13165,"ŀĹ":13166,"ĠSle":13167,"ĠSor":13168,"ĠSes":13169,"ĠSom":13170,"ĠSue":13171,"ĠSAT":13172,"ĠServed":13173,"ĠSelf":13174,"ĠSauer":13175,"ĠSources":13176,"ĠSodium":13177,"ĠSÃ¼d":13178,"ĠSZDS":13179,"lec":13180,"leston":13181,"lepool":13182,"legi":13183,"leasure":13184,"Ġtg":13185,"Ġting":13186,"Ġtac":13187,"Ġtong":13188,"Ġteng":13189,"Ġtree":13190,"Ġtander":13191,"Ġtickets":13192,"Ġtosh":13193,"Ġtwin":13194,"Ġtba":13195,"ĠtÃ¼r":13196,"Ġtoni":13197,"Ġtdi":13198,"Ġtanzania":13199,"ĠWra":13200,"ĠWolf":13201,"ĠWave":13202,"ĠWÃ¸":13203,"ĠWells":13204,"ĠWagner":13205,"ĠWellington":13206,"ĠFX":13207,"ĠFer":13208,"ĠFal":13209,"ĠFish":13210,"ĠFace":13211,"ĠFeld":13212,"ĠFib":13213,"ĠFlor":13214,"ĠFission":13215,"ĠFury":13216,"ĠFocal":13217,"ĠFEA":13218,"ĠFides":13219,"ĠFocus":13220,"ĠFylde":13221,"abet":13222,"abash":13223,"ĠFRAM":13224,"ĠAP":13225,"ĠAla":13226,"ĠAver":13227,"onic":13228,"onac":13229,"onised":13230,"erder":13231,"erling":13232,"inte":13233,"inbound":13234,"inney":13235,"inja":13236,"atu":13237,"atro":13238,"atibility":13239,"ĠCU":13240,"ĠCit":13241,"ĠCov":13242,"ĠCents":13243,"ĠClement":13244,"ĠCows":13245,"ĠCzech":13246,"ĠCDR":13247,"ĠCrav":13248,"ĠCitiz":13249,"ĠCSA":13250,"ĠCinema":13251,"eness":13252,"enced":13253,"enues":13254,"enza":13255,"enstein":13256,"anion":13257,"anay":13258,"aney":13259,"anmar":13260,"antha":13261,"oru":13262,"oral":13263,"orig":13264,"orra":13265,"orÃ©":13266,"orical":13267,"orback":13268,"amia":13269,"amak":13270,"amura":13271,"ammad":13272,"ĠPD":13273,"ĠPi":13274,"ĠPin":13275,"ĠPent":13276,"ĠPig":13277,"ĠPend":13278,"ĠPati":13279,"ĠPierre":13280,"ĠPugh":13281,"ĠPuerto":13282,"ĠPHP":13283,"ĠPamela":13284,"ĠPleasure":13285,"arine":13286,"araj":13287,"arcer":13288,"arthur":13289,"ĠTC":13290,"ĠTF":13291,"ĠTO":13292,"ĠTT":13293,"ĠTu":13294,"ĠTw":13295,"ĠTab":13296,"ĠTal":13297,"ĠTag":13298,"ĠTang":13299,"ĠTib":13300,"ĠTuck":13301,"ĠTower":13302,"ĠTimes":13303,"ĠTms":13304,"ĠTodd":13305,"alz":13306,"aling":13307,"alach":13308,"ĠDF":13309,"ĠDa":13310,"ĠDri":13311,"ĠDup":13312,"ĠDies":13313,"ĠDial":13314,"ĠDaw":13315,"ĠDix":13316,"ĠDerm":13317,"ĠDÃ¡":13318,"ĠDances":13319,"ĠDott":13320,"ĠDole":13321,"ĠDuncan":13322,"ĠDerrick":13323,"ĠDoyle":13324,"ĠRif":13325,"ĠRory":13326,"ĠRah":13327,"ĠRib":13328,"ĠRaf":13329,"ĠRna":13330,"ĠRET":13331,"ĠRPM":13332,"ĠRAvg":13333,"ĠMB":13334,"ĠMF":13335,"ĠMig":13336,"ĠMend":13337,"ĠMold":13338,"ĠMore":13339,"ĠMins":13340,"ĠMillion":13341,"ĠModes":13342,"ĠMrs":13343,"ĠMaster":13344,"ĠManuel":13345,"ĠMaja":13346,"ĠMicrosoft":13347,"ĠMorgenstern":13348,"ĠMongol":13349,"ĠMendoza":13350,"ĠMitte":13351,"ĠMitsubishi":13352,"itra":13353,"itia":13354,"iong":13355,"stri":13356,"sters":13357,"stop":13358,"strad":13359,"stars":13360,"eses":13361,"oura":13362,"Ġ()":13363,"Ġ(.":13364,"ĠLit":13365,"ĠLom":13366,"ĠLay":13367,"ĠLud":13368,"ĠLanc":13369,"ĠLib":13370,"ĠLGA":13371,"ĠLakota":13372,"ĠLomer":13373,"ĠLonav":13374,"ĠLansing":13375,"ĠNZ":13376,"ĠNr":13377,"ĠNER":13378,"ĠNan":13379,"ĠNag":13380,"ĠNuc":13381,"ĠNUp":13382,"ĠNBC":13383,"ĠNext":13384,"ĠNebraska":13385,"ĠNuggets":13386,"Ġsj":13387,"Ġsin":13388,"Ġsot":13389,"Ġsul":13390,"Ġsue":13391,"Ġsid":13392,"Ġsag":13393,"Ġsau":13394,"Ġsai":13395,"Ġsund":13396,"Ġsung":13397,"Ġsalo":13398,"Ġserb":13399,"Ġsams":13400,"Ġsato":13401,"Ġsvet":13402,"Ġsouch":13403,"Ġsymbol":13404,"law":13405,"laz":13406,"laine":13407,"lava":13408,"icate":13409,"icular":13410,"icoke":13411,"entzen":13412,"007":13413,"009":13414,"omial":13415,"omore":13416,"omfield":13417,"ommission":13418,"ĠGM":13419,"ĠGR":13420,"ĠGer":13421,"ĠGat":13422,"ĠGri":13423,"ĠGap":13424,"ĠGard":13425,"ĠGang":13426,"ĠGlo":13427,"ĠGuil":13428,"ĠGerm":13429,"ĠGÃ¼":13430,"ĠGVA":13431,"ĠGerald":13432,"ĠGolos":13433,"Ġcet":13434,"Ġcul":13435,"Ġcage":13436,"Ġcric":13437,"Ġcust":13438,"Ġcai":13439,"Ġcush":13440,"Ġcody":13441,"Ġcott":13442,"Ġcancer":13443,"Ġcatholic":13444,"Ġcopen":13445,"Ġcathy":13446,"Ġcska":13447,"Ġcanyon":13448,"Ġcougars":13449,"ĠOval":13450,"ĠOVA":13451,"ĠOCC":13452,"ĠPojo":13453,"ĠPolice":13454,"ĠPocona":13455,"ceston":13456,"cester":13457,"rix":13458,"ĠHis":13459,"ĠHess":13460,"ĠHors":13461,"ĠHuck":13462,"ĠHits":13463,"ĠHero":13464,"ĠHassan":13465,"Ġmp":13466,"Ġmw":13467,"Ġmos":13468,"Ġmang":13469,"Ġmama":13470,"Ġmald":13471,"Ġmalt":13472,"Ġmuk":13473,"Ġmuri":13474,"Ġmbar":13475,"Ġmtv":13476,"Ġmachine":13477,"Ġmhcl":13478,"reps":13479,"Ġpit":13480,"Ġpel":13481,"Ġpound":13482,"Ġpard":13483,"Ġput":13484,"Ġpace":13485,"Ġpair":13486,"Ġpages":13487,"Ġpione":13488,"Ġpirm":13489,"Ġpueb":13490,"ollo":13491,"iser":13492,"ises":13493,"ising":13494,"isel":13495,"Ġ314":13496,"Ġ321":13497,"Ġ335":13498,"Ġbon":13499,"Ġbent":13500,"Ġbri":13501,"Ġbend":13502,"Ġbourn":13503,"Ġbian":13504,"Ġbrig":13505,"Ġbond":13506,"Ġbatt":13507,"Ġbund":13508,"Ġboo":13509,"Ġbonn":13510,"Ġbump":13511,"Ġbailey":13512,"Ġbombers":13513,"Ġbristol":13514,"illes":13515,"ilio":13516,"iller":13517,"Ġ1901":13518,"ingd":13519,"ingers":13520,"ingos":13521,"ĠYates":13522,"ĠYankton":13523,"asi":13524,"asl":13525,"asus":13526,"asens":13527,"ĠEA":13528,"ĠEver":13529,"ĠEsk":13530,"ĠEVA":13531,"ĠdB":13532,"Ġds":13533,"Ġdul":13534,"Ġdart":13535,"Ġdag":13536,"Ġdup":13537,"Ġdess":13538,"Ġdug":13539,"Ġdog":13540,"Ġdres":13541,"Ġdane":13542,"Ġdual":13543,"Ġdrew":13544,"Ġdana":13545,"Ġdund":13546,"Ġdns":13547,"Ġdipi":13548,"Ġdrum":13549,"Ġdeep":13550,"Ġdpf":13551,"Ġderrick":13552,"otine":13553,"otte":13554,"ĠPlains":13555,"ĠBi":13556,"ĠBon":13557,"ĠBat":13558,"ĠBit":13559,"ĠBet":13560,"ĠBee":13561,"ĠBrid":13562,"ĠBuck":13563,"ĠBits":13564,"ĠBrie":13565,"ĠBright":13566,"ĠBene":13567,"ĠBhof":13568,"ĠBombers":13569,"ĠBoland":13570,"ĠButler":13571,"elman":13572,"elnikov":13573,"Ġfut":13574,"Ġfast":13575,"Ġfant":13576,"Ġfell":13577,"Ġfont":13578,"Ġfitz":13579,"Ġfuzz":13580,"Ġfriday":13581,"Ġfoster":13582,"Ġflavia":13583,"Ġfailure":13584,"eti":13585,"etz":13586,"eters":13587,"etary":13588,"etaker":13589,"rose":13590,"ayu":13591,"ayama":13592,"ayshaun":13593,"chy":13594,"christ":13595,"chlan":13596,"changes":13597,"chambert":13598,"ĠRef":13599,"ĠRect":13600,"ĠRefer":13601,"ĠReward":13602,"ĠRebe":13603,"ĠReeves":13604,"ĠReached":13605,"Ġnw":13606,"Ġnic":13607,"Ġnap":13608,"Ġnac":13609,"Ġnath":13610,"Ġnina":13611,"Ġntv":13612,"Ġnolan":13613,"Ġnuggets":13614,"Ġnevada":13615,"Ġncaa":13616,"verly":13617,"Ġ425":13618,"Ġ473":13619,"Ġ472":13620,"Ġ405":13621,"Ġ406":13622,"Ġ408":13623,"Ġ498":13624,"Ġ477":13625,"Ġost":13626,"Ġovers":13627,"Ġooo":13628,"Ġopinion":13629,"Ġoscar":13630,"ĠVI":13631,"ĠVil":13632,"ĠVid":13633,"ĠVow":13634,"ĠVos":13635,"ĠVide":13636,"ĠVinc":13637,"ĠVancouver":13638,"ĠVinto":13639,"ĠVoges":13640,"ĠVineyard":13641,"Ġau":13642,"Ġaet":13643,"Ġales":13644,"Ġaval":13645,"Ġaka":13646,"Ġags":13647,"Ġauburn":13648,"unceston":13649,"ueh":13650,"ĠMAAC":13651,"ĠMAZADA":13652,"berley":13653,"berwolves":13654,"ĠLoot":13655,"ĠLose":13656,"umi":13657,"umin":13658,"igen":13659,"igation":13660,"things":13661,"andria":13662,"Ġ550":13663,"Ġ522":13664,"Ġ507":13665,"Ġ533":13666,"Ġ537":13667,"Ġ594":13668,"Ġwn":13669,"Ġwu":13670,"Ġwor":13671,"Ġwit":13672,"Ġwall":13673,"Ġwine":13674,"Ġwey":13675,"Ġwash":13676,"Ġwald":13677,"Ġwyn":13678,"Ġways":13679,"Ġwalt":13680,"Ġwagner":13681,"Ġwooster":13682,"Ġwoking":13683,"Ġwizards":13684,"Ġwurz":13685,"Ġwabash":13686,"Ġwerder":13687,"Ġ613":13688,"Ġ615":13689,"Ġ618":13690,"Ġ673":13691,"Ġ633":13692,"Ġ631":13693,"imi":13694,"imit":13695,"sses":13696,"ĠIIN":13697,"ĠIje":13698,"ĠICL":13699,"ĠIyers":13700,"ankar":13701,"odoul":13702,"odafone":13703,"Ġgl":13704,"Ġgy":13705,"Ġgin":13706,"Ġgol":13707,"Ġgot":13708,"Ġgard":13709,"Ġgets":13710,"Ġgille":13711,"Ġgps":13712,"Ġglas":13713,"Ġgoo":13714,"ĠgÃ¶":13715,"Ġgiles":13716,"Ġglad":13717,"Ġgaut":13718,"Ġgzip":13719,"Ġgothen":13720,"urich":13721,"endu":13722,"endent":13723,"endine":13724,"endment":13725,"endale":13726,"Ġ718":13727,"Ġ704":13728,"Ġ794":13729,"adze":13730,"addy":13731,"adopoulos":13732,"ĠStark":13733,"ĠStevenson":13734,"ĠStopping":13735,"Ġhul":13736,"Ġhun":13737,"Ġhem":13738,"Ġhtt":13739,"Ġhus":13740,"Ġhow":13741,"Ġhack":13742,"Ġhop":13743,"Ġhern":13744,"Ġhaz":13745,"Ġhits":13746,"Ġhair":13747,"Ġhull":13748,"Ġhof":13749,"Ġhisp":13750,"Ġhero":13751,"Ġhermann":13752,"Ġhelsinki":13753,"Ġhotspur":13754,"Ġ209":13755,"isto":13756,"Ġjj":13757,"Ġjab":13758,"Ġjing":13759,"Ġjill":13760,"Ġjong":13761,"Ġjake":13762,"Ġjerem":13763,"Ġjays":13764,"Ġjenson":13765,"Ġjavier":13766,"Ġjansen":13767,"Ġjennings":13768,"emo":13769,"emen":13770,"emouth":13771,"emann":13772,"ryd":13773,"Ġinnes":13774,"Ġindust":13775,"apt":13776,"arte":13777,"artu":13778,"artz":13779,"ĠPositional":13780,"ĠReset":13781,"ĠTotalTK":13782,"ultz":13783,"Ġvc":13784,"Ġvy":13785,"Ġvir":13786,"Ġvand":13787,"Ġvick":13788,"Ġvoj":13789,"Ġvasco":13790,"Ġvarsity":13791,"idat":13792,"iden":13793,"idis":13794,"Ġrj":13795,"Ġrot":13796,"Ġrang":13797,"Ġrings":13798,"Ġrind":13799,"Ġrica":13800,"ĠrÃ¤":13801,"Ġricardo":13802,"Ġranges":13803,"Ġronnie":13804,"icken":13805,"Ġstri":13806,"Ġstre":13807,"Ġsteff":13808,"Ġstopp":13809,"Ġstrange":13810,"Ġstorage":13811,"Ġstaples":13812,"Ġlal":13813,"Ġlub":13814,"Ġlies":13815,"Ġlif":13816,"Ġliv":13817,"Ġlov":13818,"Ġlown":13819,"Ġlang":13820,"Ġlog":13821,"Ġlike":13822,"Ġlof":13823,"Ġliter":13824,"Ġlanny":13825,"Ġlisa":13826,"Ġlamar":13827,"Ġlumpur":13828,"Ġljub":13829,"eehan":13830,"usive":13831,"ĠChant":13832,"ĠChang":13833,"ĠChev":13834,"ĠChild":13835,"ĠChester":13836,"ĠChinas":13837,"ĠChaun":13838,"ĠLock":13839,"ĠJia":13840,"ĠJak":13841,"ĠJust":13842,"ĠJama":13843,"ĠJaneiro":13844,"ĠJyut":13845,"Ġ2015":13846,"Ġ2016":13847,"Ġ900":13848,"Ġ972":13849,"Ġ908":13850,"Ġkk":13851,"Ġkit":13852,"Ġkol":13853,"Ġkil":13854,"Ġkyle":13855,"Ġkerry":13856,"Ġkondo":13857,"Ġkuala":13858,"Ġkatherine":13859,"ĠIndu":13860,"ĠInfo":13861,"ĠInsp":13862,"ckter":13863,"owi":13864,"owr":13865,"ardt":13866,"agh":13867,"agon":13868,"hey":13869,"eston":13870,"ĠUba":13871,"upois":13872,"iese":13873,"ieson":13874,"ipot":13875,"ipel":13876,"Ġbydgos":13877,"ifford":13878,"uto":13879,"Ġ1228":13880,"Ġ1209":13881,"Ġ1233":13882,"Ġ1261":13883,"rico":13884,"osest":13885,"Ġeye":13886,"zek":13887,"Ġchun":13888,"Ġchang":13889,"Ġchung":13890,"ensburg":13891,"older":13892,"ĠToyota":13893,"ĠToxic":13894,"ĠComment":13895,"ĠCombin":13896,"Ġ1825":13897,"Ġ1868":13898,"Ġ1871":13899,"Ġ1877":13900,"Ġ1836":13901,"Ġ1889":13902,"Ġ1846":13903,"Ġ1882":13904,"Ġ1842":13905,"Ġ1892":13906,"Ġ1851":13907,"irected":13908,"ĠColumbus":13909,"ĠLeon":13910,"ĠProx":13911,"ĠProvin":13912,"Ġreason":13913,"Ġreps":13914,"Ġreve":13915,"Ġreyn":13916,"Ġreading":13917,"acey":13918,"ĠBron":13919,"ĠBrent":13920,"ĠBrothers":13921,"ĠBrendan":13922,"Ġ1400":13923,"ĠConverted":13924,"Ġpara":13925,"ĠParties":13926,"ĠPartially":13927,"ovia":13928,"ovski":13929,"acle":13930,"acio":13931,"across":13932,"Ġsector":13933,"Ġsecurity":13934,"Ġselection":13935,"Ġsevilla":13936,"Ġdep":13937,"Ġdeleted":13938,"Ġdeboard":13939,"Ġdelaware":13940,"Ġ1300":13941,"Ġ1391":13942,"ĠKM":13943,"ĠKr":13944,"ĠKu":13945,"ĠKor":13946,"ĠKam":13947,"ĠKate":13948,"ĠKent":13949,"ĠKay":13950,"ĠKir":13951,"ĠKos":13952,"ĠKoh":13953,"ĠKrag":13954,"ĠKCL":13955,"ĠKaine":13956,"ĠKelley":13957,"ĠKucinich":13958,"ĠKitchener":13959,"amples":13960,"assin":13961,"ĠDead":13962,"ĠDepth":13963,"ĠDegree":13964,"ĠDePaul":13965,"rud":13966,"rust":13967,"akk":13968,"akis":13969,"Ġ163":13970,"terian":13971,"Ġlebr":13972,"Ġlebanon":13973,"Ġleyton":13974,"eys":13975,"ffen":13976,"ffic":13977,"ĠComponent":13978,"ĠCompanion":13979,"ĠEvil":13980,"ĠEvans":13981,"ĠEviction":13982,"ĠEvalu":13983,"Ġunde":13984,"Ġunopposed":13985,"pulous":13986,"Ġyar":13987,"Ġyellow":13988,"ession":13989,"udd":13990,"udes":13991,"udley":13992,"ndham":13993,"Ġpok":13994,"Ġpoverty":13995,"Ġpopulous":13996,"ormo":13997,"ĠIncident":13998,"ĠInclination":13999,"ĠIncluded":14000,"ĠIncarcer":14001,"ĠHelen":14002,"Ġ173":14003,"Ġ177":14004,"Ġ178":14005,"angle":14006,"angzhou":14007,"Ġanders":14008,"Ġanderson":14009,"Ġandreas":14010,"ĠMarine":14011,"ĠMarco":14012,"avang":14013,"1250":14014,"tons":14015,"amese":14016,"ĠEngle":14017,"phans":14018,"phological":14019,"phanie":14020,"196":14021,"198":14022,"1930":14023,"1968":14024,"1969":14025,"1971":14026,"1906":14027,"1974":14028,"1931":14029,"1978":14030,"1982":14031,"1987":14032,"1997":14033,"sex":14034,"seud":14035,"security":14036,"loe":14037,"Ġ254":14038,"Ġ2500":14039,"ichita":14040,"ebu":14041,"atche":14042,"148":14043,"1400":14044,"ĠArmy":14045,"Ġ241":14046,"Ġ246":14047,"Ġ249":14048,"ikh":14049,"ikaru":14050,"ogen":14051,"oggin":14052,"ogne":14053,"ostedal":14054,"opf":14055,"ialist":14056,"ocon":14057,"Ġ233":14058,"Ġ2395":14059,"ĠQF":14060,"ĠQuit":14061,"ĠPeru":14062,"ĠPerry":14063,"ĠPerise":14064,"ications":14065,"Ġroz":14066,"Ġrosen":14067,"ĠWrittenby":14068,"Ġlau":14069,"Ġlay":14070,"Ġlaff":14071,"Ġlaunch":14072,"Ġlaunceston":14073,"Ġ302":14074,"ĠAlma":14075,"eldon":14076,"Ġwinning":14077,"Ġwinston":14078,"ĠChamps":14079,"Ġ277":14080,"ollow":14081,"ollini":14082,"alend":14083,"154":14084,"Ġtoledo":14085,"ĠThailand":14086,"ĠThierry":14087,"ĠGray":14088,"wardene":14089,"ierra":14090,"ords":14091,"163":14092,"168":14093,"169":14094,"251":14095,"252":14096,"Ġgrp":14097,"Ġgren":14098,"Ġ261":14099,"Ġ263":14100,"Ġ264":14101,"cco":14102,"ccent":14103,"Ġ291":14104,"ĠSher":14105,"ĠShape":14106,"Ġperkins":14107,"ĠVisitors":14108,"Ġraj":14109,"Ġrafer":14110,"Ġravens":14111,"305":14112,"309":14113,"manent":14114,"Ġali":14115,"Ġalain":14116,"Ġalston":14117,"Ġalpha":14118,"Ġaltrincham":14119,"ennial":14120,"Ġ280":14121,"Ġ286":14122,"Ġ287":14123,"Ġshak":14124,"Ġshield":14125,"Ġshock":14126,"Ġshannon":14127,"Ġshelby":14128,"Ġshankar":14129,"elbase":14130,"ĠQualif":14131,"Ġarts":14132,"Ġaround":14133,"Ġarmy":14134,"ĠMonte":14135,"ĠMonica":14136,"ethod":14137,"ĠUnanimous":14138,"ĠUniform":14139,"171":14140,"174":14141,"178":14142,"1750":14143,"ĠEngineering":14144,"1875":14145,"1878":14146,"Ġorion":14147,"Ġorbital":14148,"ĠCoeff":14149,"ĠCoppa":14150,"ĠCoakley":14151,"deen":14152,"erville":14153,"pert":14154,"perial":14155,"lens":14156,"intendent":14157,"Ġcarr":14158,"Ġcarol":14159,"Ġcaroline":14160,"ĠFinalDate":14161,"702":14162,"704":14163,"705":14164,"ancing":14165,"orns":14166,"Ġsouthport":14167,"Ġthan":14168,"Ġthor":14169,"Ġthur":14170,"Ġtheme":14171,"Ġthurs":14172,"Ġthorpe":14173,"Ġthrone":14174,"Ġthailand":14175,"oody":14176,"Ġspot":14177,"Ġspun":14178,"Ġspread":14179,"Ġsplice":14180,"obicoke":14181,"ĠSpir":14182,"ĠSpending":14183,"ĠSpartak":14184,"ĠCarol":14185,"ĠCarson":14186,"ĠCarpet":14187,"ĠCaroline":14188,"ĠCarbon":14189,"ĠCarelia":14190,"ĠPrev":14191,"ĠPreston":14192,"etsu":14193,"ahar":14194,"ahed":14195,"former":14196,"683":14197,"685":14198,"Ġfrentzen":14199,"ĠFinishing":14200,"ĠDecade":14201,"693":14202,"elet":14203,"ĠExalt":14204,"ĠExercise":14205,"ĠExamples":14206,"trunc":14207,"cott":14208,"ĠIntercept":14209,"risdiction":14210,"734":14211,"735":14212,"736":14213,"ĠTransfers":14214,"asha":14215,"ashira":14216,"centric":14217,"neapolis":14218,"721":14219,"726":14220,"051":14221,"052":14222,"055":14223,"Ġassoci":14224,"Ġado":14225,"Ġadri":14226,"Ġadac":14227,"Ġadherents":14228,"244":14229,"ĠTravis":14230,"Ġproject":14231,"Ġprospect":14232,"Ġ384":14233,"Ġ3806":14234,"ibe":14235,"ibles":14236,"ibao":14237,"067":14238,"238":14239,"ĠSongs":14240,"Ġ344":14241,"Ġ345":14242,"egh":14243,"egal":14244,"egashira":14245,"097":14246,"262":14247,"ĠUSF":14248,"ĠUSL":14249,"Ġusable":14250,"Ġusing":14251,"Ġ353":14252,"Ġ354":14253,"Ġ358":14254,"Ġ359":14255,"Ġsingular":14256,"rater":14257,"ĠAve":14258,"ĠAvoird":14259,"llable":14260,"ĠAssoci":14261,"741":14262,"Ġasw":14263,"Ġâ´":14264,"Ġâľĵ":14265,"ĠLau":14266,"660":14267,"Ġcape":14268,"evo":14269,"evolen":14270,"ĠNewman":14271,"quez":14272,"utherland":14273,"Ġcollect":14274,"ĠManning":14275,"042":14276,"043":14277,"049":14278,"Ġzo":14279,"Ġzen":14280,"Ġzhou":14281,"Ġzoel":14282,"berto":14283,"ĠAthens":14284,"ĠForces":14285,"Ġvictor":14286,"cola":14287,"exit":14288,"Ġiif":14289,"494":14290,"496":14291,"Ġbrendan":14292,"754":14293,"Ġmanage":14294,"Ġmanila":14295,"Ġamar":14296,"ĠamÃ©":14297,"byterian":14298,"Ġupper":14299,"oush":14300,"ĠPlur":14301,"Ã¡ng":14302,"Ã¡rez":14303,"678":14304,"ĠPrinter":14305,"ĠOffensive":14306,"340":14307,"Ġconrad":14308,"353":14309,"354":14310,"655":14311,"outbound":14312,"Ġphant":14313,"Ġ402":14314,"Ġgrande":14315,"Ġcox":14316,"Ġ331":14317,"loria":14318,"Ġ454":14319,"Ġ542":14320,"Ġmca":14321,"Ġmcd":14322,"Ġmcle":14323,"Ġnominee":14324,"037":14325,"955":14326,"ĠJoan":14327,"Ġengines":14328,"ĠNominative":14329,"ĠInstitute":14330,"mma":14331,"mming":14332,"982":14333,"983":14334,"984":14335,"986":14336,"988":14337,"Ġ441":14338,"Ġ443":14339,"ĠQualification":14340,"inda":14341,"448":14342,"ATV":14343,"shu":14344,"shine":14345,"shaw":14346,"Ġqb":14347,"Ġindy":14348,"388":14349,"Ġsigned":14350,"Ġopening":14351,"ĠPerformed":14352,"776":14353,"777":14354,"Ġedberg":14355,"Ġedmund":14356,"Ġclubs":14357,"Ġplaystation":14358,"851":14359,"858":14360,"ĠMcW":14361,"Ġoffenhauser":14362,"ĠCommenced":14363,"ĠOwnership":14364,"Ġapps":14365,"Ġappalach":14366,"Ġschools":14367,"Ġhawaii":14368,"452":14369,"459":14370,"ĠMovies":14371,"Ġminor":14372,"Ġministry":14373,"ĠZX":14374,"ĠZhang":14375,"Ġsui":14376,"itzki":14377,"ĠHosts":14378,"ĠBarr":14379,"ĠÂ¥":14380,"ĠÂ¹":14381,"ĠDayton":14382,"Ġxo":14383,"553":14384,"558":14385,"390":14386,"Ġguel":14387,"ĠSwedish":14388,"ĠAdams":14389,"ĠAdopted":14390,"CAD":14391,"791":14392,"797":14393,"Ġmonter":14394,"Ġbeer":14395,"oxville":14396,"Ġolim":14397,"ĠTracking":14398,"ussion":14399,"ĠGreater":14400,"ĠEdwin":14401,"ĠEddie":14402,"ĠMarks":14403,"ĠMarkatal":14404,"ĠOrange":14405,"ĠOrphans":14406,"Ġexchange":14407,"Ġexperience":14408,"ĠParenth":14409,"ĠParliament":14410,"782":14411,"788":14412,"ĠSouthwest":14413,"ĠSoutheast":14414,"Ġcompatibility":14415,"Ġslk":14416,"Ġsluman":14417,"ĠDaves":14418,"Ġcharacters":14419,"890":14420,"ulli":14421,"Ġhei":14422,"Ġheat":14423,"Ġheir":14424,"Ġprev":14425,"Ġrecorded":14426,"486":14427,"ijn":14428,"ijne":14429,"Ġabsol":14430,"ĠValverde":14431,"unders":14432,"undai":14433,"Ġcort":14434,"Ġcorps":14435,"Ġcornell":14436,"Ġcollier":14437,"Ġanat":14438,"Ġanand":14439,"Ġanother":14440,"ĠTermini":14441,"Ġscul":14442,"Ġwhalers":14443,"yna":14444,"Ġtorpedo":14445,"Ġpositions":14446,"anderbilt":14447,"Ġhills":14448,"Ġtoms":14449,"ĠMeasure":14450,"Ġvalid":14451,"ĠContestants":14452,"idae":14453,"586":14454,"ĠâĢ¦":14455,"Ġdeficit":14456,"flated":14457,"flict":14458,"Ġintertoto":14459,"Ġinterchanges":14460,"ĠRolePlay":14461,"ĠSpecimen":14462,"Ġelk":14463,"uesa":14464,"ĠÐ´":14465,"ĠBeer":14466,"ĠBefore":14467,"anoe":14468,"ĠTyph":14469,"Ġisabel":14470,"Ġbuick":14471,"Ġbutton":14472,"Ġjacky":14473,"ushi":14474,"lotto":14475,"Ã¼rich":14476,"Ġcliff":14477,"Ġpatent":14478,"Ġpattern":14479,"ĠWhen":14480,"ĠFranch":14481,"ĠFranÃ§":14482,"ĠAndray":14483,"Ġafrican":14484,"ĠIndole":14485,"ĠOrdered":14486,"oof":14487,"ĠVersions":14488,"ĠBroadcaster":14489,"ĠBroadcasting":14490,"ursuit":14491,"Ġreduction":14492,"erez":14493,"garh":14494,"moned":14495,"Ġestudiantes":14496,"ĠPreschool":14497,"irty":14498,"Ġresort":14499,"Ġresearch":14500,"Ġresolution":14501,"zzi":14502,"ĠSubstr":14503,"Ġbaylor":14504,"Ġbayhawks":14505,"cluding":14506,"clusive":14507,"plan":14508,"ĠPatton":14509,"ĠPatriots":14510,"ĠTroop":14511,"ĠSerie":14512,"ĠSergio":14513,"ĠSerbian":14514,"ĠLiqu":14515,"ĠBlues":14516,"ĠBlatche":14517,"ĠRevival":14518,"ĠRevolution":14519,"ĠRevenues":14520,"ĠSanford":14521,"ĠMissing":14522,"Ġmartini":14523,"ĠXML":14524,"ĠPorter":14525,"grano":14526,"ĠStefan":14527,"ĠInto":14528,"oulter":14529,"Ġporter":14530,"Ġportal":14531,"Ġchristodoul":14532,"ĠElectors":14533,"ĠRomania":14534,"ĠRomaja":14535,"Ġschneider":14536,"Ġschultz":14537,"Ġfriends":14538,"Ã¶l":14539,"Ã¶m":14540,"Ġtransactions":14541,"ĠActs":14542,"Ġwalking":14543,"ĠSuperchar":14544,"ĠSuperintendent":14545,"ĠAffected":14546,"Ġwarner":14547,"Ġharb":14548,"Ġharm":14549,"Ġharrison":14550,"Ġharrington":14551,"Ġformation":14552,"ĠÃ¦":14553,"ĠScience":14554,"ĠScrapped":14555,"ĠJerseys":14556,"burgish":14557,"ĠMcCr":14558,"Ã³ria":14559,"ãģŁ":14560,"Ġblackburn":14561,"ĠVacant":14562,"ĠVacancy":14563,"ĠVacuum":14564,"Ġknight":14565,"ĠMilan":14566,"ĠMilton":14567,"pperary":14568,"ĠGreenback":14569,"ĠCentrino":14570,"ĠCentennial":14571,"cheong":14572,"Ġdecimal":14573,"Ġdecreased":14574,"aefer":14575,"ĠSunshine":14576,"ĠAcademic":14577,"Ġflam":14578,"Ġflow":14579,"gaud":14580,"Ġenvelopment":14581,"ĠWheelbase":14582,"Ġcontent":14583,"Ġcontact":14584,"Ġcontestants":14585,"Ġcontested":14586,"Ġcontinu":14587,"Ġmorocco":14588,"Ġsteal":14589,"ĠClosing":14590,"ĠClosest":14591,"owski":14592,"Ġtrent":14593,"Ġcalvin":14594,"Ġcalder":14595,"Ġnickname":14596,"Ġagustin":14597,"Ġagassi":14598,"Ġagusta":14599,"ĠMalaysian":14600,"Ġfreib":14601,"ĠUndirected":14602,"Ġerie":14603,"ĠMaine":14604,"Ġå»":14605,"Ġunionist":14606,"à´¨":14607,"à´¿":14608,"ĠAmount":14609,"ĠAmiga":14610,"ĠAmateur":14611,"ĠAmendment":14612,"Ġmadd":14613,"Ġmichal":14614,"ĠGarland":14615,"Ġmaegashira":14616,"Ġduffy":14617,"Ġfever":14618,"Ġfeather":14619,"ARDA":14620,"menia":14621,"ĠGained":14622,"Ġpeck":14623,"Ġpanis":14624,"Ġbraves":14625,"Ġpalmeiras":14626,"Ġluxembourg":14627,"Ġleela":14628,"Stan":14629,"Stars":14630,"Staten":14631,"ĠSchumacher":14632,"ĠFalling":14633,"Ġchep":14634,"ĠgarcÃŃa":14635,"Ġfreddie":14636,"ĠSnow":14637,"Ġsimone":14638,"ĠEpic":14639,"ĠEpoch":14640,"Ġneal":14641,"ĠProfessors":14642,"Ġprofessional":14643,"drawal":14644,"Ġreleased":14645,"skauer":14646,"ĠFeather":14647,"Ġpete":14648,"Ġpetrol":14649,"ĠBello":14650,"ãĥ¼":14651,"ĠSimpson":14652,"ĠLouise":14653,"ĠGradu":14654,"Ġoverland":14655,"ĠArcher":14656,"ĠArchbishop":14657,"Ġrocks":14658,"ĠExponent":14659,"Including":14660,"ĠSignal":14661,"Ġsheila":14662,"ladolid":14663,"ĠHandel":14664,"Ġmaxi":14665,"ropower":14666,"Ġweaver":14667,"ĠKicker":14668,"cosur":14669,"Ġdoncaster":14670,"Show":14671,"aughan":14672,"market":14673,"venth":14674,"ameda":14675,"Ġsamuel":14676,"Ġsammy":14677,"Ġsamantha":14678,"lavic":14679,"ĠGuber":14680,"Ġhope":14681,"Ġconstruction":14682,"à¤¤":14683,"à¤¾":14684,"ĠMemphis":14685,"ĠNorris":14686,"Ġmalaysian":14687,"Ġmalcolm":14688,"Ġdownload":14689,"Ġdevon":14690,"ĠItaly":14691,"Ġlarsson":14692,"Ġtrial":14693,"ĠWithdrawal":14694,"ĠHarold":14695,"ĠHarrison":14696,"Ġwilfred":14697,"ĠKnow":14698,"rols":14699,"ĠMaur":14700,"Ġapollo":14701,"ĠBrandon":14702,"ĠDefenses":14703,"Ġprogramming":14704,"Ġislands":14705,"Ã¤r":14706,"ĠTurner":14707,"ĠNumer":14708,"Ġsurviv":14709,"Ġmacc":14710,"Ġmacau":14711,"Ġmccoy":14712,"ĠBinomial":14713,"Ġfifth":14714,"Ġjefferson":14715,"Ġkimi":14716,"urier":14717,"à¦°":14718,"ãĤ«":14719,"ĠNaturalisation":14720,"Ġbroadcasting":14721,"Ġromania":14722,"ĠConservative":14723,"Ġrodriguez":14724,"ĠSCHO":14725,"ĠSammy":14726,"Ġcastle":14727,"ĠOnt":14728,"ĠOnly":14729,"Ġmatte":14730,"Ġmelzer":14731,"ayawardene":14732,"uju":14733,"Ð¸Ñĺ":14734,"aliber":14735,"aliers":14736,"Ġpennetta":14737,"ĠBenalla":14738,"ĠBenevolen":14739,"Ġrichardson":14740,"Regular":14741,"Ġtreat":14742,"Ġdickinson":14743,"Ġlyric":14744,"Ġtsop":14745,"Ġsenators":14746,"ĠRealisation":14747,"Ġhyper":14748,"Ġhyundai":14749,"Ġlindsay":14750,"ĠCarlos":14751,"ĠObjectNumber":14752,"uzestan":14753,"Å«n":14754,"ĠTrip":14755,"ĠTriple":14756,"ĠMorphological":14757,"Ġserena":14758,"Ġwebber":14759,"Ġgerard":14760,"Ġinvol":14761,"Ġinvitational":14762,"ĠEmployment":14763,"ACK":14764,"harald":14765,"ĠAtlas":14766,"ĠNCBI":14767,"Ġcyril":14768,"Ġcycling":14769,"Ġmeters":14770,"Ġmetric":14771,"Ġfedor":14772,"ĠIllust":14773,"Ġcommunities":14774,"ĠAssisted":14775,"steiner":14776,"à¯Ĥ":14777,"ĠWarren":14778,"ĠCelebrit":14779,"ĠDream":14780,"Ġborussia":14781,"Ġjonas":14782,"ĠShooting":14783,"ĠAgriculture":14784,"ĠInvestigation":14785,"ĠFarmer":14786,"Ġbands":14787,"ĠJunctions":14788,"ĠJuniors":14789,"ĠShortstop":14790,"ĠParishes":14791,"Ġbuilders":14792,"Ġbuildings":14793,"oises":14794,"syllable":14795,"ĠAstro":14796,"ĠHardware":14797,"ĠHardness":14798,"Ġdaniella":14799,"Ġrelative":14800,"lynn":14801,"Ġalbums":14802,"Ġargentine":14803,"hardi":14804,"Ãºs":14805,"Ġashland":14806,"letter":14807,"Ġtelford":14808,"Ġtelstra":14809,"ĠWoods":14810,"ĠWrestlers":14811,"ĠCanonised":14812,"Ġsaber":14813,"Ġmassey":14814,"Ġdfv":14815,"Ġruben":14816,"ĠKingston":14817,
[...]
